{
    "</s>": 0,
    "<unk>": 1,
    ".": 2,
    ",": 3,
    "\u2581the": 4,
    "\u2581to": 5,
    "\u2581of": 6,
    "?": 7,
    "\u2581and": 8,
    "\u2581": 9,
    "s": 10,
    "\u2581a": 11,
    "'": 12,
    "\u2581in": 13,
    "\u2581\ub4e4": 14,
    "\u2581that": 15,
    "\u2581I": 16,
    "\u2581\u201d": 17,
    "\u2581you": 18,
    "\u2581\u201c": 19,
    "\u2581is": 20,
    "\u2581\uc774": 21,
    "\u2581-": 22,
    "\u2581\uc744": 23,
    "\u2581it": 24,
    "\u2581\uc758": 25,
    "\u2581for": 26,
    "\u2581\uc740": 27,
    "!": 28,
    "\u2581\uc5d0": 29,
    "\u2581\u2019": 30,
    "\u2581be": 31,
    "\u2581\u2018": 32,
    "\u2581with": 33,
    "\u2581not": 34,
    "\u2581was": 35,
    "\u2581have": 36,
    "\u2581we": 37,
    "\u2581are": 38,
    "\u2581on": 39,
    "\u2581\uac00": 40,
    "\u2581\ub294": 41,
    "\u2581this": 42,
    "\u2581\ub97c": 43,
    "\u2581\uadf8": 44,
    "\u2581\u2014": 45,
    ":": 46,
    "\u2019": 47,
    "\uc774": 48,
    "t": 49,
    "\u2581as": 50,
    "\uc744": 51,
    ")": 52,
    "\uc758": 53,
    "\u2581\ud55c": 54,
    "\ub294": 55,
    "\u2581they": 56,
    "\u2581The": 57,
    "\u2581(": 58,
    "\u2581he": 59,
    "\u2581his": 60,
    "\u2581will": 61,
    "\uac00": 62,
    "\u2581God": 63,
    "\uc5d0": 64,
    "\u2581from": 65,
    "...": 66,
    "\u2581can": 67,
    "\u2581by": 68,
    "\u2581your": 69,
    "\u2581And": 70,
    "\u2581what": 71,
    "\u2581do": 72,
    "\u2581all": 73,
    "\u2581\uc5d0\uc11c": 74,
    "\u2581me": 75,
    "\u2581\uc73c\ub85c": 76,
    "\u2581their": 77,
    "\u2581or": 78,
    "\ub97c": 79,
    "\u2581one": 80,
    "\u2581who": 81,
    "\u2581them": 82,
    "\u2581at": 83,
    "\u2581my": 84,
    "\uace0": 85,
    "\u2581[": 86,
    "\u2581You": 87,
    "\u2581\uacfc": 88,
    "\u2581\ub85c": 89,
    "\u2581Jehovah": 90,
    "\u2581It": 91,
    "\uc740": 92,
    "\u2581about": 93,
    "\u2581an": 94,
    "\u2581were": 95,
    "\ub3c4": 96,
    "\uc9c0": 97,
    "\u2581\uc785\ub2c8\ub2e4": 98,
    "\u2581but": 99,
    "\u2581so": 100,
    "re": 101,
    "\u2581What": 102,
    "\u2581\uc218": 103,
    "\u2581had": 104,
    "\u2581him": 105,
    "\u2581has": 106,
    "m": 107,
    ";": 108,
    "\u2581there": 109,
    "\u2581out": 110,
    "\u2581our": 111,
    "\u2581\uc778": 112,
    "\u2581We": 113,
    "\u2581\uc5d0\uac8c": 114,
    "\u2581people": 115,
    "\u2581\"": 116,
    "\u2581So": 117,
    "\u2581when": 118,
    "\u2581up": 119,
    "\u2581would": 120,
    "\u2581know": 121,
    "\u2581\uc6b0\ub9ac": 122,
    "-": 123,
    "\u2581\uc774\ub2e4": 124,
    "\u2581He": 125,
    "\u2581us": 126,
    "\u2581But": 127,
    "\u2581just": 128,
    "\u2581if": 129,
    "ing": 130,
    "\ub85c": 131,
    "\u25811": 132,
    "\u2581\uc640": 133,
    "\u2581time": 134,
    "\u2581like": 135,
    "\u2581no": 136,
    "\u2581more": 137,
    "\u2581In": 138,
    "\ud55c": 139,
    "\u2581\ub098": 140,
    "\u2581\ub3c4": 141,
    "\u2581\ud558\ub294": 142,
    "\u2581her": 143,
    "]": 144,
    "\u2581been": 145,
    "\uadf8": 146,
    "\u2581\uadf8\ub9ac\uace0": 147,
    "\u2581Jesus": 148,
    "\u2581Bible": 149,
    "\u2581some": 150,
    "\uc790": 151,
    "\uc694": 152,
    "\u2581which": 153,
    "\u2581those": 154,
    "\u2581did": 155,
    "\u2581said": 156,
    "\ub098": 157,
    "\u2581A": 158,
    "\u2581\ud558\uace0": 159,
    "\u2581\u00b7": 160,
    "\ub2e4": 161,
    "\uacfc": 162,
    "\uae30": 163,
    "\u2581\ud788": 164,
    "\u2581This": 165,
    "\u2581these": 166,
    "\u2581get": 167,
    "\uc5d0\uc11c": 168,
    "\u2581here": 169,
    "\u2581right": 170,
    "\u2581\ud569\ub2c8\ub2e4": 171,
    "\u2581may": 172,
    "d": 173,
    "\u2581\ub0b4": 174,
    "\u2581life": 175,
    "\u2581\ub144": 176,
    "\u2581into": 177,
    "\u2581how": 178,
    "\u2581then": 179,
    "\u2581They": 180,
    "\u2581way": 181,
    "\u25812": 182,
    "\u2581could": 183,
    "\u2581see": 184,
    "\u2581other": 185,
    "\u2581good": 186,
    "\u2581over": 187,
    "\u2581than": 188,
    "\u2581now": 189,
    "\u2581don": 190,
    "\u2581go": 191,
    "\ub77c": 192,
    "\u2581also": 193,
    "ed": 194,
    "\uc640": 195,
    "\u2581she": 196,
    "\u2581How": 197,
    "\uc77c": 198,
    "\u2581\ud558\uc9c0\ub9cc": 199,
    "\u2581man": 200,
    "\u2581That": 201,
    "\u2581many": 202,
    "\u2581things": 203,
    "\uc0ac\ub78c": 204,
    "\u2581\uc5d0\ub294": 205,
    "\uc73c\ub85c": 206,
    "\u2581world": 207,
    "\u2581even": 208,
    "\uac8c": 209,
    "\u2581make": 210,
    "\u2581because": 211,
    "\uc11c": 212,
    "\u2581\ub0b4\uac00": 213,
    "\u2581only": 214,
    "\u2581\ud558\uc600\ub2e4": 215,
    "\u2581want": 216,
    "\u2581\uc788\ub294": 217,
    "\u2581should": 218,
    "\uc5b4": 219,
    "\u2581going": 220,
    "\u2581say": 221,
    "\u2581\ub41c": 222,
    "\u2581such": 223,
    "\u2581think": 224,
    "\uba74": 225,
    "ll": 226,
    "\u2581years": 227,
    "\u2581day": 228,
    "\ud558\uace0": 229,
    "\u25813": 230,
    "\u2581If": 231,
    "\u2581\ud55c\ub2e4": 232,
    "\u2581\uc5ec\ud638\uc640": 233,
    "\ub9cc": 234,
    "\u2581need": 235,
    "\u2581come": 236,
    "\u2581first": 237,
    "\u2581two": 238,
    "\u2581\ud560": 239,
    "\u2581work": 240,
    "\uc57c": 241,
    "\u2581\ud558\uc5ec": 242,
    "\u2581very": 243,
    "\u2581\ud558\uac8c": 244,
    "\u2581\uc548": 245,
    "\u2581take": 246,
    "\u2581\uadf8\ub7ec\ub098": 247,
    "\u2581'": 248,
    "\uc778": 249,
    "ve": 250,
    "\ud560": 251,
    "\u2581\ud574": 252,
    "\ud574": 253,
    "\u2581No": 254,
    "\ud558\ub294": 255,
    "\u2581\ub354": 256,
    "\u2581back": 257,
    "\u2581made": 258,
    "\ub294\uac83": 259,
    "\uac83": 260,
    "\u2581its": 261,
    "\u2581\ubaa8\ub4e0": 262,
    "\u2581does": 263,
    "\u2581\uc788\uc2b5\ub2c8\ub2e4": 264,
    "\uc785\ub2c8\ub2e4": 265,
    "\u2581down": 266,
    "\u2581any": 267,
    "\u2581before": 268,
    "\uc6b0\ub9ac": 269,
    "\uc218": 270,
    "\u2581being": 271,
    "\u2581earth": 272,
    "\u2581help": 273,
    "\u2581\ud558\ub294\uac83": 274,
    "\u2581\ub124": 275,
    "\u201c": 276,
    "\u2581much": 277,
    "\u2581let": 278,
    "\u2581For": 279,
    "\uc801": 280,
    "\u2581where": 281,
    "\u2581love": 282,
    "\u2581When": 283,
    "\u300d": 284,
    "\u2581\ub09c": 285,
    "\u2581really": 286,
    "\u2581Why": 287,
    "\u2581got": 288,
    "\uc544": 289,
    "\u2581well": 290,
    "\u2581\ub2e4\ub978": 291,
    "\u2581\uaed8\uc11c": 292,
    "a": 293,
    ".\"": 294,
    "ly": 295,
    "\u2581\uc774\ub098": 296,
    "\u2581after": 297,
    "\u2581\ub2e4": 298,
    "\u2581\ub2f9\uc2e0": 299,
    "\uc2dc": 300,
    "\u2581children": 301,
    "\u2581There": 302,
    "\u2581\uc81c": 303,
    "\uc5ec\ud638\uc640": 304,
    "\u25814": 305,
    "\u2581times": 306,
    "\u2581shall": 307,
    "\u258110": 308,
    "\u25815": 309,
    "\"": 310,
    "\u2581\uaed8\uc11c\ub294": 311,
    "\u2581new": 312,
    "\u2581\uc77c": 313,
    "\u2581something": 314,
    "\u2581\ub54c": 315,
    "\u2581must": 316,
    "S": 317,
    "\u2581--": 318,
    "\u2581\uc6b0\ub9ac\uac00": 319,
    "\u2581most": 320,
    "\u2581through": 321,
    "I": 322,
    "\u2581little": 323,
    "\u2581own": 324,
    "\u2581give": 325,
    "\u2581\ud558\uc600\uc2b5\ub2c8\ub2e4": 326,
    "\u2581As": 327,
    "\u2581\uc774\uc81c": 328,
    "\u2581\uadf8\ub798\uc11c": 329,
    "\u2581\uac83\uc744": 330,
    "\u2581Christ": 331,
    "\u2581too": 332,
    "\u2581\uc5b4\ub5bb\uac8c": 333,
    "\u2581says": 334,
    "\ub124": 335,
    "\u2581same": 336,
    "\u2581\uc6b0\ub9ac\ub294": 337,
    "\u2581\uc81c\uac00": 338,
    "\u2581another": 339,
    "\uc0ac": 340,
    "\u2581men": 341,
    "\u2581\ud558\ub098\ub2d8": 342,
    "(": 343,
    "\u2581\uc608\uc218": 344,
    "\u2581She": 345,
    "\u2581\uac83": 346,
    "\u2581Well": 347,
    "\uc2a4": 348,
    "\uc8fc": 349,
    "y": 350,
    "\ub0b4": 351,
    "\u2581thing": 352,
    "\u2581Witnesses": 353,
    "\u2581never": 354,
    "\ub294\ub370": 355,
    "\u2581Allah": 356,
    "\u2581find": 357,
    "\u2581Oh": 358,
    "\u2581\uc785\ub2c8\uae4c": 359,
    "er": 360,
    "\u2581family": 361,
    "\u2581\uc804": 362,
    "\u2581page": 363,
    "\u2581/": 364,
    "\u2581\uc5d0\ub300\ud55c": 365,
    "\u2581\ud568": 366,
    "\uc2b5\ub2c8\ub2e4": 367,
    "\u2581Do": 368,
    "\u2581look": 369,
    "\u2581great": 370,
    "\u2581Now": 371,
    "\u2581Yeah": 372,
    "\u2581name": 373,
    "\u2581Christian": 374,
    "\uc911": 375,
    "\u2581\ud55c\uac83": 376,
    "\ub9ac": 377,
    "\u2581\uc544": 378,
    "\u2581others": 379,
    "\ub9d0": 380,
    "\u2581why": 381,
    "\uc8e0": 382,
    "\ub2c8": 383,
    "\u2060": 384,
    "\u2581\ub450": 385,
    "\u2581\uc5b4\ub5a4": 386,
    "\u2581put": 387,
    "\u2581\uc65c": 388,
    "\u2581year": 389,
    "\u2581every": 390,
    "\u2581away": 391,
    "\ud558\ub098\ub2d8": 392,
    "\u2581might": 393,
    "\u25816": 394,
    "\ub4e4\uc774": 395,
    "\u2581\uc790": 396,
    "\u2581\uc5d0\uc11c\ub294": 397,
    "\u2581am": 398,
    "\u2581All": 399,
    "\u2581use": 400,
    "\u2581\uc880": 401,
    "\u2581doing": 402,
    "\u2581off": 403,
    "\u2581\uadf8\uac83": 404,
    "\u2581Paul": 405,
    "\u2581\uc758\uc99d\uc778": 406,
    "\u2581still": 407,
    "\u2581came": 408,
    "the": 409,
    "\u2581\uc5ec\uae30": 410,
    "\u25818": 411,
    "\u2581long": 412,
    "\u2581place": 413,
    "\u2581\uc798": 414,
    "\u2581\uc800\ub294": 415,
    "\u2581\uadf8\ub4e4\uc740": 416,
    "\u258115": 417,
    "\u2581\uc544\ub2c8": 418,
    "\u2581home": 419,
    "\u2581\ud558": 420,
    "\u2581\uba85": 421,
    "\u2581today": 422,
    "\u2581\uc0ac\ub78c": 423,
    "\ub4e4": 424,
    "\u2581\uc5d0\ub300\ud574": 425,
    "\u2581found": 426,
    "\u2581against": 427,
    "\u2581gonna": 428,
    "\uc131": 429,
    "\u2581C": 430,
    "\u2581Lord": 431,
    "\u2581\uac70\uc57c": 432,
    "\u2581called": 433,
    "\u2581Then": 434,
    "\u2581\uc800": 435,
    "\u2581three": 436,
    "\u2581Let": 437,
    "\ud569\ub2c8\ub2e4": 438,
    "\u2581each": 439,
    "\u2581part": 440,
    "\u2581become": 441,
    "\u2581\ub610\ud55c": 442,
    "\u2581\uc778\uac00": 443,
    "\u2581x": 444,
    "\u2581Yes": 445,
    "\uc2e0": 446,
    "\u2581true": 447,
    "\u2581person": 448,
    "--": 449,
    "\ub300": 450,
    "\u2581One": 451,
    "\u2581used": 452,
    "\u2581\uae4c\uc9c0": 453,
    "\u2581upon": 454,
    "\u2581example": 455,
    "\u300c": 456,
    "e": 457,
    "\ud558\uc5ec": 458,
    "\u2581\ub9d0": 459,
    "\u2581\uace0": 460,
    "\u2581My": 461,
    "\u2581Is": 462,
    "\u2581\ub77c\uace0": 463,
    "\u2581\uadf8\ubd84": 464,
    "\u2581death": 465,
    "\u258120": 466,
    "\u2581heart": 467,
    "\ud558\uac8c": 468,
    "\u2581tell": 469,
    "\u25817": 470,
    "\u2581\uc8fc": 471,
    "\u2581again": 472,
    "\ud558\uc9c0": 473,
    "\u2581To": 474,
    "\u2581\uc5d0\uc788\ub294": 475,
    "\u2581keep": 476,
    "\ud558": 477,
    "\uba70": 478,
    "\u2581\uac8c": 479,
    "\u2581\uc788\uc5b4": 480,
    "\u2581\uc9c0\uae08": 481,
    "\u2581\uadf8\ub4e4\uc774": 482,
    "\u2581\uc774\ub7f0": 483,
    "\u2581\uc740\uadf8": 484,
    "\u2581course": 485,
    "\u2581mean": 486,
    "\ube44": 487,
    "\u2581human": 488,
    "\u2581\uac83\uc785\ub2c8\ub2e4": 489,
    "\u2581\ud558\uae30": 490,
    "\u2581feel": 491,
    "E": 492,
    "\uc18c": 493,
    "in": 494,
    "\u2581\ub9ce\uc740": 495,
    "\uce58": 496,
    "\u2581faith": 497,
    "\ubb3c": 498,
    "\uc5d0\uac8c": 499,
    "\ubd80": 500,
    "\ud558\ub290\ub2d8": 501,
    "\u2581end": 502,
    "\uc804": 503,
    "\ub9c8": 504,
    "\u2581B": 505,
    "\ub4dc": 506,
    "\u2581\uc131\uc11c": 507,
    "\u2581\uc6d4": 508,
    "\u2581\uc911": 509,
    "\u2581Christians": 510,
    "\u2581words": 511,
    "\u2581old": 512,
    "\uc624": 513,
    "\ub54c": 514,
    "\u2581\uc624": 515,
    "\u2581\uc815\ub9d0": 516,
    "\u2581around": 517,
    "\uc548": 518,
    "\u2581\ub9cc": 519,
    "\ub77c\uace0": 520,
    "\u2581believe": 521,
    "\u2581\uac70": 522,
    "\u2581under": 523,
    "\u2581\uadf8\ub798": 524,
    "\u2581means": 525,
    "\u2581among": 526,
    "\u2581\uc2dc": 527,
    "\u2581\ub610": 528,
    "\u2581\uadf8\ub7ec\ubbc0\ub85c": 529,
    "\u2581spirit": 530,
    "\u2581\u300c": 531,
    "\u2581\uac19\uc740": 532,
    "\u258112": 533,
    "\u2581didn": 534,
    "\uc7a5": 535,
    "\u2581number": 536,
    "\u2581\ub2e4\uc2dc": 537,
    "\u2581house": 538,
    "\u2581\uc608": 539,
    "\u2581Kingdom": 540,
    "\u2581\uc11c": 541,
    "\u2581actually": 542,
    "\u2581water": 543,
    "\uac70\ub098": 544,
    "\u2581told": 545,
    "\ub4e4\uc744": 546,
    "\uc9c4": 547,
    "\u2581parents": 548,
    "\u2581\ud588\uc2b5\ub2c8\ub2e4": 549,
    "\ud2b8": 550,
    "\u2581better": 551,
    "\u2581kind": 552,
    "\u2581\ucc98\ub7fc": 553,
    "\u2581Okay": 554,
    "\u2581\ud560\uac83": 555,
    "\u2581last": 556,
    "\ub3c4\uc6c0": 557,
    "\u2581both": 558,
    "\uc120": 559,
    "\ubc14": 560,
    "\u2581done": 561,
    "\u2581ones": 562,
    "\u2581without": 563,
    "\u2581days": 564,
    "\u2581between": 565,
    "\u2581truth": 566,
    "\u2581\ud558\ub290\ub2d8": 567,
    "\u2581left": 568,
    "\u2581show": 569,
    "\uc790\uc2e0": 570,
    "\u2581\ub0a0": 571,
    "\u25819": 572,
    "\uae38": 573,
    "\uc81c": 574,
    "\u2581b": 575,
    "\u2581while": 576,
    "\u2581His": 577,
    "\u2581\uac83\uc774": 578,
    "\u2581young": 579,
    "\uc5ec": 580,
    "\ub3c4\ub85d": 581,
    "\u2581thought": 582,
    "\uac70": 583,
    "\u2581\uadf8\ub7f0": 584,
    "\u2581\ubabb": 585,
    "\u2581\uc774\ub77c\uace0": 586,
    "\u2581always": 587,
    "\u2581\ubb34\uc2a8": 588,
    "\u2581ever": 589,
    "\u2581\uc138": 590,
    "\uae30\ub54c\ubb38": 591,
    "\u25813:": 592,
    "\uc0dd\uac01": 593,
    "\u2581hand": 594,
    "th": 595,
    "\u2581fact": 596,
    "\uc704": 597,
    "\ubb38\uc81c": 598,
    "\u2581different": 599,
    "\u2581live": 600,
    "\u2581S": 601,
    "\u2581power": 602,
    "\uad6c": 603,
    "\u2581\uc784": 604,
    "\u2581\uac83\uc740": 605,
    "\u2581himself": 606,
    "\u2581book": 607,
    "\u2581went": 608,
    "\u2581set": 609,
    "\u2581\ud558\ub098\ub2d8\uc740": 610,
    "\u2581together": 611,
    "\u25812:": 612,
    "\u2581New": 613,
    "\uc131\uc11c": 614,
    "x": 615,
    "\u2581given": 616,
    "\u2581\uadf8\ub0e5": 617,
    "\ud6c4": 618,
    "\u2581\uc774\uba70": 619,
    "\uadf8\ubd84": 620,
    "\u2581\uc774\ub7ec": 621,
    "\u2581Can": 622,
    "\u2581\uac74": 623,
    "\u2581\uc788\uc5b4\uc694": 624,
    "\uc138": 625,
    "\u2581talk": 626,
    "\ubd84": 627,
    "\u258118": 628,
    "\u2581son": 629,
    "\u2581\ub418\ub294": 630,
    "\u2581themselves": 631,
    "\u2581able": 632,
    "\ud654": 633,
    "\u2581\uc758\ub9d0\uc500": 634,
    "\ub358": 635,
    "\u2581\ub108\ud76c": 636,
    "\u2581\uac78": 637,
    "\u2581call": 638,
    "al": 639,
    "\u2581\uc704\ud574": 640,
    "\u2581John": 641,
    "\u2581\ubc14\ub85c": 642,
    "\u2581\ud55c\uc0ac\ub78c": 643,
    "\u2581\uadf8\ub7fc": 644,
    "\ubbf8": 645,
    "\u2581\uadf8\ub294": 646,
    "\u2581word": 647,
    "\u2581\uc774\uac83": 648,
    "n": 649,
    "\u2581Israel": 650,
    "\u2581father": 651,
    "\u2581\uadf8\ub807\uac8c": 652,
    "\u2581though": 653,
    "\u2581\ub420": 654,
    "\u2581few": 655,
    "\u2581saying": 656,
    "\u2581At": 657,
    "\u2581often": 658,
    "\ub450": 659,
    "\ub41c": 660,
    "\u2581congregation": 661,
    "\ub4e4\uc740": 662,
    "\u2581\ub294\ubb34\uc5c7": 663,
    "\u2581\uc0ac\uc2e4": 664,
    "\u2581took": 665,
    "\uc2e4": 666,
    "\u2581mind": 667,
    "\u2581Some": 668,
    "\uc2dc\uac04": 669,
    "\u2581\uac00\uc7a5": 670,
    "\u2581\uc5d0\ub3c4": 671,
    "\u258130": 672,
    "\u2581Hey": 673,
    "\u2581\ub429\ub2c8\ub2e4": 674,
    "\uc0c1": 675,
    "\u2581system": 676,
    "\u2581study": 677,
    "\uc9c0\ub9cc": 678,
    "\u2581Who": 679,
    "C": 680,
    "\u2581important": 681,
    "\u258111": 682,
    "\u2581spiritual": 683,
    "\u2581\ud558\ub294\ub370": 684,
    "\uc124\uba85": 685,
    "\uc608\uc218": 686,
    "\u2581\ud558\ub2e4": 687,
    "\u2581wife": 688,
    "\u2581\uba74\uc0bd": 689,
    "\u2581blood": 690,
    "\u2581\uc774\ub807\uac8c": 691,
    "\u2581\ub294\uadf8": 692,
    "\u2581read": 693,
    "\u2581\uaed8": 694,
    "The": 695,
    "\u2581O": 696,
    "\u2581bring": 697,
    "\u2581having": 698,
    "\u2581whom": 699,
    "r": 700,
    "\ud788": 701,
    "\u2581living": 702,
    "\u2581\ud568\uaed8": 703,
    "\u2581point": 704,
    "\u2581\ud588\ub2e4": 705,
    "\u2581\uc9c0": 706,
    "\u25814:": 707,
    "\u2581\ub300\ud55c": 708,
    "\u2581night": 709,
    "\u2581However": 710,
    "\u2581Your": 711,
    "\u2581sure": 712,
    "\u2581mother": 713,
    "\u2581Because": 714,
    "\u2581Not": 715,
    "\u25811:": 716,
    "\uc18d": 717,
    "\u2581Are": 718,
    "\u2581money": 719,
    "\u2581\uc2e4\ub85c": 720,
    "\u2581anything": 721,
    "\u2581\uac19\uc774": 722,
    "\u2581hope": 723,
    "\u2581\uadf8\ub7ec\ud55c": 724,
    "\ubcf4": 725,
    "\u2581city": 726,
    "\ub354": 727,
    "\u2581These": 728,
    "\u2581land": 729,
    "\u2581whole": 730,
    "\u2581\uc88b\uc740": 731,
    "\u2581next": 732,
    "\u2581later": 733,
    "\ub144": 734,
    "\u2581gave": 735,
    "\u2581lot": 736,
    "\u2581best": 737,
    "\u2581body": 738,
    "\u2581\ud558\ub294\uc0ac\ub78c": 739,
    "\uae30\ub3c4": 740,
    "\uc0b0": 741,
    "\uc9c8": 742,
    "\ud0c0": 743,
    "\u2581Picture": 744,
    "\u2581high": 745,
    "\u2581\ub098\ub294": 746,
    "\u2581until": 747,
    "\u2581nothing": 748,
    "\u2581\ub124\uac00": 749,
    "\u2581\ub9c8": 750,
    "\u2581making": 751,
    "\uc800": 752,
    "\u2581child": 753,
    "\u2581\uadf8\uac00": 754,
    "\u2581women": 755,
    "\ub2f9\uc2e0": 756,
    "\u2581food": 757,
    "\u2581\ub204\uac00": 758,
    "\uc6b0": 759,
    "\u2581during": 760,
    "\u2581since": 761,
    "\u2581On": 762,
    "\u25815:": 763,
    "\u2581order": 764,
    "\ub54c\ubb38": 765,
    "\u2581\ubb50": 766,
    "\u2581\ud558\uba70": 767,
    "\u2581\uac1c": 768,
    "\u2581\uadf8\uc758": 769,
    "\u2581change": 770,
    "\u2581became": 771,
    "\u2581\ub108": 772,
    "\uc790\uae30": 773,
    "\u2581equal": 774,
    "\u2581wrong": 775,
    "\u2581woman": 776,
    "\u2581\ub2f9\uc2e0\uc774": 777,
    "\u2581\ub300\ud574": 778,
    "\u2581yet": 779,
    "\u2581\ubc14\uc6b8": 780,
    "\u2581Come": 781,
    "\u2581Our": 782,
    "\u2581problem": 783,
    "\u2581ask": 784,
    "\u2581dead": 785,
    "\uad70": 786,
    "\u2581far": 787,
    "\u2581\uc788\uc744": 788,
    "\u2581\uadf8\ub4e4\uc758": 789,
    "\u2581\uc774\uac83\uc740": 790,
    "\u2581\uc54c\uace0": 791,
    "\uc6d0": 792,
    "\u2581Just": 793,
    "A": 794,
    "\uc73c\uba70": 795,
    "\ub370": 796,
    "\u2581news": 797,
    "\u2581real": 798,
    "\u2581By": 799,
    "\u2581\uc5b4": 800,
    "\u2581\uc774\uac74": 801,
    "\u2581\uc54c": 802,
    "\u2581\uc88b\uc544": 803,
    "\ubc0f": 804,
    "\uc74c": 805,
    "\uc9d1": 806,
    "\u2581four": 807,
    "\u2581reason": 808,
    "\u2581\ud558\uba74": 809,
    "\u2581saw": 810,
    "\u2581care": 811,
    "\u2581understand": 812,
    "\ucc28": 813,
    "\u2581\ub300": 814,
    "\u2581\ud558\ub098": 815,
    "\u2581someone": 816,
    "\u2581\uc774\uc5c8\ub2e4": 817,
    "\u2581\ub418": 818,
    "\u2581\ub108\ud76c\uac00": 819,
    "\ud558\uae30": 820,
    "\ub4f1": 821,
    "\u2581bad": 822,
    "\u2581\ud558\ub294\uc77c": 823,
    "\ub824": 824,
    "\u2581After": 825,
    "\u2581\ub418\uc5c8\ub2e4": 826,
    "\u2581\ub85c\ubd80\ud130": 827,
    "\u2581matter": 828,
    "\u25816:": 829,
    "\u2581unto": 830,
    "\u2581\ubcf4\ub2e4": 831,
    "\u2581learn": 832,
    "es": 833,
    "\u2581\uc774\uc2a4\ub77c\uc5d8": 834,
    "\u2581wanted": 835,
    "\ud53c": 836,
    "\u2581\ubaa8\ub450": 837,
    "\u2581\ud560\ub54c": 838,
    "\u2581coming": 839,
    "\uadf8\uac83": 840,
    "\u2581seen": 841,
    "\ud588\uc2b5\ub2c8\ub2e4": 842,
    "\u25811,": 843,
    "\uc774\uc57c": 844,
    "\u2581case": 845,
    "\u2581everything": 846,
    "\u2581\u266a": 847,
    "\ubb34\uc5c7": 848,
    "\u258116": 849,
    "\u2581\uadf8\ub7ec\uba74": 850,
    "\u2581fine": 851,
    "\u2581\uadf8\uac8c": 852,
    "i": 853,
    "\u2581\uc5c6\uc2b5\ub2c8\ub2e4": 854,
    "\ub2e8": 855,
    "\u2581\ud55c\uc77c": 856,
    "\u2581hard": 857,
    "\uba74\uc11c": 858,
    "\u2581\uc544\uc8fc": 859,
    "\u2581Word": 860,
    "\u2581view": 861,
    "\ub294\uc77c": 862,
    "\ud30c": 863,
    "\u2581full": 864,
    "\uc2ec": 865,
    "\u2581apostle": 866,
    "\u2581try": 867,
    "\u2581peace": 868,
    "\u2581turn": 869,
    "\uc0b4": 870,
    "\u2581\ub418\uc5b4": 871,
    "\u2581school": 872,
    "\uac1c": 873,
    "\uc57d": 874,
    "\uc5c8\ub2e4": 875,
    "\u2581side": 876,
    "\u2581sent": 877,
    "\u2581\ud070": 878,
    "\u2581asked": 879,
    "\u2581nor": 880,
    "\u2581David": 881,
    "\u2581\ub530\ub77c\uc11c": 882,
    "\uc2b5\ub2c8\uae4c": 883,
    "\ub514": 884,
    "\u2581already": 885,
    "\u2581Don": 886,
    "\uae4c\uc9c0": 887,
    "\u2581began": 888,
    "\u2581brought": 889,
    "\uac00\uc6b4\ub370": 890,
    "\u2581face": 891,
    "\u2581percent": 892,
    "\u2581\ud574\uc11c": 893,
    "\u2581\uac81\ub2c8\ub2e4": 894,
    "\u2581knowledge": 895,
    "\u2581\uc0ac\ub78c\uc774": 896,
    "c": 897,
    "\u2581United": 898,
    "\u2581With": 899,
    "\u2581cannot": 900,
    "\u2581\ubc88": 901,
    "\u2581*": 902,
    "\u2581\uac04": 903,
    "\u2581\ubb3c\ub860": 904,
    "\ubcf4\ub2e4": 905,
    "\u2581\ud6c4": 906,
    "\uc5c8\uc2b5\ub2c8\ub2e4": 907,
    "\u2581okay": 908,
    "\u2581\uc0ac": 909,
    "\ubaa8": 910,
    "\ub9ce\uc740": 911,
    "\u2581\uc5d0\uac8c\ub294": 912,
    "\u2581worship": 913,
    "\u2581problems": 914,
    "\ubcd1": 915,
    "\u2581\u25a1": 916,
    "\uc5b4\ub5a4": 917,
    "\u258125": 918,
    "\u2581wrote": 919,
    "\u2581war": 920,
    "T": 921,
    "\u2581fear": 922,
    "\u2581second": 923,
    "\u2581\uc0ac\ub78c\ub4e4\uc774": 924,
    "\u2581close": 925,
    "\u2581enough": 926,
    "\u2581king": 927,
    "\ub2e4\ub978": 928,
    "\uc774\ub7ec": 929,
    "\u2581\uc5c6\uc5b4": 930,
    "\uc790\ub140": 931,
    "\u2581\ub2f9\uc2e0\uc740": 932,
    "\u2581century": 933,
    "\uc904": 934,
    "?\"": 935,
    "\u2581\uc77c\uc774": 936,
    "\u258113": 937,
    "\u2581small": 938,
    "\u2581yourself": 939,
    "\u2581five": 940,
    "\u2581eyes": 941,
    "\u2581question": 942,
    "\u2581\ub9cc\uc57d": 943,
    "\ub9d0\uc500": 944,
    "\u2581hear": 945,
    "\u2581leave": 946,
    "\uac74": 947,
    "\u2581\ub108\ubb34": 948,
    "\u2581start": 949,
    "\u2581light": 950,
    "\uc0ac\ub791": 951,
    "\u2581\uace7": 952,
    "\uc810": 953,
    "\ud504": 954,
    "\ub824\uace0": 955,
    "\u2581\uc5c6\ub294": 956,
    "\ub0a0": 957,
    "\ub7ec": 958,
    "\u2581\uc904": 959,
    "\u2581\ub10c": 960,
    "\u2581\uc790\uae30": 961,
    "\u258117": 962,
    "\u2581\ud558\uba74\uc11c": 963,
    "\u2581\uc624\ub298\ub0a0": 964,
    "o": 965,
    "\u2581\ub77c": 966,
    "\u2581\uba74": 967,
    "\u2581\uadf8\ub4e4": 968,
    "\ud574\uc11c": 969,
    "\u2581open": 970,
    "\u2581heard": 971,
    "\u2581World": 972,
    "\u2581Father": 973,
    "\u2581\uc989": 974,
    "\u2581\uc774\uc544\ub2c8\ub77c": 975,
    "\uac70\uc57c": 976,
    "\u258114": 977,
    "\ubaa8\ub4e0": 978,
    "\u2581s": 979,
    "\ubc1c": 980,
    "\u2581future": 981,
    "\u2581ago": 982,
    "\u2581known": 983,
    "\u2581makes": 984,
    "\u2581brothers": 985,
    "\u2581\uc774\uadf8": 986,
    "\uc0dd\ud65c": 987,
    "\u2581lives": 988,
    "\u2581\uc0c1": 989,
    "\u2581Or": 990,
    "\u2581Where": 991,
    "or": 992,
    "\u2581nations": 993,
    "\u2581\ubd80\ud130": 994,
    "\u2581\uadf8\uac74": 995,
    "\u2581\uc6b0\ub9b0": 996,
    "\u2581Dr": 997,
    "\u2581\uc0dd\uac01": 998,
    "\u2581\ubbf8\uad6d": 999,
    "\u2581once": 1000,
    "\u2581\uba87": 1001,
    "\uc655": 1002,
    "\uadf8\ub9ac\uc2a4\ub3c4\uc778": 1003,
    "\ub418": 1004,
    "\ub9e4": 1005,
    "\uc5b4\ub5a0": 1006,
    "\u2581Thank": 1007,
    "\u2581free": 1008,
    "\u2581\uc774\uc5c8\uc2b5\ub2c8\ub2e4": 1009,
    "\u2581\uacfc\uac19\uc740": 1010,
    "\ud558\uba74": 1011,
    "\ubc18": 1012,
    "b": 1013,
    "\u2581\uc740\uc6b0\ub9ac": 1014,
    "\u2581answer": 1015,
    "\u2581happened": 1016,
    "\u2581million": 1017,
    "\u2581Of": 1018,
    "\u2581\uadf8\ub7f0\ub370": 1019,
    "\ud06c": 1020,
    "\u2581\ubd84": 1021,
    "\u2581cause": 1022,
    "\u2581religious": 1023,
    "\ub791": 1024,
    "\u2581Even": 1025,
    "\u2581head": 1026,
    "\u2581ways": 1027,
    "O": 1028,
    "\ud544\uc694": 1029,
    "),": 1030,
    "\u2581\uacc4\uc18d": 1031,
    "\u2581\ub2e4\uc74c": 1032,
    "\uac04": 1033,
    "\ubc95": 1034,
    "\u2581%": 1035,
    "\u2581y": 1036,
    "\u2581getting": 1037,
    "\u2581\ud558\uc9c0": 1038,
    "\u2581service": 1039,
    "\u2581possible": 1040,
    "\u2581\ud558\ub77c": 1041,
    "\u2581\ud558\ub098\ub2d8\uc758": 1042,
    "\u2581remember": 1043,
    "\ub2e4\ub978\uc0ac\ub78c": 1044,
    "\ubc30": 1045,
    "\u2581\uc5c6\uc774": 1046,
    "\uac10": 1047,
    "\u2581D": 1048,
    "\u2581\uc744\uc0ac\uc6a9": 1049,
    "\u2581friends": 1050,
    "\u2581mankind": 1051,
    "\ud558\uba70": 1052,
    "l": 1053,
    "\u2581\uadf8\ub4e4\uc744": 1054,
    "\u2581however": 1055,
    "\uc989": 1056,
    "ers": 1057,
    "\u2581Peter": 1058,
    "\u2581\uc2dc\uac04": 1059,
    "\ub2e4\uace0": 1060,
    "/": 1061,
    "\u2581\uac00\uc9c0\uace0": 1062,
    "\u2581Yet": 1063,
    "\uc870": 1064,
    "\u2581law": 1065,
    "\u2581Jerusalem": 1066,
    "\u2581certain": 1067,
    "\u2581P": 1068,
    "\uce74": 1069,
    "\uac19\uc740": 1070,
    "\u2581big": 1071,
    "\u2581toward": 1072,
    "\u2581\ud558\uc600\uc74d\ub2c8\ub2e4": 1073,
    "\uc801\uc778": 1074,
    "\u2581\ub85c\uc11c": 1075,
    "\u2581comes": 1076,
    "\u2581doesn": 1077,
    "\u2581die": 1078,
    "\u2581happy": 1079,
    "\u2581E": 1080,
    "\u2581started": 1081,
    "\u2581\ub77c\ub294": 1082,
    "\u2581trying": 1083,
    "\u2581else": 1084,
    "\ubb34": 1085,
    "\u2581Satan": 1086,
    "\u2581idea": 1087,
    "\ub178": 1088,
    "\u2581result": 1089,
    "\ubd80\ubaa8": 1090,
    "\u2581kingdom": 1091,
    "\u2581knew": 1092,
    "\u2581along": 1093,
    "\u2581\uc5d0\uad00\ud55c": 1094,
    "\ucc98\ub7fc": 1095,
    "\uadf8\ub7ec\ud55c": 1096,
    "\u2581&": 1097,
    "\u258150": 1098,
    "\u2581\u1100": 1099,
    "\ucc45": 1100,
    "\u2581States": 1101,
    "\u2581M": 1102,
    "\ub808": 1103,
    "\u2581country": 1104,
    "\u2581Many": 1105,
    "\ub545": 1106,
    "P": 1107,
    "\u2581looking": 1108,
    "\u258119": 1109,
    "\u2581\uc73c\ub85c\uc368": 1110,
    "\uc591": 1111,
    "\u2581\uc5ec": 1112,
    "\uadf8\ub9ac\uace0": 1113,
    "\u2581\uc624\ub298": 1114,
    "\u2581sorry": 1115,
    "\u2581husband": 1116,
    "\ub9c8\uc74c": 1117,
    "\u2581\ubcfc": 1118,
    "\u2581taken": 1119,
    "\u2581U": 1120,
    "\uc885": 1121,
    "\u2581less": 1122,
    "\u2581\uc774\ub77c\ub294": 1123,
    "\ubd88": 1124,
    "\u2581F": 1125,
    "\u2581brother": 1126,
    "\uc55e": 1127,
    "\u2581taking": 1128,
    "\uc788\ub294": 1129,
    "\u2581\ube44": 1130,
    "\uc628": 1131,
    "an": 1132,
    "\u2581message": 1133,
    "\u2581\uac00\uc9c0": 1134,
    "\u2581From": 1135,
    "\uc774\uc720": 1136,
    "\u2581Thus": 1137,
    "\ud639\uc740": 1138,
    "\u2581\uc774\ub294": 1139,
    "\ucf54": 1140,
    "\u258122": 1141,
    "\u2581please": 1142,
    "\u2581stop": 1143,
    "\u2581\uadf8\uac83\uc740": 1144,
    "\u2581sense": 1145,
    "\ud130": 1146,
    "\u2581100": 1147,
    "\u2581soon": 1148,
    "\u2581\uc758\uc774\ub984": 1149,
    "\u2581Look": 1150,
    "\uc0ac\uc6a9": 1151,
    "to": 1152,
    "\u2581persons": 1153,
    "\u2581\uc774\uac8c": 1154,
    "\ud568": 1155,
    "\ud1a0": 1156,
    "\u2581\ud604\uc7ac": 1157,
    "\u2581\ud37c\uc13c\ud2b8": 1158,
    "\uc778\uac04": 1159,
    "%": 1160,
    "\u2581clear": 1161,
    "D": 1162,
    "\uc544\ubc84\uc9c0": 1163,
    "\u2581present": 1164,
    "\u2581move": 1165,
    "\u2581religion": 1166,
    "\u2581\ub3fc": 1167,
    "\u2581\uc0c8": 1168,
    "\u25810": 1169,
    "\u2581\uc218\ub3c4": 1170,
    "\u2581\ub418\uc5c8\uc2b5\ub2c8\ub2e4": 1171,
    "\u2581speak": 1172,
    "\u2581\uc740\ubb34\uc5c7": 1173,
    "\u2581\ud558\ub098\ub2d8\uc774": 1174,
    "\u2581thinking": 1175,
    "\u2581\uc788\uace0": 1176,
    "\u2581article": 1177,
    "\u258140": 1178,
    "\u2581experience": 1179,
    "\u2581\uc77c\uc744": 1180,
    "\u2581\uc73c\ub85c\ubd80\ud130": 1181,
    "3": 1182,
    "\u2581King": 1183,
    "\u2581\ubcf4": 1184,
    "\ub4e0": 1185,
    "\u2581K": 1186,
    "\uc774\ub098": 1187,
    "\uc0c1\ud0dc": 1188,
    "\u2581\ubd80": 1189,
    "\u2581\ub97c\ub4e4\uc5b4": 1190,
    "\u2581early": 1191,
    "on": 1192,
    "\ud2f0": 1193,
    "\uc0c8": 1194,
    "\u2581\uadf8\ub54c": 1195,
    "\u2581age": 1196,
    "\u2581Did": 1197,
    "\u2581\uc5d0\uad00\ud574": 1198,
    "\u2581\u1102": 1199,
    "\ub2f9": 1200,
    "\uae30\uc704\ud574": 1201,
    "\ubb38": 1202,
    "\u2581\uc0ac\ub791": 1203,
    "\u2581\ud558\ub3c4\ub85d": 1204,
    "\u2581\ud569\ub2c8\uae4c": 1205,
    "\ub2e4\uc74c": 1206,
    "\u2581\ub54c\ubb38\uc5d0": 1207,
    "\u2581ye": 1208,
    "\uc774\uc5d0\uc694": 1209,
    "\u2581information": 1210,
    "\u2581\uc5d0\uadf8": 1211,
    "ic": 1212,
    "\ubc29": 1213,
    "\uc5b4\ub5bb\uac8c": 1214,
    "\ud615\uc81c": 1215,
    "\ub2e4\uba74": 1216,
    "\u2581hands": 1217,
    "\u2581alone": 1218,
    "\u2581line": 1219,
    "\u2581T": 1220,
    "\ud68c\uc911": 1221,
    "\u2581half": 1222,
    "\u2581needed": 1223,
    "\u2581\uc758\ub9d0": 1224,
    "\u2581\uc6b0\ub9ac\uc758": 1225,
    "\u2581Here": 1226,
    "\u2581questions": 1227,
    "\u2581\uc5d0\ub300\ud558\uc5ec": 1228,
    "\u2581needs": 1229,
    "\u2581serve": 1230,
    "\u2581holy": 1231,
    "\u2581\ub9cc\uc77c": 1232,
    "\u2581\uacfc\ud568\uaed8": 1233,
    "\u2581Son": 1234,
    "\u2581working": 1235,
    "\u2581talking": 1236,
    "2": 1237,
    "\u2581indeed": 1238,
    "\u2581large": 1239,
    "\u2581plus": 1240,
    "\u2581\uc804\uc5d0": 1241,
    "\u2581\uc704\ud55c": 1242,
    "\u2581government": 1243,
    "\u2581\uadf8\ub4e4\uc5d0\uac8c": 1244,
    "\u2581\uad6c": 1245,
    "\u2581\ubc1b\uc740": 1246,
    "\u2581\uc138\uae30": 1247,
    "\u2581\uc5d0\ub530\ub77c": 1248,
    "\u2581Moses": 1249,
    "\uc9c0\ub294": 1250,
    "\uc9c8\ubb38": 1251,
    "en": 1252,
    "\u2581Get": 1253,
    "\u2581using": 1254,
    "\uc54c": 1255,
    "\uc744\uac83": 1256,
    "\u2581job": 1257,
    "\u2581\uc54c\uc544": 1258,
    "\ub9ce\uc740\uc0ac\ub78c": 1259,
    "\u2581\uc5bc\ub9c8\ub098": 1260,
    "\ud589\ub3d9": 1261,
    "\uc815": 1262,
    "\u2581control": 1263,
    "\u2581\ub9e4\uc6b0": 1264,
    "\u2581according": 1265,
    "\ud6cc\ub96d": 1266,
    "\u2581marriage": 1267,
    "\uae30\ub85d": 1268,
    "\u2581\uc694\ud55c": 1269,
    "\u2581purpose": 1270,
    "\u2581Those": 1271,
    "\u2581\uc5ec\uae30\uc11c": 1272,
    "\u2581heaven": 1273,
    "\u2581un": 1274,
    "\u2581form": 1275,
    "\u2581works": 1276,
    "\u2581\ud558\uae30\uc704\ud574": 1277,
    "\u2581W": 1278,
    "\u2581\uacc4\uc2dc": 1279,
    "\u2581sin": 1280,
    "\u2581\uc628": 1281,
    "\uae08": 1282,
    "\ub098\ub77c": 1283,
    "\uc9c0\uc5ed": 1284,
    "\uba85": 1285,
    "\uc9c0\ub3c4": 1286,
    "\u2581\uc544\ub2c8\uba74": 1287,
    "\uc544\uc774": 1288,
    "\uac00\uc871": 1289,
    "\u2581whether": 1290,
    "\u2581least": 1291,
    "\u2581friend": 1292,
    "\uccb4": 1293,
    "\u2581anyone": 1294,
    "\u2581lost": 1295,
    "\u2581\uc774\ubbf8": 1296,
    "\uc774\ub77c\uace0": 1297,
    "\u2581\ub41c\ub2e4": 1298,
    "\u2581eat": 1299,
    "\u2581felt": 1300,
    "\u2581past": 1301,
    "\u2581negative": 1302,
    "\ub098\ubb34": 1303,
    "\u2581feet": 1304,
    "\u2581forth": 1305,
    "\u2581\uadf8\ub97c": 1306,
    "\ubcf8": 1307,
    "\u2581\uac70\uc608\uc694": 1308,
    "R": 1309,
    "\u2581group": 1310,
    "\u2581won": 1311,
    "\u2581\uc5ec\ub7ec\ubd84": 1312,
    "\u2581six": 1313,
    "\u2581self": 1314,
    "\uc720": 1315,
    "\ud638": 1316,
    "\ub108": 1317,
    "\u2581died": 1318,
    "\u25814.": 1319,
    "\u2581\uc544\ub2c8\ub77c": 1320,
    "\u2581An": 1321,
    "\uacf3": 1322,
    "\uc2dd": 1323,
    "\u2581personal": 1324,
    "\u2581disciples": 1325,
    "\u2581faithful": 1326,
    "\uc6a9": 1327,
    "\ub77c\ub294": 1328,
    "\uc988": 1329,
    "\u2581bit": 1330,
    "\u2581months": 1331,
    "\u2581\ud53c": 1332,
    "\ubc29\ubc95": 1333,
    "\uace0\uc788\ub2e4": 1334,
    "\u2581following": 1335,
    "\ucd08": 1336,
    "\uc5f4": 1337,
    "\uae4c": 1338,
    "\u2581servants": 1339,
    "\u2581follow": 1340,
    "\u2581\ubcf4\uace0": 1341,
    "\u2581room": 1342,
    "\ud574\uc57c": 1343,
    "\u2581within": 1344,
    "\u2581learned": 1345,
    "\u2581\ud558\uc2ed\uc2dc\uc624": 1346,
    "\u2581car": 1347,
    "\uc6cc": 1348,
    "\ub3d9": 1349,
    "\u2581situation": 1350,
    "\ud798": 1351,
    "\u2581share": 1352,
    "\u2581history": 1353,
    "\ub974": 1354,
    "\u2581\ud558\uace0\uc788\ub2e4": 1355,
    "\u2581\uc0b0": 1356,
    "\u2581\ud558\uc168\uc2b5\ub2c8\ub2e4": 1357,
    "\u2581\uc0c8\ub85c\uc6b4": 1358,
    "\u2581giving": 1359,
    "\u2581fire": 1360,
    "\ubd09\uc0ac": 1361,
    "\uc608": 1362,
    "\uc885\uad50": 1363,
    "\u2581Be": 1364,
    "ness": 1365,
    "\u2581area": 1366,
    "\u2581thou": 1367,
    "\u2581language": 1368,
    "\u2581almost": 1369,
    "\u2581write": 1370,
    "\ub124\uc694": 1371,
    "\ucf00": 1372,
    "\u2581kill": 1373,
    "1": 1374,
    "\uc0ac\uc774": 1375,
    "\u2581girl": 1376,
    "\u2581\uc7a5": 1377,
    "\u2581Matthew": 1378,
    "\u2581\ubd80\ubaa8": 1379,
    "\uac15": 1380,
    "\uad00": 1381,
    "\u2581humans": 1382,
    "\u2581myself": 1383,
    "\u2581\uac83\uc774\ub77c": 1384,
    "\u2581\ub098\ub3c4": 1385,
    "\uc774\ub77c": 1386,
    "\uac78": 1387,
    "\uc5b4\uc694": 1388,
    "\ud558\ub77c": 1389,
    "\u2581certainly": 1390,
    "\u2581\uc544\ub9c8": 1391,
    "\u2581Go": 1392,
    "\ub2c8\uae4c": 1393,
    "\ub3c8": 1394,
    "\u2581especially": 1395,
    "M": 1396,
    "\ud588\ub2e4": 1397,
    "\u258112:": 1398,
    "\u2581\uc0b4": 1399,
    "\u2581itself": 1400,
    "\uc815\ub3c4": 1401,
    "\u2581near": 1402,
    "\u2581Good": 1403,
    "\uc720\uc775": 1404,
    "\u2581\uc65c\ub0d0\ud558\uba74": 1405,
    "\u2581preaching": 1406,
    "\u2581\uadf8\uac83\uc744": 1407,
    "\u2581\uc544\uc9c1": 1408,
    "\uad50\ud68c": 1409,
    "\u2581Please": 1410,
    "\u2581\uc774\uc788\ub2e4": 1411,
    "\ub9b0": 1412,
    "\u2581hours": 1413,
    "\ud55c\ub2e4": 1414,
    "\uc8c4": 1415,
    "\u2581THE": 1416,
    "\u2581stay": 1417,
    "\u2581rest": 1418,
    "\uc190": 1419,
    "\ub780": 1420,
    "\u2581\ud558\uc2e0": 1421,
    "\u2581R": 1422,
    "\u2581consider": 1423,
    "\u2581\u25cf": 1424,
    "\u2581health": 1425,
    "\u2581\ubc30": 1426,
    "\u2581\uc2a4": 1427,
    "\ud0a4": 1428,
    "\ud65c\ub3d9": 1429,
    "\u2581\ub4e4\uc5b4": 1430,
    "\u2581G": 1431,
    "\u2581stand": 1432,
    "\u2581morning": 1433,
    "\u2581\ubb58": 1434,
    "\ub2e4\uac00": 1435,
    "\uacf5": 1436,
    "\u2581Scriptures": 1437,
    "p": 1438,
    "it": 1439,
    "\u2581Since": 1440,
    "\u2581hold": 1441,
    "\u2581rather": 1442,
    "\u258124": 1443,
    "Name": 1444,
    "\u2581therefore": 1445,
    "\uc0dd\uba85": 1446,
    "\u2581Mr": 1447,
    "\u2581ancient": 1448,
    "\u2581\ub9ce\uc774": 1449,
    "\u2581created": 1450,
    "\uac8c\ub420\uac83": 1451,
    "\uc774\uc57c\uae30": 1452,
    "\uc73c\uba74": 1453,
    "\u2581soul": 1454,
    "\uc774\uc0c1": 1455,
    "\u2581\uc131": 1456,
    "\ud55c\ud14c": 1457,
    "\u2581\uc5b4\ub514": 1458,
    "\uae30\uc220": 1459,
    "\u2581longer": 1460,
    "\u2581\ubd10": 1461,
    "\u2581\ub108\ud76c\ub294": 1462,
    "\ub300\ub2f5": 1463,
    "\u2581righteous": 1464,
    "\uc5f0\uad6c": 1465,
    "\u2581goes": 1466,
    "\uc5b8\uae09": 1467,
    "\u2581\uc774\uace0": 1468,
    "\u2581\uc778\uac04": 1469,
    "\u2581\uc640\ud568\uaed8": 1470,
    "\u2581return": 1471,
    "\ub300\ub85c": 1472,
    "\u2581heavens": 1473,
    "\u2581knows": 1474,
    "\u2581special": 1475,
    "\u2581\ud55c\ub2e4\uba74": 1476,
    "\ub208": 1477,
    "\u2581guy": 1478,
    "k": 1479,
    "\u258121": 1480,
    "\uc784": 1481,
    "\u2581\uc774\uc0c1": 1482,
    "\u2581\uc790\uc2e0": 1483,
    "\u2581\uc544\ubc84\uc9c0": 1484,
    "\u2581\ub418\uace0": 1485,
    "\u2581baby": 1486,
    "\u2581c": 1487,
    "\u2581\uc2ec\uc9c0\uc5b4": 1488,
    "\u2581\uc5b4\ub290": 1489,
    "\ub108\ud76c": 1490,
    "\u2581\ud56d\uc0c1": 1491,
    "\u2581\uc6d0": 1492,
    "\u2581attention": 1493,
    "\ud310": 1494,
    "\u2581m": 1495,
    "\uc138\uacc4": 1496,
    "\u2581\ub098\uc758": 1497,
    "\u2581\uc758\uc655\uad6d": 1498,
    "\u2581\uc57d": 1499,
    "\u2581support": 1500,
    "\u2581L": 1501,
    "\u2581\uadf8\ub7ec\ub2c8\uae4c": 1502,
    "\u2581continue": 1503,
    "\ud558\ub098": 1504,
    "\u2581\uc5f4": 1505,
    "\ub4a4": 1506,
    "\u2581\uacfc\uac19\uc774": 1507,
    "\u2581strong": 1508,
    "\u2581thus": 1509,
    "\uc5ec\uc790": 1510,
    "\ub0a8": 1511,
    "\uc7ac": 1512,
    "\ucc9c": 1513,
    "\u2581\ub420\uac83": 1514,
    "\uc74d\ub2c8\ub2e4": 1515,
    "le": 1516,
    "\u2581\ub098\ub97c": 1517,
    "\ud589\ubcf5": 1518,
    "\u2581\uc758\uc0ac\ub78c": 1519,
    "\u2581\uc740\uc5ec\ud638\uc640": 1520,
    "\u2581common": 1521,
    "\u2581\uc598\uae30": 1522,
    "\u2581everyone": 1523,
    "\u258110:": 1524,
    "\u2581\ub9c8\ud0dc": 1525,
    "\ubbff\uc74c": 1526,
    "\u2581happen": 1527,
    "\uc0c9": 1528,
    "\u2581evil": 1529,
    "\u2581See": 1530,
    "\u258111:": 1531,
    "\u2581countries": 1532,
    "\u25813,": 1533,
    "\uc131\uacbd": 1534,
    "\u2581People": 1535,
    "\u2581\ubc14": 1536,
    "\u2581nation": 1537,
    "\ud3ec": 1538,
    "B": 1539,
    "\u2581\uacfc\uad00\ub828": 1540,
    "\u2581loving": 1541,
    "\u2581Have": 1542,
    "\u2581\ub9c8\ub2e4": 1543,
    "\u2581prayer": 1544,
    "\u2581\ud574\uc57c": 1545,
    "\u2581\uae30": 1546,
    "\u2581\ubbf8": 1547,
    "\uc99d\uc778": 1548,
    "\u2581\ubb3c": 1549,
    "\uc545": 1550,
    "\ub2ec": 1551,
    "\u2581\uc5d0\uc758\ud558\uba74": 1552,
    "\u2581trust": 1553,
    "\u25817:": 1554,
    "\u2581above": 1555,
    "\u2581meet": 1556,
    "\u2581lead": 1557,
    "\uacbd\uc6b0": 1558,
    "\u2581church": 1559,
    "\uc911\uc694": 1560,
    "\u2581members": 1561,
    "\u2581sons": 1562,
    "\u2581run": 1563,
    "\uacc4\uc18d": 1564,
    "\uc796\uc544": 1565,
    "\u2581Him": 1566,
    "\u2581killed": 1567,
    "\u2581story": 1568,
    "\u2581value": 1569,
    "\u2581desire": 1570,
    "\u2581\ubaa8\uc138": 1571,
    "\uc601": 1572,
    "\uc138\uc0c1": 1573,
    "\u2581\uc5d0\uc11c\ub3c4": 1574,
    "\u2581behind": 1575,
    "\u2581evidence": 1576,
    "\u2581\uc720": 1577,
    "\uc528": 1578,
    "\u2581\uc740\ud558\ub098\ub2d8": 1579,
    "\u2581public": 1580,
    "\u2581\uc774\uac83\uc774": 1581,
    "\ub8e8": 1582,
    "\ub09c": 1583,
    "\u2581\uc791\uc740": 1584,
    "\u2581maybe": 1585,
    "\u2581\uc5c6\uc5b4\uc694": 1586,
    "\u2581\ud2b9\ud788": 1587,
    "\u2581\uc774\ub77c": 1588,
    "\uc678": 1589,
    "\u2581\uc774\uc57c\uae30": 1590,
    "\ub294\uc0ac\ub78c": 1591,
    "\u2581guys": 1592,
    "\u2581\ub610\ub294": 1593,
    "\uc601\uc801": 1594,
    "\u2581ten": 1595,
    "\u2581wisdom": 1596,
    "\u2581relationship": 1597,
    "\u2581seven": 1598,
    "\u2581\ubd88": 1599,
    "\u2581ready": 1600,
    "\uacbd\ud5d8": 1601,
    "able": 1602,
    "\u2581easy": 1603,
    "\uc9c0\uc694": 1604,
    "\u2581respect": 1605,
    "\u2581\uc744\uc758\ubbf8": 1606,
    "F": 1607,
    "\ud070": 1608,
    "Laughter": 1609,
    "\u2581\uce5c\uad6c": 1610,
    "\u2581\uc758\uacbd\uc6b0": 1611,
    "\u2581\uc788\uc8e0": 1612,
    "\u2581\uc801": 1613,
    "\u2581\uc18c": 1614,
    "\u2581\uc0ac\ub3c4": 1615,
    "\u2581Psalm": 1616,
    "\uace7": 1617,
    "ar": 1618,
    "us": 1619,
    "\u2581\uc758\ud55c": 1620,
    "\uc5c6\uc774": 1621,
    "\u2581probably": 1622,
    "\u2581\uc120\ud0dd": 1623,
    "\uc544\ub0b4": 1624,
    "\uc744\ub54c": 1625,
    "\u2581involved": 1626,
    "\u2581greater": 1627,
    "\uc5d0\ub294": 1628,
    "\u2581minus": 1629,
    "\u2581difficult": 1630,
    "\ub178\ub825": 1631,
    "\u2581door": 1632,
    "\u2581simply": 1633,
    "\uac01": 1634,
    "\ubc88": 1635,
    "\u2581Most": 1636,
    "\uc5ed": 1637,
    "\uc18c\ub9ac": 1638,
    "\u2581\uc5ec\ub7ec\ubd84\uc774": 1639,
    "\u2581re": 1640,
    "h": 1641,
    "\u2581Jews": 1642,
    "\u2581\ucc28": 1643,
    "\u2581ministry": 1644,
    "\u2581\uc138\uacc4": 1645,
    "\u2581ourselves": 1646,
    "\u2581business": 1647,
    "\u2581Will": 1648,
    "\u2581\ub370": 1649,
    "\u2581\ub108\ud76c\uc5d0\uac8c": 1650,
    "\u2581\uc744\uc704\ud574": 1651,
    "\u2581turned": 1652,
    "\u2581\ud558\uac70\ub098": 1653,
    "\u2581teaching": 1654,
    "\u2581wait": 1655,
    "\u2581\ub294\uc5ec\ud638\uc640": 1656,
    "\u2581fellow": 1657,
    "\u2581either": 1658,
    "\ud589": 1659,
    "\ud1b5": 1660,
    "\u2581gives": 1661,
    "man": 1662,
    "\u2581helped": 1663,
    "ation": 1664,
    "\u258160": 1665,
    "\u2581gone": 1666,
    "\u2581play": 1667,
    "\uc6c3\uc74c": 1668,
    "\u2581save": 1669,
    "\u2581\uc9c4\uc9dc": 1670,
    "\u2581joy": 1671,
    "\uc8fc\uc758": 1672,
    "g": 1673,
    "\u2581sea": 1674,
    "\ub825": 1675,
    "\u2581enjoy": 1676,
    "\uae34": 1677,
    "\u2581cut": 1678,
    "\u2581\uc0ac\ub78c\ub4e4\uc740": 1679,
    "\ud615": 1680,
    "\u2581de": 1681,
    "\u2581Isaiah": 1682,
    "\u2581Does": 1683,
    "\u2581quite": 1684,
    "\u2581air": 1685,
    "\ube0c": 1686,
    "\u2581\ub2f9": 1687,
    "\u2581\uc74c": 1688,
    "\u2581\ub3d9\uc548": 1689,
    "\u2581whose": 1690,
    "\u2581pay": 1691,
    "\u2581state": 1692,
    "\u2581account": 1693,
    "\uc5f0": 1694,
    "\u2581\uc788\uc9c0": 1695,
    "\uc774\uace0": 1696,
    "\u2581shows": 1697,
    "\u2581\uc2e0": 1698,
    "\u2581\ub85c\ub9c8": 1699,
    "\u2581\ubaa8": 1700,
    "\u2581Yahweh": 1701,
    "\u2581\uc120": 1702,
    "\uc560": 1703,
    "\u2581counsel": 1704,
    "G": 1705,
    "\u2581inside": 1706,
    "\u25815.": 1707,
    "\u2581\ub294\uc774\ub807\uac8c\ub9d0": 1708,
    "\u25812,": 1709,
    "\u2581building": 1710,
    "\u2581reading": 1711,
    "\u2581\uc9d1": 1712,
    "\u2581\ub9d0\uc744": 1713,
    "\u2581\uc2dc\uc791": 1714,
    "\u2581York": 1715,
    "\u2581Catholic": 1716,
    "\u2581states": 1717,
    "\ubc84": 1718,
    "\uc774\ud574": 1719,
    "\uace0\ud1b5": 1720,
    "\uc5d4": 1721,
    "\u2581whatever": 1722,
    "\u2581wicked": 1723,
    "\uadf8\ub9ac\uc2a4\ub3c4": 1724,
    "\u2581\uc5d0\uad00\ud558\uc5ec": 1725,
    "\u2581walk": 1726,
    "\uc138\uc694": 1727,
    "\u2581perfect": 1728,
    "\u2581\ub2c8": 1729,
    "\u2581\uc790\ub140": 1730,
    "\u2581f": 1731,
    "and": 1732,
    "\ud560\uac83": 1733,
    "\u2581\uc744\ud1b5\ud574": 1734,
    "\u2581\ub97c\uc0ac\uc6a9": 1735,
    "\u2581\uc77c\ubd80": 1736,
    "\uccad\uc18c\ub144": 1737,
    "\uae30\uc2dc\uc791": 1738,
    "\u2581\uc5ec\uc790": 1739,
    "\u2581\uc544\ubb34": 1740,
    "\u2581\ud639\uc740": 1741,
    "\ud558\ub298": 1742,
    "You": 1743,
    "\uc2ed\uc2dc\uc624": 1744,
    "\u258113:": 1745,
    "\u2581LORD": 1746,
    "\uc544\ub4e4": 1747,
    "\u2581\uc73c\ub85c\uc11c": 1748,
    "\u2581including": 1749,
    "\u2581\u201d?": 1750,
    "\u2581\uac70\uae30": 1751,
    "\u2581\uadf8\ub9ac\uc2a4\ub3c4\uc778": 1752,
    "\u2581H": 1753,
    "\u2581\ubb38\uc81c": 1754,
    "\u2581\uc591": 1755,
    "\u2581serious": 1756,
    "\ub2e4\ub294": 1757,
    "\uc815\ubd80": 1758,
    "\uace0\uc788\ub294": 1759,
    "\uc220": 1760,
    "\u2581Right": 1761,
    "\uc608\uc694": 1762,
    "\u2581\ub85c\uc778\ud574": 1763,
    "\ub4e4\uacfc": 1764,
    "\uc6b8": 1765,
    "\u2581written": 1766,
    "\u2581\uc640\uac19\uc774": 1767,
    "\ub418\uc5b4": 1768,
    "\uc6b4": 1769,
    "\u2581\ud560\uc218\uc788\ub2e4": 1770,
    "\uc774\uc8e0": 1771,
    "\u2581received": 1772,
    "\u2581According": 1773,
    "\uc798": 1774,
    "\u2581interest": 1775,
    "\ucc44": 1776,
    "\u2581promise": 1777,
    "\u2581Like": 1778,
    "\ub294\uac00": 1779,
    "\uc704\ud5d8": 1780,
    "\u2581\uc5c4\ub9c8": 1781,
    "\u2581\uc640\uac19\uc740": 1782,
    "\u2581tried": 1783,
    "\u2581act": 1784,
    "\u2581\ud574\uc694": 1785,
    "\uc628\uc804": 1786,
    "\uacc4": 1787,
    "\ub860": 1788,
    "\u258110.": 1789,
    "\u2581\u25c6": 1790,
    "\u2581further": 1791,
    "\u2581J": 1792,
    "\u2581kept": 1793,
    "\u2581\ubc18": 1794,
    "\ub9c8\ub828": 1795,
    "\ubd84\uba85": 1796,
    "\u2581While": 1797,
    "\u2581\uc5d0\ub530\ub974\uba74": 1798,
    "\u2581seem": 1799,
    "\u2581single": 1800,
    "\uc801\uc73c\ub85c": 1801,
    "\ubcf4\uace0": 1802,
    "\u2581\uac08": 1803,
    "\u2581\uc5d0\uac8c\uc11c": 1804,
    "\u2581sound": 1805,
    "\u2581\uc758\uc544\ub4e4": 1806,
    "\u2581Creator": 1807,
    "L": 1808,
    "\u2581\uc758\uc885": 1809,
    "\u2581Luke": 1810,
    "\u2581Their": 1811,
    "\u2581thy": 1812,
    "\u2581deal": 1813,
    "\ucd95\ubcf5": 1814,
    "\uad6d": 1815,
    "\u2581thee": 1816,
    "\u2581modern": 1817,
    "\u2581heavenly": 1818,
    "\u2581local": 1819,
    "\u2581\uc54a\uc2b5\ub2c8\ub2e4": 1820,
    "\u2581N": 1821,
    "\u2581brain": 1822,
    "\u2581similar": 1823,
    "\ub3d9\ubb3c": 1824,
    "\u2581hearts": 1825,
    "\u2581miles": 1826,
    "\u2581\uc11c\ub85c": 1827,
    "\ud3c9\ud654": 1828,
    "\u2581\uc544\ub2c8\uc57c": 1829,
    "\u2581\uacfc\uadf8": 1830,
    "\u2581listen": 1831,
    "\u2581\ub9ac": 1832,
    "\u2581perhaps": 1833,
    "\u2581\uac00\uadf8": 1834,
    "\u2581p": 1835,
    "\u2581American": 1836,
    "\uac08": 1837,
    "\u2581avoid": 1838,
    "\u2581hell": 1839,
    "\u2581material": 1840,
    "\u2581\uc544\ub4e4": 1841,
    "\ub9b4": 1842,
    "\u2581born": 1843,
    "\u2581\uc758\ubc31\uc131": 1844,
    "\uac70\ub9ac": 1845,
    "\u2581neither": 1846,
    "\u25818.": 1847,
    "\uc804\uc7c1": 1848,
    "\uc655\uad6d": 1849,
    "is": 1850,
    "\u2581provide": 1851,
    "\ud588\ub358": 1852,
    "\u2581week": 1853,
    "\u2581\ud30c\uc77c": 1854,
    "\u2581\ud558\uc168\ub2e4": 1855,
    "\u2581\uc788\ub2e4\uace0": 1856,
    "\u2581\uac83\ub3c4": 1857,
    "\ubb18\uc0ac": 1858,
    "\u2581takes": 1859,
    "\u2581\uac00\uc11c": 1860,
    "\uc0c8\ub85c\uc6b4": 1861,
    "\u2581entire": 1862,
    "\u2581\uc54a\uc744": 1863,
    "\u2581Today": 1864,
    "\u2581beautiful": 1865,
    "\u2581elders": 1866,
    "\u2581\ub0b4\uac8c": 1867,
    "\u2581Greek": 1868,
    "\u2581Uh": 1869,
    "\u2581isn": 1870,
    "\ubd80\ud130": 1871,
    "\u2581\uc758\uc0ac": 1872,
    "\u2581married": 1873,
    "\u2581outside": 1874,
    "\uc0c1\ud669": 1875,
    "\ubbf8\uad6d": 1876,
    "\uc758\uc0ac": 1877,
    "\u2581wants": 1878,
    "\u2581\uc5ec\uae30\uc5d0": 1879,
    "\ub9c9": 1880,
    "\uad8c": 1881,
    "\ub4e4\uc758": 1882,
    "\ud574\uc694": 1883,
    "\ud588\uc5b4\uc694": 1884,
    "\u2581per": 1885,
    "\uc218\ud589": 1886,
    "\u2581\uc544\ub0d0": 1887,
    "\uc57d\uc18d": 1888,
    "\ub798": 1889,
    "\u2581\uba3c\uc800": 1890,
    "\u2581Day": 1891,
    "\uad70\uc694": 1892,
    "\u2581\uac70\uc8e0": 1893,
    "\uc601\uc6d0": 1894,
    "\u2581third": 1895,
    "\u2581boy": 1896,
    "\u2581\ucc98\uc74c": 1897,
    "\ubd80\ubd84": 1898,
    "\uc785": 1899,
    "\ub354\ub77c": 1900,
    "\u2581receive": 1901,
    "\u2581Such": 1902,
    "\u2581\uc740\uc790\uc2e0": 1903,
    "\u2581field": 1904,
    "\u2581effect": 1905,
    "\u2581position": 1906,
    "\u2581places": 1907,
    "\u2581report": 1908,
    "\ubab8": 1909,
    "\u2581\ub9cc\ub4e4": 1910,
    "\u2581rule": 1911,
    "\u2581\ub300\ub85c": 1912,
    "\u2581\uc870": 1913,
    "\u2581sun": 1914,
    "\u2581natural": 1915,
    "N": 1916,
    "\uc9c4\ub9ac": 1917,
    "U": 1918,
    "\u2581magazine": 1919,
    "\u2581likely": 1920,
    "ion": 1921,
    "\u2581animals": 1922,
    "\u2581folder": 1923,
    "\u2581wasn": 1924,
    "\u2581moved": 1925,
    "\u2581force": 1926,
    "\u2581\uac01": 1927,
    "\ub0a8\ud3b8": 1928,
    "\ud3b8": 1929,
    "\u2581\ube68\ub9ac": 1930,
    "f": 1931,
    "\u2581\uc778\uac83": 1932,
    "\u258170": 1933,
    "\u2581\uc57c": 1934,
    "\u2581\uc5d0\uc758\ud574": 1935,
    "\ub9ac\ub77c": 1936,
    "\u2581\ubd84\uba85": 1937,
    "\u2581sort": 1938,
    "\u25817.": 1939,
    "\u2581matters": 1940,
    "\uc99d\uac70": 1941,
    "\u2581\ub110": 1942,
    "\uc99d": 1943,
    "\u2581\ub530\ub77c": 1944,
    "\u2581\ub2e8\uc9c0": 1945,
    "\uc74d\ub2c8\uae4c": 1946,
    "\u2581disease": 1947,
    "\u2581taught": 1948,
    "\u2581\uc751": 1949,
    "\u2581couple": 1950,
    "\u2581\ub294\uc6b0\ub9ac": 1951,
    "\u2581\uc544\uc774": 1952,
    "\u2581\uc911\uc694\ud55c": 1953,
    "\u2581\uc778\uc9c0": 1954,
    "H": 1955,
    "\u2581meetings": 1956,
    "\u2581short": 1957,
    "\u2581\ub294\uc774\ub807\uac8c": 1958,
    "\u2581\ud558\uc600\uc73c\uba70": 1959,
    "\u2581wise": 1960,
    "\u2581seems": 1961,
    "\u2581\uc788\ub2e4": 1962,
    "\u2581pretty": 1963,
    "\u2581energy": 1964,
    "\u2581witnesses": 1965,
    "\u2581\uce74": 1966,
    "\u2581\uadf8\ub807\uc9c0\ub9cc": 1967,
    "\u2581Africa": 1968,
    "\uc544\ub798": 1969,
    "\uce5c\uad6c": 1970,
    "\u2581Indeed": 1971,
    "\u2581thousands": 1972,
    "5": 1973,
    "\u2581\uc704\uc5d0": 1974,
    "\ubcc0\ud654": 1975,
    "\u2581fight": 1976,
    "\ub3c4\uc2dc": 1977,
    "\u2581\ub2f9\uc2e0\uc758": 1978,
    "\uc790\uc720": 1979,
    "\uc0ac\uc2e4": 1980,
    "\u2581sign": 1981,
    "\u2581witness": 1982,
    "\u2581Abraham": 1983,
    "\u2581\uad1c\ucc2e\uc544": 1984,
    "\u2581poor": 1985,
    "\u2581\uc0ac\uc6a9": 1986,
    "\ud3ec\ud568": 1987,
    "\u2581physical": 1988,
    "\ub3cc": 1989,
    "\u2581\uc774\uc6b0\ub9ac": 1990,
    "\u2581tree": 1991,
    "\u2581surely": 1992,
    "\u2581\uc778\ub3c4": 1993,
    "\u2581\ubcf8": 1994,
    "\u2581top": 1995,
    "\ub0d0": 1996,
    "\u25816.": 1997,
    "\u2581Although": 1998,
    "\u2581music": 1999,
    "\u2581\uc774\ub418": 2000,
    "\ubcc0": 2001,
    "\uc2dc\ub300": 2002,
    "\u2581daughter": 2003,
    "\ub418\ub294": 2004,
    "\u2581\ubb34": 2005,
    "\u2581\uc744\ubc1b": 2006,
    "\u2581\uc758\ub73b": 2007,
    "\ub178\ub77c": 2008,
    "\ud76c\ub9dd": 2009,
    "\u2581based": 2010,
    "\ub294\uc9c0": 2011,
    "\uc5b4\uba38\ub2c8": 2012,
    "\u2581\uc744\uc5b4\ub5bb\uac8c": 2013,
    "\u2581truly": 2014,
    "\u2581\uc774\ud544\uc694": 2015,
    "\u2581benefit": 2016,
    "\u2581period": 2017,
    "\uaca9\ub824": 2018,
    "\uc5ec\ub7ec\ubd84": 2019,
    "\uc870\uc9c1": 2020,
    "ul": 2021,
    "\u2581hundred": 2022,
    "\u2581minutes": 2023,
    "\uace0\uc788\uc2b5\ub2c8\ub2e4": 2024,
    "as": 2025,
    "\u2581\uc788\ub2e4\ub294": 2026,
    "\uacbd": 2027,
    "\ubcf5": 2028,
    "\u2581several": 2029,
    "\u2581\ub204\uad6c": 2030,
    "\u2581false": 2031,
    "\uc9c0\ud61c": 2032,
    "\u2581uh": 2033,
    "\uaca8": 2034,
    "\u2581deep": 2035,
    "\u25818:": 2036,
    "\u2581\uc9c0\ub09c": 2037,
    "\u2581\uc2a4\ub7ec\uc6b4": 2038,
    "\u2581\uc5d0\ub098\uc624\ub294": 2039,
    "\u2581Maybe": 2040,
    "\u2581\ub4e4\uc911": 2041,
    "We": 2042,
    "\u2581\ub108\ud76c\ub97c": 2043,
    "\u2581\uc54a\ub294": 2044,
    "\u2581\ud544\uc694": 2045,
    "\u2581Great": 2046,
    "\u2581looks": 2047,
    "\u2581class": 2048,
    "\u2581conduct": 2049,
    "\uacc4\ud68d": 2050,
    "\u25819.": 2051,
    "\u2581showed": 2052,
    "\u2581political": 2053,
    "\u2581drink": 2054,
    "\u2581reports": 2055,
    "\u2581\uadf8\ub140\ub294": 2056,
    "\u2581clean": 2057,
    "\u2581\uadf8\uac83\uc774": 2058,
    "\u2581Revelation": 2059,
    "\u2581\uc655": 2060,
    "\uc2dc\uc791": 2061,
    "\u2581ground": 2062,
    "\u2581\ud588\ub358": 2063,
    "\u2581\uadf8\ub807\uc9c0": 2064,
    "\u25818,": 2065,
    "\u2581\uc18d": 2066,
    "\u2581\uc788\uac8c": 2067,
    "\u2581forever": 2068,
    "\u2581\uc544\ub2d9\ub2c8\ub2e4": 2069,
    "\u2581\uc704": 2070,
    "\u2581righteousness": 2071,
    "\u2581\ucc38": 2072,
    "\u2581TV": 2073,
    "\u25814,": 2074,
    "\u2581lived": 2075,
    "\ub2a5\ub825": 2076,
    "\u2581sometimes": 2077,
    "\uc0dd": 2078,
    "\u2581\uc5d0\ub098": 2079,
    "\u2581fall": 2080,
    "\u2581Adam": 2081,
    "\uae30\uac04": 2082,
    "\u2581met": 2083,
    "\u2581teach": 2084,
    "\u2581pain": 2085,
    "\u2581\uc800\ud76c": 2086,
    "\uad6c\ub098": 2087,
    "\u2581Would": 2088,
    "\u2581\uc774\uac78": 2089,
    "\ub05d": 2090,
    "\u2581\ub41c\uac83": 2091,
    "\u2581action": 2092,
    "\ud37c": 2093,
    "\u258115:": 2094,
    "\u2581hour": 2095,
    "\u2581voice": 2096,
    "\u2581happiness": 2097,
    "\u2581sister": 2098,
    "\uc88b\uc740": 2099,
    "\u2581changed": 2100,
    "\ucda9\uc2e4": 2101,
    "\u2581sir": 2102,
    "\u2581\ub9d0\uc774\uc57c": 2103,
    "\uc774\ub77c\ub294": 2104,
    "\u2581build": 2105,
    "\u2581\uc608\ub8e8\uc0b4\ub818": 2106,
    "\u258133": 2107,
    "\u25819:": 2108,
    "\u2581\ub2e4\uc717": 2109,
    "\u2581Could": 2110,
    "\uacb0\uc815": 2111,
    "\ub9e4\uc6b0": 2112,
    "\u2581\uac00\uc788\ub2e4": 2113,
    "\u258123": 2114,
    "\u2581alive": 2115,
    "\uba54": 2116,
    "\ud558\ub294\ub370": 2117,
    "\u2581doubt": 2118,
    "\u2581front": 2119,
    "\ub420": 2120,
    "\u2581\uc740\ud558\ub290\ub2d8": 2121,
    "\uc99d\uba85": 2122,
    ",\"": 2123,
    "\u2581\uac83\uacfc": 2124,
    "\u25aa": 2125,
    "\ud588\uc5b4": 2126,
    "\u2581issue": 2127,
    "\ub9cc\ud07c": 2128,
    "\u2581\ub4e4\uac00\uc6b4\ub370": 2129,
    "\u2581held": 2130,
    "\u2581\uc744\uc5bb": 2131,
    "\uc838": 2132,
    "\u2581\uc544\ub0b4": 2133,
    "\u2581parts": 2134,
    "am": 2135,
    "\u2581understanding": 2136,
    "\u2581feelings": 2137,
    "\ubaa9": 2138,
    "\uc774\ub2e4": 2139,
    "\u258124:": 2140,
    "\u2581speaking": 2141,
    "\ub9bc": 2142,
    "\u2581\uc54c\uc9c0": 2143,
    "\u2581\uac00\uc6b4\ub370": 2144,
    "\uc608\uc5b8": 2145,
    "\u258111.": 2146,
    "\u2581thousand": 2147,
    "\u2581\uc740\uc790\uae30": 2148,
    "\uac70\ub4e0": 2149,
    "\u2581\uac70\uc758": 2150,
    "\uc815\ud655": 2151,
    "\u2581\uc774\uc0ac\uc57c": 2152,
    "\uacb0\uacfc": 2153,
    "\u258112.": 2154,
    "\ucd94": 2155,
    "\u2581organization": 2156,
    "\u2581\ucf54": 2157,
    "\uac15\ub825": 2158,
    "\u2581attitude": 2159,
    "\u2581simple": 2160,
    "\u2581baptized": 2161,
    "\u2581beginning": 2162,
    "\u2581\uadf8\uac78": 2163,
    "\u2581\uadf8\ub9ac\ud558\uc5ec": 2164,
    "\u2581\uacb0\uad6d": 2165,
    "\u2581\ub9d0\ub77c": 2166,
    "\u2581\ub9d0\uc774": 2167,
    "\u2581\uc774\ub420\uac83": 2168,
    "\u2581\uadfc\ub370": 2169,
    "4": 2170,
    "\u2581\uc815": 2171,
    "\uc81c\uc790": 2172,
    "\u2581\ubc88\uc9f8": 2173,
    "est": 2174,
    "\u2581\ub458": 2175,
    "\u2581\ud558\ub098\ub2d8\uaed8\uc11c": 2176,
    "\ubaa9\uc801": 2177,
    "\u2581Israelites": 2178,
    "\u2581watch": 2179,
    "\u2581temple": 2180,
    "\u2581\ubc1c": 2181,
    "\ube5b": 2182,
    "\uce5c": 2183,
    "\u258121:": 2184,
    "\u2581sleep": 2185,
    "\u2581instead": 2186,
    "\uc778\ub370": 2187,
    "un": 2188,
    "\u2581suffering": 2189,
    "\uc2ec\uac01": 2190,
    "\ud55c\ub2e4\uba74": 2191,
    "\u2581\uc744\uac00\uc9c0\uace0": 2192,
    "\u2581\ub9e4": 2193,
    "\u2581\uc7ac": 2194,
    "\ubaa8\ub450": 2195,
    "w": 2196,
    "\u258114.": 2197,
    "\u2581grow": 2198,
    "\u2581\uc774\ub4e4": 2199,
    "\uc5ec\ud589": 2200,
    "\ud559\uad50": 2201,
    "\u2581built": 2202,
    "\u2581\uc758\ub9c8\uc74c": 2203,
    "\uc73c\ub2c8": 2204,
    "\u2581Proverbs": 2205,
    "\u2581\uc548\uc5d0": 2206,
    "\u2581\ud560\uc218\uc788\ub294": 2207,
    "\u2581authority": 2208,
    "\u2581\ud0c0": 2209,
    "\u2581figure": 2210,
    "\u2581loved": 2211,
    "\u2581\uc5b4\uba38\ub2c8": 2212,
    "\u2581\ub178": 2213,
    "\u2581\ubcf4\ub0b4": 2214,
    "u": 2215,
    "\u2581except": 2216,
    "\u2581strength": 2217,
    "eth": 2218,
    "\ubaa8\ub4e0\uc0ac\ub78c": 2219,
    "\u2581\uac00\uc871": 2220,
    "\u2581\ud558\ub824\uace0": 2221,
    "\u2581exactly": 2222,
    "\u2581\uae30\uc5b5": 2223,
    "\uad00\uc2ec": 2224,
    "\u2581moment": 2225,
    "\uc9c0\uae08": 2226,
    "\u2581accept": 2227,
    "_": 2228,
    "\uad50\ud6c8": 2229,
    "ity": 2230,
    "\ubca0": 2231,
    "\u2581\ud55c\uac00": 2232,
    "\u2581meeting": 2233,
    "\u2581\ubb38": 2234,
    "\u2581feeling": 2235,
    "\u2581First": 2236,
    "\u2581patient": 2237,
    "\u2581Me": 2238,
    "\u2581\ub0a8\uc790": 2239,
    "\u2581usually": 2240,
    "\ud658\uc790": 2241,
    "el": 2242,
    "\u2581\uc544\ube60": 2243,
    "\u2581Another": 2244,
    "\u2581\uc9d1\uc5d0": 2245,
    "\uac00\uc7a5": 2246,
    "\u2581draw": 2247,
    "\u2581remain": 2248,
    "\u2581\ubcc0": 2249,
    "\u2581James": 2250,
    "\u2581\ub97c\ubc1b": 2251,
    "\uccd0": 2252,
    "at": 2253,
    "\ud45c\ud604": 2254,
    "\ud558\uc600\uc2b5\ub2c8\ub2e4": 2255,
    "\u2581\uc5b4\uc11c": 2256,
    "\ub824\uba74": 2257,
    "\u25815,": 2258,
    "\u2581space": 2259,
    "\u2581\uadf8\ub807\uc2b5\ub2c8\ub2e4": 2260,
    "\u2581\uc600\ub2e4": 2261,
    "\u2581Church": 2262,
    "\u2581\uc774\uc788\uc2b5\ub2c8\ub2e4": 2263,
    "\u2581students": 2264,
    "\u2581\ub2f9\uc2e0\uc744": 2265,
    "):": 2266,
    "\u2581\uc788": 2267,
    "\u258131": 2268,
    "\u2581\ub0a8\ud3b8": 2269,
    "\u2581\uc6d0\ud558\ub294": 2270,
    "\u2581\uacbd": 2271,
    "\uc5d0\uc694": 2272,
    "\ud68c": 2273,
    "\u2581Acts": 2274,
    "\u2581\uccab": 2275,
    "\uc874\uc7ac": 2276,
    "\u2581late": 2277,
    "\u2581\uc774\ub984": 2278,
    "\u2581break": 2279,
    "\u2581\uadf8\ub7f4": 2280,
    "\u2581Watchtower": 2281,
    "\u2581\uce58": 2282,
    "\u25812.": 2283,
    "\u2581Roman": 2284,
    "\u2581\uc18c\ub9ac": 2285,
    "\uc778\ub958": 2286,
    "\u2581send": 2287,
    "\u2581\uc774\uac70": 2288,
    "\u2581prophet": 2289,
    "\u2581completely": 2290,
    "\uc0ac\ud68c": 2291,
    "\uac00\uc815": 2292,
    "\u2581eye": 2293,
    "\u2581\uc704\ud574\uc11c": 2294,
    "\u2581\uc740\uc5b4\ub5bb\uac8c": 2295,
    "\u2581\u300d": 2296,
    "\u2581\ub9cc\ub4e4\uc5b4": 2297,
    "\u2581fully": 2298,
    "\ub958": 2299,
    "\u2581\uc758\uc218": 2300,
    "\uae30\ub97c": 2301,
    "\ub300\ubd80\ubd84": 2302,
    "\u2581\uadf8\ub807\ub2e4\uba74": 2303,
    "\ub0a8\uc790": 2304,
    "\u2581\uc88b\uc544\uc694": 2305,
    "\u2581changes": 2306,
    "\u2581gets": 2307,
    "\ucee4": 2308,
    "\u2581birth": 2309,
    "\u2581\uc744\ub098\ud0c0\ub0b4": 2310,
    "\u2581decided": 2311,
    "\u2581kids": 2312,
    "\u2581available": 2313,
    "\u2581meaning": 2314,
    "\ucda9\ubd84": 2315,
    "\uadf8\ub7f0": 2316,
    "\uc808": 2317,
    "\u2581\ub545": 2318,
    "\u2581pray": 2319,
    "\u2581\uac00\uc9c4": 2320,
    "\u2581\uc54a\uc544": 2321,
    "\u2581millions": 2322,
    "\u2581\uc0ac\ub78c\uc744": 2323,
    "\u2581month": 2324,
    "\u2581Take": 2325,
    "\ud558\ub294\uac83": 2326,
    "\u2581principles": 2327,
    "\u2581doctor": 2328,
    "\u2581due": 2329,
    "\u2581War": 2330,
    "\uad50": 2331,
    "\ud14c": 2332,
    "\uba78\ub9dd": 2333,
    "\uc804\uccb4": 2334,
    "\u2581looked": 2335,
    "\uc7a5\ub85c": 2336,
    "\u2581Say": 2337,
    "\u2581\uc744\uc720\uc9c0": 2338,
    "\ub0b4\uc6a9": 2339,
    "\u2581\uc5d0\ucc38\uc11d": 2340,
    "\u2581\uc785": 2341,
    "\u2581\uacf1\ud558\uae30": 2342,
    "\u2581social": 2343,
    "\uac70\ub8e9": 2344,
    "\u258116.": 2345,
    "\u258113.": 2346,
    "\u2581Life": 2347,
    "\uac8c\ub418\uc5c8\uc2b5\ub2c8\ub2e4": 2348,
    "\u2581\ub9d0\uc774\uc8e0": 2349,
    "\u2581type": 2350,
    "\u2581picture": 2351,
    "\u2581term": 2352,
    "\u2581seek": 2353,
    "\u2581\uac70\uc5d0\uc694": 2354,
    "\ubd10": 2355,
    "\u2581happens": 2356,
    "ist": 2357,
    "\u2581\ud574\ubcf4\uc2ed\uc2dc\uc624": 2358,
    "\u2581\ucd1d": 2359,
    "\u2581\uadf8\ub9ac\uc2a4\ub3c4": 2360,
    "\u2581\uc0dd\uac01\ud574": 2361,
    "\u2581Re": 2362,
    "\u2581offer": 2363,
    "\u2581white": 2364,
    "\uc5ed\uc2dc": 2365,
    "\u2581\uac19\uc544": 2366,
    "\u2581families": 2367,
    "\u2581Corinthians": 2368,
    "\uc0ac\uac74": 2369,
    "\u2581\ud55c\ubc88": 2370,
    "\uc554": 2371,
    "\u2581pass": 2372,
    "\u2581\uc808": 2373,
    "\u2581\uc5d0\uc788\uc5b4\uc11c": 2374,
    "\u2581\uc744\uc704\ud558\uc5ec": 2375,
    "\u2581caused": 2376,
    "\u2581provided": 2377,
    "\u2581source": 2378,
    "\u2581various": 2379,
    "\u2581\uc758\ubaa9\uc801": 2380,
    "\uc774\uc694": 2381,
    "\uadc0": 2382,
    "\ud3b8\uc9c0": 2383,
    "\u2581prophecy": 2384,
    "\u2581Also": 2385,
    "\u2581anointed": 2386,
    "\u2581prove": 2387,
    "\u258117.": 2388,
    "\uac1c\uc758": 2389,
    "\ubcc4": 2390,
    "\u2581\uc788\ub2e4\uba74": 2391,
    "\u2581\ud560\uc218": 2392,
    "\u2581\uac15": 2393,
    "\u2581\uc7a0\uc5b8": 2394,
    "\u2581\uc5ec\ub7ec\ubd84\uc740": 2395,
    "\ub7c9": 2396,
    "\u2581text": 2397,
    "\ub3d9\uc548": 2398,
    "\u2581\uc740\uc774": 2399,
    "\u2581god": 2400,
    "il": 2401,
    "\u2581During": 2402,
    "\u2581\uac83\uc774\uba70": 2403,
    "\u2581office": 2404,
    "\u2581\ud574\uc57c\ud569\ub2c8\ub2e4": 2405,
    "\u2581%1": 2406,
    "\u2581powerful": 2407,
    "\u2581reach": 2408,
    "\u2581worked": 2409,
    "\u2581\uacb0\ud63c": 2410,
    "\u2581English": 2411,
    "\u2581Timothy": 2412,
    "\u2581believers": 2413,
    "\u2581\uc774\ub780": 2414,
    "\uc2a8": 2415,
    "\u2581\ubb34\uc5c7": 2416,
    "\uc2a4\ud2b8": 2417,
    "\u2581i": 2418,
    "\u25819,": 2419,
    "\u2581oil": 2420,
    "\u2581spoke": 2421,
    "\uc0ac\ub3c4": 2422,
    "\uc548\uc804": 2423,
    "\u2581books": 2424,
    "\u2581sacrifice": 2425,
    "\u2581\ubbf8\ud130": 2426,
    "\ubb34\uc2a8": 2427,
    "\u25816,": 2428,
    "\u2581realize": 2429,
    "\u2581program": 2430,
    "\ud2b9\ubcc4": 2431,
    "\u2581finally": 2432,
    "\u2581\uac10\uc0ac\ud569\ub2c8\ub2e4": 2433,
    "\uc5c6\ub294": 2434,
    "\u2581opportunity": 2435,
    "\u2581violence": 2436,
    "\u2581letter": 2437,
    "\uc778\ub3c4": 2438,
    "\uad00\uacc4": 2439,
    "\u2581kindness": 2440,
    "\u2581g": 2441,
    "\u2581\uc124\uc815": 2442,
    "\u2581sex": 2443,
    "\u2581\uc744\uc704\ud55c": 2444,
    "\u2581\ud558\ub098\ub2d8\uc744": 2445,
    "\u2581\uc99d\uc778": 2446,
    "\u2581\ud638": 2447,
    "\u2581\ub208": 2448,
    "\uc801\uc808": 2449,
    "\ub9dd": 2450,
    "\uc5ec\ub7ec\uac00\uc9c0": 2451,
    "\u2581flesh": 2452,
    "\u2581\uadf8\ub7ec": 2453,
    "\u2581led": 2454,
    "\u2581\ub2e8": 2455,
    "\u2581\uc601\uad6d": 2456,
    "\u2581across": 2457,
    "\uc5f0\ud569": 2458,
    "\u2581judgment": 2459,
    "\u2581\uc77c\ud638": 2460,
    "\u2581\uc900\ube44": 2461,
    "\uac70\uc5d0\uc694": 2462,
    "\u258115.": 2463,
    "\u2581add": 2464,
    "\u2581process": 2465,
    "\uce58\ub8cc": 2466,
    "\u2581\uc528": 2467,
    "\u25813.": 2468,
    "\ubbfc": 2469,
    "It": 2470,
    "\uae00": 2471,
    "\u2581record": 2472,
    "\u2581create": 2473,
    "\u2581spend": 2474,
    "\u2581mercy": 2475,
    "\u2581divine": 2476,
    "\ubc1c\uacac": 2477,
    "\u2581visit": 2478,
    "\u2581\uc190": 2479,
    "em": 2480,
    "\u2581\uc911\uc5d0": 2481,
    "\u2581\uc5ec\ub7ec": 2482,
    "\u2581\ud30c": 2483,
    "\ucc38": 2484,
    "\u2581Christendom": 2485,
    "\u2581\ub2ec": 2486,
    "\u2581\ud588\uc5b4\uc694": 2487,
    "\u2581eight": 2488,
    "\u2581serving": 2489,
    "\u2581\uc640\uadf8": 2490,
    "\u2581\uc800\uae30": 2491,
    "\u2581\uc2dc\ud0a4": 2492,
    "\u2581test": 2493,
    "\uad6c\uc694": 2494,
    "\uc544\uc8fc": 2495,
    "\u2581\ub0a8": 2496,
    "\u2581older": 2497,
    "\u2581complete": 2498,
    "\u2581America": 2499,
    "\uac8c\ub418\uc5c8\ub2e4": 2500,
    "\u2581nice": 2501,
    "\u2581company": 2502,
    "\u2581considered": 2503,
    "\u2581yes": 2504,
    "\u2581learning": 2505,
    "\u2581\uc560": 2506,
    "\u2581increase": 2507,
    "\uac8c\ub429\ub2c8\ub2e4": 2508,
    "\u2581\ud558\ub294\uc790": 2509,
    "\u2581mentioned": 2510,
    "\u2581pressure": 2511,
    "\u258115,": 2512,
    "\u2581V": 2513,
    "\u2581results": 2514,
    "\uc9c0\uc801": 2515,
    "\u2581\uc744\uc0ac\ub791": 2516,
    "\u2581\ud560\uc218\uc788\uc2b5\ub2c8\ub2e4": 2517,
    "\u2581\uc744\uc8fc": 2518,
    "\u2581\uac00\ub85c\ub418": 2519,
    "\ud589\uc704": 2520,
    "\u2581Man": 2521,
    "\u2581\uc131\uacbd": 2522,
    "\u2581\uc544\ud504\ub9ac\uce74": 2523,
    "\u2581\uc5d0\ucc38\uc5ec": 2524,
    "\u2581command": 2525,
    "\uc9c1\uba74": 2526,
    "\u2581raised": 2527,
    "\u2581wouldn": 2528,
    "\u2581\ub2e5\ud130": 2529,
    "\uae30\uc0ac": 2530,
    "\u2581resurrection": 2531,
    "\u2581activity": 2532,
    "\u2581direction": 2533,
    "\u2581apostles": 2534,
    "\uce60": 2535,
    "\u2581interesting": 2536,
    "\u2581\ubbff\ub294": 2537,
    "\u2581ability": 2538,
    "\u2581ahead": 2539,
    "\uc22d\ubc30": 2540,
    "\ud558\uc8e0": 2541,
    "\u2581covenant": 2542,
    "\u2581wish": 2543,
    "\u2581wonderful": 2544,
    "\u2581carry": 2545,
    "\u2581general": 2546,
    "\u2581Law": 2547,
    "\u2581\uc720\ub300": 2548,
    "\u2581\uc544\ub9c8\ub3c4": 2549,
    "\u2581shown": 2550,
    "\u2581cities": 2551,
    "\u2581tells": 2552,
    "\u2581...": 2553,
    "\u2581\uadf8\uc5d0\uac8c": 2554,
    "\u2581necessary": 2555,
    "\u2581destruction": 2556,
    "\u2581Jewish": 2557,
    "\ubd80\ubd80": 2558,
    "\uc77c\ubd80": 2559,
    "\u258190": 2560,
    "\uc791\uc740": 2561,
    "6": 2562,
    "\uc6b4\ub3d9": 2563,
    "\u2581\ub300\ud574\uc11c": 2564,
    "\u2581Job": 2565,
    "\u2581X": 2566,
    "\ucc45\uc784": 2567,
    "\u2581\ucd08": 2568,
    "\uc9c0\uc2dd": 2569,
    "\u2581major": 2570,
    "\u2581\ub3c4\uc788\ub2e4": 2571,
    "\uac74\uac15": 2572,
    "\u2581mouth": 2573,
    "\u2581\ub108\ub294": 2574,
    "\uc5f4\uc2ec": 2575,
    "\u2581effort": 2576,
    "\u2581angels": 2577,
    "\u2581revealed": 2578,
    "\u2581\ub3c8": 2579,
    "\u2581decision": 2580,
    "\u2581file": 2581,
    "ate": 2582,
    "\u2581freedom": 2583,
    "\u2581Mary": 2584,
    "\u2581named": 2585,
    "\u2581\uc804\ubd80": 2586,
    "\u2581\ud55c\uc790": 2587,
    "\u2581\ub9d0\ud558\ub294": 2588,
    "\u2581cases": 2589,
    "\u2581Therefore": 2590,
    "\u2581recent": 2591,
    "\u2581everlasting": 2592,
    "\uac8c\ub41c\ub2e4": 2593,
    "\ubc31": 2594,
    "ie": 2595,
    "\u2581\uc804\ud654": 2596,
    "\uaca0\uc8e0": 2597,
    "\u2581inspired": 2598,
    "\ud0c4": 2599,
    "\u258132": 2600,
    "\u2581sick": 2601,
    "\uac10\uc0ac": 2602,
    "\u2581yeah": 2603,
    "\uc5b4\ub9b0\uc774": 2604,
    "\u2581step": 2605,
    "z": 2606,
    "\u2581fast": 2607,
    "\uac19\uc774": 2608,
    "\ub4e4\uc5d0\uac8c": 2609,
    "\u2581\uc544\ubb34\ub3c4": 2610,
    "\u2581numbers": 2611,
    "\u2581\uc548\ub3fc": 2612,
    "\u2581interested": 2613,
    "\u2581\uc704\ud558\uc5ec": 2614,
    "\u2581\uc5d0\uc11c\uc758": 2615,
    "\u2581stuff": 2616,
    "\u2581\ub9ce\uc740\uc0ac\ub78c": 2617,
    "\u2581\uc774\ub7ec\ud55c": 2618,
    "\uad50\uc721": 2619,
    "\u2581practice": 2620,
    "\u2581\uadf8\ubd84\uc740": 2621,
    "\u2581\uc758\ubaa8\ub4e0": 2622,
    "\u2581May": 2623,
    "\uac70\ub4e0\uc694": 2624,
    "\u2581\uc81c\ubc1c": 2625,
    "\u2581medical": 2626,
    "\u2581quickly": 2627,
    "\u2581weeks": 2628,
    "\u2581\ub3c4\uc788\uc2b5\ub2c8\ub2e4": 2629,
    "\u2581black": 2630,
    "\u2581allow": 2631,
    "\u2581forward": 2632,
    "\ub418\uc9c0": 2633,
    "\uc5c8": 2634,
    "\u2581200": 2635,
    "\ub2c8\ub77c": 2636,
    "\u2581individual": 2637,
    "\u2581\ud560\uc218\uc788": 2638,
    "\uc9c0\uc54a\uace0": 2639,
    "\ud55c\uc0ac\ub78c": 2640,
    "ism": 2641,
    "\u2581\uc788\ub294\ub370": 2642,
    "\u2581\uc774\uac83\uc744": 2643,
    "\u2581glory": 2644,
    "\u2581\uc758\uc77c": 2645,
    "\uc0ac\ubb3c": 2646,
    "\u2581couldn": 2647,
    "\u2581continued": 2648,
    "\u2581positive": 2649,
    "\u2581hurt": 2650,
    "\u2581\uc0ac\ub78c\uc740": 2651,
    "ive": 2652,
    "\u2581gain": 2653,
    "\u2581\uc6b0": 2654,
    "\u2581\uac83\uc5d0": 2655,
    "\u2581\ub85c\uc6b4": 2656,
    "\u258127": 2657,
    "\u2581\uac01\uc8fc": 2658,
    "\u2581clearly": 2659,
    "\u2581\uc2dc\uac04\uc774": 2660,
    "ry": 2661,
    "\u2581\uc885": 2662,
    "\u2581Egypt": 2663,
    "\uc2dc\uace0": 2664,
    "W": 2665,
    "\u2581\uc544\ub2c8\uc5d0\uc694": 2666,
    "\u2581stated": 2667,
    "\u2581\ud615\uc81c": 2668,
    "\u2581\ub9c8\uc9c0\ub9c9": 2669,
    "\u2581Book": 2670,
    "\u2581\uc758\uc77c\ubd80": 2671,
    "\u2581\uc544\ubb34\uac83\ub3c4": 2672,
    "\u2581\uadf8\ub7ec\ub098\uadf8": 2673,
    "\u2581Footnote": 2674,
    "\ud559": 2675,
    "\u2581telling": 2676,
    "\uc801\uc6a9": 2677,
    "\uc624\ub298\ub0a0": 2678,
    "\uc5d0\uc11c\ub294": 2679,
    "\uae30\uc704\ud558\uc5ec": 2680,
    "\u2581creation": 2681,
    "\u2581\uc54a\uc740": 2682,
    "\uace4": 2683,
    "\uc720\ub300\uc778": 2684,
    "\u2581security": 2685,
    "\uae68\ub057": 2686,
    "\uc11d": 2687,
    "\u2581bear": 2688,
    "\u2581\uc2e0\uc138": 2689,
    "\u2581added": 2690,
    "\u2581buy": 2691,
    "\u2581\uc774\ub4e0": 2692,
    "\u2581\ub9c8\uce58": 2693,
    "\u2581\uc870\uae08": 2694,
    "\uc168\uc2b5\ub2c8\ub2e4": 2695,
    "\ud558\uc600\ub2e4": 2696,
    "\u2581society": 2697,
    "\uc5b4\ub5a4\uc0ac\ub78c": 2698,
    "\u2581Devil": 2699,
    "\u2581chance": 2700,
    "\u2581\uc694": 2701,
    "\u2581followers": 2702,
    "\u2581\uc9c4": 2703,
    "\u2581level": 2704,
    "\u258126": 2705,
    "\ub9cc\uc871": 2706,
    "\u2581key": 2707,
    "\u2581sheep": 2708,
    "\u2581throughout": 2709,
    "\u2581\ub2e4\ub978\uc0ac\ub78c": 2710,
    "\u258128": 2711,
    "\u2581\uc744\ubc1b\uc544": 2712,
    "\u2581\ud558\uc2dc": 2713,
    "\u2581\uc55e": 2714,
    "\u2581\uacf5": 2715,
    "\u2581game": 2716,
    "\u2581seeing": 2717,
    "\u2581t": 2718,
    "\ubc18\uc751": 2719,
    "\u2581passed": 2720,
    "\u2581produce": 2721,
    "\uacbd\uace0": 2722,
    "\u2581\ud574\uc8fc": 2723,
    "\u2581explained": 2724,
    "\uc8fd": 2725,
    "\u2581\ubc31\uc131": 2726,
    "\u2581rich": 2727,
    "\u2581town": 2728,
    "\uc5c8\uace0": 2729,
    "V": 2730,
    "\u2581events": 2731,
    "\u2581\ud3b8": 2732,
    "\u2581appreciate": 2733,
    "\u2581individuals": 2734,
    "ting": 2735,
    "\u2581\uc54c\uc558\uc5b4": 2736,
    "\u2581believed": 2737,
    "\u2581choice": 2738,
    "\u2581subject": 2739,
    "\u2581image": 2740,
    "\u2581lie": 2741,
    "\u258180": 2742,
    "\u2581Two": 2743,
    "\uc124": 2744,
    "\u2581nature": 2745,
    "\u2581hospital": 2746,
    "\u2581color": 2747,
    "\u2581South": 2748,
    "\u2581spent": 2749,
    "\u2581\uadf8\ub798\uc694": 2750,
    "\u2581protect": 2751,
    "\u2581safe": 2752,
    "\u2581\ub294\ub9d0": 2753,
    "\u2581willing": 2754,
    "\u2581\uc774\uc5b4\ub5bb\uac8c": 2755,
    "\u2581areas": 2756,
    "\u2581lose": 2757,
    "\u2581\uc8fc\uc758": 2758,
    "\u2581Consider": 2759,
    "\u2581Europe": 2760,
    "\u2581Daniel": 2761,
    "\u2581True": 2762,
    "\u2581moral": 2763,
    "\u2581\uc744\uc0dd\uac01": 2764,
    "\ud6c8\ub828": 2765,
    "\u2581followed": 2766,
    "\u2581\ud588\uc5b4": 2767,
    "\uc608\uc218\uadf8\ub9ac\uc2a4\ub3c4": 2768,
    "\u2581\ub294\ud558\ub098\ub2d8": 2769,
    "\ub290\ub2c8\ub77c": 2770,
    "\ucd9c": 2771,
    "\u2581\uc790\uac00": 2772,
    "\u2581\ud558\ub294\uac00": 2773,
    "\u2581wonder": 2774,
    "\u2581\uac83\uc73c\ub85c": 2775,
    "\u2581imagine": 2776,
    "\u2581gift": 2777,
    "\u2581\ub3cc": 2778,
    "\uc62c": 2779,
    "\uc774\uac83": 2780,
    "\u2581fish": 2781,
    "\uae30\ud68c": 2782,
    "\ub2e4\uc2dc": 2783,
    "\u2581becomes": 2784,
    "\u2581\ub144\ub3d9\uc548": 2785,
    "\u2581\ud558\uae30\uc2dc\uc791": 2786,
    "\u2581moving": 2787,
    "\u2581\uc6b0\ub9ac\uc5d0\uac8c": 2788,
    "\u2581\uc758\uc601": 2789,
    "\u2581\uadf8\ub9cc": 2790,
    "\u2581video": 2791,
    "\ub429\ub2c8\ub2e4": 2792,
    "\uc5ec\uc804": 2793,
    "ia": 2794,
    "\u2581\uc62c": 2795,
    "\u2581\uadf8\ub140\uac00": 2796,
    "\u2581Really": 2797,
    "\u2581Witness": 2798,
    "\u2581sins": 2799,
    "\u2581\uc774\ub77c\uace0\ub9d0": 2800,
    "\u2581Solomon": 2801,
    "\u2581\uadf8\ubd84\uc758": 2802,
    "\u2581\uc790\ub294": 2803,
    "\u2581\uadf8\uacf3": 2804,
    "\uc5b4\uc11c": 2805,
    "\uc7a0": 2806,
    "\u2581list": 2807,
    "\u2581\ub300\ubd80\ubd84": 2808,
    "\u2581Rather": 2809,
    "\u2581\ubc29": 2810,
    "\u258120:": 2811,
    "\uac00\uc9c0": 2812,
    "\u2581begin": 2813,
    "\u2581police": 2814,
    "\u2581population": 2815,
    "\u2581\uc544\ub2cc": 2816,
    "Y": 2817,
    "\u2581afraid": 2818,
    "\u2581mine": 2819,
    "\u2581\uc788\uc5c8\uc2b5\ub2c8\ub2e4": 2820,
    "\u2581amount": 2821,
    "\u2581\ub9c9": 2822,
    "\uc8fc\uc7a5": 2823,
    "\u2581beyond": 2824,
    "\u2581\uc2ec": 2825,
    "\u2581signs": 2826,
    "\u2581forget": 2827,
    "\u2581conditions": 2828,
    "\u2581\uc2e4\uc81c\ub85c": 2829,
    "\uba38\ub9ac": 2830,
    "\uadf8\ub807\uac8c": 2831,
    "\u2581\ud55c\uc774\uc720": 2832,
    "\u2581\ud55c\uc0dd\uba85": 2833,
    "\uc815\uc2e0": 2834,
    "\uce35": 2835,
    "\u2581education": 2836,
    "\u2581Romans": 2837,
    "\u2581\ub2ec\ub7ec": 2838,
    "ro": 2839,
    "\u2581red": 2840,
    "\u2581reported": 2841,
    "\ud569\ub2f9": 2842,
    "\u2581promised": 2843,
    "\uc9c0\ubc29": 2844,
    ".]": 2845,
    "\u25811914": 2846,
    "\u2581More": 2847,
    "\uc5ec\ub7ec": 2848,
    "\uc9c4\uc815": 2849,
    "\u2581Credit": 2850,
    "\ud658\uacbd": 2851,
    "\u2581cost": 2852,
    "\u2581efforts": 2853,
    "\u2581earlier": 2854,
    "\u2581\uac16\uace0": 2855,
    "\u2581\ub9d0\ud558\uae38": 2856,
    "\u2581\uc758\uc0ac\ub791": 2857,
    "\u2581laws": 2858,
    "\u2581Society": 2859,
    "\u2581yourselves": 2860,
    "\ub610\ub294": 2861,
    "\u2581punishment": 2862,
    "\ud488": 2863,
    "\u2581none": 2864,
    "\u2581hath": 2865,
    "et": 2866,
    "\u2581\uc5b4\ub5a4\uc0ac\ub78c": 2867,
    "\ub85c\ubd80\ud130": 2868,
    "\uc74c\uc545": 2869,
    "\u258118:": 2870,
    "\u2581Wait": 2871,
    "\u2581destroyed": 2872,
    "\u2581\uc73c\ub85c\uc778\ud574": 2873,
    "\u2581asking": 2874,
    "\u2581\ud558\ub098\ub2d8\uaed8": 2875,
    "\uc9c1": 2876,
    "\u2581running": 2877,
    "\u2581\uc774\ub418\ub294": 2878,
    "\u2581gold": 2879,
    "\u2581shit": 2880,
    "\u2581\ubb54\uac00": 2881,
    "\u2581sight": 2882,
    "\ucc3d": 2883,
    "\ub4e0\uc9c0": 2884,
    "\u2581Babylon": 2885,
    "\u2581regarding": 2886,
    "\u2581standing": 2887,
    "\uc601\ud5a5": 2888,
    "\u2581expect": 2889,
    "\u2581former": 2890,
    "\ub300\ud68c": 2891,
    "\ud45c": 2892,
    "\uc12c": 2893,
    "no": 2894,
    "ri": 2895,
    "\u2581\ucc9c": 2896,
    "\uc11c\ub85c": 2897,
    "\u2581Holy": 2898,
    "\u2581check": 2899,
    "\u2581\ud574\uc57c\ud55c\ub2e4": 2900,
    "7": 2901,
    "\u2581sit": 2902,
    "8": 2903,
    "\u2581priest": 2904,
    "\u2581\uc5ec\ud638\uc640\uaed8\uc11c": 2905,
    "ur": 2906,
    "\u2581plan": 2907,
    "\u2581\uc774\uc544\ub2d9\ub2c8\ub2e4": 2908,
    "\uc788\ub2e4": 2909,
    "\u2581guess": 2910,
    "\u2581sexual": 2911,
    "\ubc94": 2912,
    "\u2581choose": 2913,
    "\u2581squared": 2914,
    "\u2581thank": 2915,
    "\ub77d": 2916,
    "\u2581cells": 2917,
    "\uc637": 2918,
    "\u2581Hebrew": 2919,
    "\uc73c": 2920,
    "\u2581animal": 2921,
    "\u2581\ubc16\uc5d0": 2922,
    "\u2581\ucf00": 2923,
    "\u25811.": 2924,
    "of": 2925,
    "\u2581\ubc8c": 2926,
    "\uc6d4": 2927,
    "\u2581\ucd5c\uadfc": 2928,
    "\u2581\ub3d9": 2929,
    "\u2581honor": 2930,
    "\u2581square": 2931,
    "\u2581drugs": 2932,
    "\ud558\ub3c4\ub85d": 2933,
    "\u2581trees": 2934,
    "\u2581\uc720\ub2e4": 2935,
    "ment": 2936,
    "\u2581\uc678": 2937,
    "\u2581Only": 2938,
    "\ud600": 2939,
    "\u2581\ud558\ub2c8": 2940,
    "\uadfc": 2941,
    "\u2581Noah": 2942,
    "\u2581\uc774\uae30\ub54c\ubb38": 2943,
    "\u2581\uc740\uc608\uc218": 2944,
    "\uc774\ub984": 2945,
    "\uace0\ub9d0": 2946,
    "\uc871": 2947,
    "\u2581instance": 2948,
    "\u2581\ubc1b": 2949,
    "\u2581reasons": 2950,
    "\uadf8\uacf3": 2951,
    "\uc8fd\uc74c": 2952,
    "\u2581Japan": 2953,
    "\u2581\ubc1b\uc744": 2954,
    "\u2581\uae30\ub85d": 2955,
    "\u2581sides": 2956,
    "\ud655\uc2e0": 2957,
    "\u2581low": 2958,
    "ir": 2959,
    "\u2581appointed": 2960,
    "\ub098\ub2c8": 2961,
    "\u2581Awake": 2962,
    "\u2581growing": 2963,
    "\u2581proper": 2964,
    "\u2581Judah": 2965,
    "\u2581\uc2e4\uc81c": 2966,
    "\uacfc\uc815": 2967,
    "\ud558\ub2c8": 2968,
    "\ub2c8\ub2e4": 2969,
    "\u2581\uc788\ub294\uc9c0": 2970,
    "\u2581\uc2a4\uc2a4\ub85c": 2971,
    "\u2581\uc548\ub155": 2972,
    "\u2581returned": 2973,
    "\u2581\ud504\ub791\uc2a4": 2974,
    "\u2581prison": 2975,
    "\u2581\ubcc4": 2976,
    "\u258129": 2977,
    "\u2581greatest": 2978,
    "\u2581\ube44\uad50": 2979,
    "\u2581\uc2e4": 2980,
    "\ub298": 2981,
    "\u2581science": 2982,
    "\u2581\uc774\ub77c\uba74": 2983,
    "\u2581normal": 2984,
    "\u2581\uae38": 2985,
    "\u2581\uc124\uba85": 2986,
    "\u2581\uc815\ub3c4": 2987,
    "\u2581proved": 2988,
    "\u2581\ucc3e\uc544": 2989,
    "\uc544\uae30": 2990,
    "\uc774\uc804": 2991,
    "\u2581meant": 2992,
    "\u2581\ub97c\uc704\ud574": 2993,
    "\uc788": 2994,
    "\u2581Line": 2995,
    "\u2581phone": 2996,
    "\u2581\ud0ac\ub85c\ubbf8\ud130": 2997,
    "\ud5a5": 2998,
    "\u2581\uc774\uc5c6": 2999,
    "\ud559\uc0dd": 3000,
    "all": 3001,
    "\u258116:": 3002,
    "\u2581\ud788\ube0c\ub9ac": 3003,
    "\u2581\ub97c\ud1b5\ud574": 3004,
    "\u2581points": 3005,
    "\ub610\ud55c": 3006,
    "\u2581\uc744\uacc4\uc18d": 3007,
    "\u2581expression": 3008,
    "\ud314": 3009,
    "\uc2dc\uae30": 3010,
    "\u2581Joseph": 3011,
    "\u2581priests": 3012,
    "\u2581\uc808\ub300": 3013,
    "\u2581\ubcf4\uba74": 3014,
    "\uc774\ub807\uac8c\ub9d0": 3015,
    "\u2022": 3016,
    "\u2581\uc740\ub610\ud55c": 3017,
    "\uc644\uc804": 3018,
    "\u2581\uc0ac\ub78c\ub4e4\uc744": 3019,
    "\u2581\uc774\uc804": 3020,
    "\uc0ac\ub9dd": 3021,
    "\u2581enter": 3022,
    "K": 3023,
    "\u2581accepted": 3024,
    "\u2581circumstances": 3025,
    "\u2581\uc758\uc0dd\ud65c": 3026,
    "\u2581\ucc3d": 3027,
    "\u2581fucking": 3028,
    "\u2581\uc600\uc2b5\ub2c8\ub2e4": 3029,
    "\u2581\ud1b5\ud574": 3030,
    "What": 3031,
    "\u2581\uacbd\uc6b0": 3032,
    "\uc9c0\uad6c": 3033,
    "be": 3034,
    "\u258118.": 3035,
    "\u2581\ubca0": 3036,
    "\u2581\uc740\uc5b4\ub5a0": 3037,
    "\uc774\ub77c\uace0\uc0dd\uac01": 3038,
    "\ud558\ub9ac\ub77c": 3039,
    "\u2581explains": 3040,
    "\u2581e": 3041,
    "\u25817,": 3042,
    "\u2581\uac70\uc9c0": 3043,
    "\ubc1c\uc804": 3044,
    "\u2581becoming": 3045,
    "\u2581\ud558\uc8e0": 3046,
    "\u2581\ubc24": 3047,
    "\uc2e4\uac83": 3048,
    "\u2581\ud558\uae30\ub54c\ubb38": 3049,
    "\u2581non": 3050,
    "\ubc15": 3051,
    "\uc99d\uac00": 3052,
    "\uc9c0\ub97c": 3053,
    "\u2581\uc740\uc774\ub807\uac8c": 3054,
    "\u2581Read": 3055,
    "\u2581\uc5f0\uad6c": 3056,
    "\u2581particular": 3057,
    "\u2581\uc2f6\uc5b4": 3058,
    "\ubc8c": 3059,
    "\u2581\uc744\uace0\ub824": 3060,
    "\uc5bc\ub9c8": 3061,
    "\u2581centuries": 3062,
    "\u2581\ub9d0\ud560": 3063,
    "\uc774\ub807\uac8c": 3064,
    "!\"": 3065,
    "\u2581\ub54c\uc5d0": 3066,
    "\u2581\ud314": 3067,
    "\u2581\uad50\ud68c": 3068,
    "\uace0\uc0dd\uac01": 3069,
    "\u2581\uc7a0\uae50": 3070,
    "\u2581\uac00\uc788\uc2b5\ub2c8\ub2e4": 3071,
    "\u2581\uc744\uc798": 3072,
    "\ubcf4\ud638": 3073,
    "\u2581groups": 3074,
    "\u2581allowed": 3075,
    "\uc5ec\uae30": 3076,
    "\ud22c": 3077,
    "\u2581size": 3078,
    "\ub294\uc810": 3079,
    "\u2581training": 3080,
    "\ubabb": 3081,
    "\u2581waiting": 3082,
    "\u2581influence": 3083,
    "\uc784\uba85": 3084,
    "\u258119:": 3085,
    "\uae4a\uc740": 3086,
    "\u2581\uc77c\uc740": 3087,
    "\u2581\ubcf4\ub2e4\ub354": 3088,
    "\ubcfc": 3089,
    "\u2581explain": 3090,
    "\u2581hit": 3091,
    "\u2581final": 3092,
    "\u2581worth": 3093,
    "\ub610\ub2e4\ub978": 3094,
    "\ud0dc\ub3c4": 3095,
    "\u2581\uc138\uc0c1": 3096,
    "\ubc14\uc6b8": 3097,
    "\u2581Mark": 3098,
    "\u2581\ub294\uc790\uc2e0": 3099,
    "\u2581concerning": 3100,
    "\u2581fun": 3101,
    "\u2581\ud558\uc600\uace0": 3102,
    "\u2581\ubc1c\uacac": 3103,
    "\ub2f4": 3104,
    "\uc778\uc9c0": 3105,
    "\u2581\uadf8\ub798\ub3c4": 3106,
    "\uc796\uc544\uc694": 3107,
    "\u2581\uc774\uc788\ub294": 3108,
    "\u2581\uadf8\uacb0\uacfc": 3109,
    "\u2581trouble": 3110,
    "\u2581haven": 3111,
    "\ud568\uaed8": 3112,
    "rs": 3113,
    "\u2581reward": 3114,
    "\u2581\uc774\ud574": 3115,
    "\ubc24": 3116,
    "\u2581\uc9c4\ub9ac": 3117,
    "\u2581basis": 3118,
    "\ubc14\ub2e4": 3119,
    "\ub9bd": 3120,
    "\u2581Which": 3121,
    "\u2581terms": 3122,
    "\ub824\ub294": 3123,
    "\u2581concern": 3124,
    "\u2581\uc800\ud76c\uac00": 3125,
    "\uce68\ub840": 3126,
    "\uc2e0\ub8b0": 3127,
    "ter": 3128,
    "\u2581\ub9d0\uace0": 3129,
    "\u2581\ud558\ub358": 3130,
    "ra": 3131,
    "\u2581+": 3132,
    "\u2581\uc6b0\ub9ac\ub97c": 3133,
    "\u2581\uc544\ube0c\ub77c\ud568": 3134,
    "\u2581anymore": 3135,
    "\ubaa8\ub4e0\uac83": 3136,
    "\u2581About": 3137,
    "\u2581walking": 3138,
    "\uc57c\ud569\ub2c8\ub2e4": 3139,
    "\u2581\uc5d0\uac8c\ub3c4": 3140,
    "\u2581Watch": 3141,
    "\uad6d\uac00": 3142,
    "\u2581justice": 3143,
    "\u2581apply": 3144,
    "\u2581bed": 3145,
    "\u2581\uc774\ud558\ub098\ub2d8": 3146,
    "\uae30\uc068": 3147,
    "\u2581described": 3148,
    "\u2581\ub098\ud55c\ud14c": 3149,
    "\ubfd0": 3150,
    "\u2581total": 3151,
    "\u2581writing": 3152,
    "\ud604\uc7ac": 3153,
    "ad": 3154,
    "\uc2dd\ubb3c": 3155,
    "\u2581answers": 3156,
    "\ubc94\uc8c4": 3157,
    "\u2581speech": 3158,
    "\u2581spread": 3159,
    "\u2581supposed": 3160,
    "\u2581\ub54c\ubb38\uc785\ub2c8\ub2e4": 3161,
    "\u2581\ud0a4": 3162,
    "\u2581saved": 3163,
    "\uc758\ubbf8": 3164,
    "\u2581\ub9d0\uc740": 3165,
    "ent": 3166,
    "\u2581developed": 3167,
    "\u2581guidance": 3168,
    "\u2581homes": 3169,
    "\u2581\ud3f4\ub354": 3170,
    "\uc9c0\uace0": 3171,
    "\u2581\uac00\ub418": 3172,
    "\u2581slave": 3173,
    "\u2581\uc0bc": 3174,
    "\uae30\uc6d0": 3175,
    "\u2581Hence": 3176,
    "\u2581\uc774\uc5ec\ud638\uc640": 3177,
    "\u2581\uac19\uc2b5\ub2c8\ub2e4": 3178,
    "\u2581Dad": 3179,
    "\uc88b\uc740\uc18c\uc2dd": 3180,
    "\u2581crowd": 3181,
    "\u2581\ub294\uc5b4\ub5bb\uac8c": 3182,
    "\u2581\ud6c4\uc5d0": 3183,
    "one": 3184,
    "up": 3185,
    "\u2581\uc744\uae30\uc5b5": 3186,
    "\u2581recently": 3187,
    "\u2581\ub4e4\uc5b4\uac00": 3188,
    "\u2581research": 3189,
    "\ub098\uc694": 3190,
    "\u2581\uc798\ubabb": 3191,
    "\uccad": 3192,
    "\u2581\uc138\uc0c1\uc5d0": 3193,
    "\u2581vital": 3194,
    "\u2581huge": 3195,
    "\u2581role": 3196,
    "\uc9d1\ud68c": 3197,
    "\u2581\uc544\ub1e8": 3198,
    "\u2581\uc810": 3199,
    "\uc5fc\ub824": 3200,
    "\uc9c0\uc54a": 3201,
    "\u2581condition": 3202,
    "\ud559\uc790": 3203,
    "\u258145": 3204,
    "\u258110,": 3205,
    "\ub4ef\uc774": 3206,
    "\u2581_": 3207,
    "\u2581\uac00\uc790": 3208,
    "\u2581\uac83\ucc98\ub7fc": 3209,
    "\uc5b8\uc5b4": 3210,
    "\u2581\uc218\uac00": 3211,
    "\u2581advice": 3212,
    "\u2581published": 3213,
    "\u2581\uc774\uc788": 3214,
    "\u2581calls": 3215,
    "\u2581\uc5ec\ud638\uc640\uc758": 3216,
    "\ub458": 3217,
    "\u2581leaders": 3218,
    "\u2581\uc5d0\uc6b0\ub9ac": 3219,
    "\u2581\ubc0f": 3220,
    "\u2581data": 3221,
    "\u2581\uac00\ub294": 3222,
    "\u2581\uc740\uc0ac\ub78c": 3223,
    "\u2581art": 3224,
    "\u2581daily": 3225,
    "\ud30c\uc218\ub300": 3226,
    "\u2581lands": 3227,
    "\u2581\ub4f1": 3228,
    "\uc720\uc758": 3229,
    "\u2581Germany": 3230,
    "\u2581\uc720\ub7fd": 3231,
    "\u2581Stop": 3232,
    "\u2581filled": 3233,
    "\u2581regard": 3234,
    "\ubd80\uc778": 3235,
    "\u2581original": 3236,
    "\uacb0\ud63c": 3237,
    "\u2581\ub77c\uace0\ub9d0": 3238,
    "\u2581\uc5d0\ubd88\uacfc": 3239,
    "\u2581\ud559\uad50": 3240,
    "\u2581IN": 3241,
    "If": 3242,
    "\u2581served": 3243,
    "\ubd80\ud65c": 3244,
    "\uc900\ube44": 3245,
    "\u2581\uac00\ubb34\uc5c7": 3246,
    "\u2581\uc54c\uac8c": 3247,
    "\uc120\ud3ec": 3248,
    "\u2581\uadf8\ub0a0": 3249,
    "\u2581\uc5c6": 3250,
    "\u2581examples": 3251,
    "\u2581\uadf8\ub807\ub2e4": 3252,
    "\uc81c\ub3c4": 3253,
    "\uae09": 3254,
    "\ucc38\uc73c\ub85c": 3255,
    "\u2581\ub418\uba74": 3256,
    "\u2581\uae30\ub3c4": 3257,
    "\uac70\uc758": 3258,
    "\u2581Earth": 3259,
    "\u2581secret": 3260,
    "\u2581\ubca0\ub4dc\ub85c": 3261,
    "\u2581\uc744\ubcf4\uace0": 3262,
    "\ubcf4\ub3c4": 3263,
    "\u2581\uadf8\uc774\uc720": 3264,
    "\uc791": 3265,
    "\u2581responsibility": 3266,
    "\u2581road": 3267,
    "\u2581\uc800\ub97c": 3268,
    "\uc778\ub0b4": 3269,
    "\u2581\ubcf4\ub2e4\ub3c4": 3270,
    "\u2581\uc774\ubb34\uc5c7": 3271,
    "\ub610": 3272,
    "\u2581\uadf8\ud6c4": 3273,
    "\u2581Remember": 3274,
    "\u2581\u2013": 3275,
    "\u2581girls": 3276,
    "\u2581blessing": 3277,
    "God": 3278,
    "\u2581Her": 3279,
    "\uc900": 3280,
    "\uc5b4\ub824\uc6c0": 3281,
    "\u2581\uc529": 3282,
    "\u2581Jeremiah": 3283,
    "\u2581\uc758\uc81c\ub3c4": 3284,
    "\u2581\ubcd1": 3285,
    "\u2581\ub9cc\uc774": 3286,
    "\u2581\uc790\uc2e0\uc758": 3287,
    "\u2581\ub97c\uc0ac\ub791": 3288,
    "\u2581\uc774\ub3d9": 3289,
    "\u258122,": 3290,
    "\uc798\ubabb": 3291,
    "\u2581favor": 3292,
    "\u2581hot": 3293,
    "ton": 3294,
    "\u2581team": 3295,
    "\u2581fruit": 3296,
    "\u2581showing": 3297,
    "\u2581\ub418\ub294\uac83": 3298,
    "\u2581average": 3299,
    "\u2581\uac19\uc544\uc694": 3300,
    "\u2581confidence": 3301,
    "\uaca9": 3302,
    "\ucde8": 3303,
    "\uc758\uc2dd": 3304,
    "\ud574\ub3c4": 3305,
    "\u2581Hello": 3306,
    "\u2581surgery": 3307,
    "\u2581\uc758\uc9d1": 3308,
    "ch": 3309,
    "\u2581\ub9de\uc544": 3310,
    "\ubc15\uc218": 3311,
    "\u2581\uc0ac\ub78c\ub4e4": 3312,
    "\u2581\uc758\uae38": 3313,
    "\u2581\ubb38\uc81c\uac00": 3314,
    "\uc9c4\uc2e4": 3315,
    "\u2581TO": 3316,
    "\u2581lack": 3317,
    "\uc131\uacf5": 3318,
    "Applause": 3319,
    "In": 3320,
    "\u2581\uc740\uc774\ub7ec": 3321,
    "\u2581\ub418\uc5b4\uc788\ub2e4": 3322,
    "\u2581failed": 3323,
    "\u2581happening": 3324,
    "\u2581crime": 3325,
    "\ub3c4\ub2e4": 3326,
    "\u2581basic": 3327,
    "\u2581\uadf8\uac70": 3328,
    "\uba87": 3329,
    "\u2581\uc744\ubcf4": 3330,
    "\u2581regular": 3331,
    "\uc704\ub85c": 3332,
    "\u2581cancer": 3333,
    "less": 3334,
    "\u2581youths": 3335,
    "\u2581offered": 3336,
    "\u258135": 3337,
    "\u2581Instead": 3338,
    "\u2581Thanks": 3339,
    "\u2581universe": 3340,
    "\u2581\ubcf4\ud638": 3341,
    "\uc774\uc2a4\ub77c\uc5d8": 3342,
    "\u2581\ub098\ubb34": 3343,
    "\u2581\uc554": 3344,
    "\ud558\uba74\uc11c": 3345,
    "\u2581\uc758\uacac\ud574": 3346,
    "\u2581gods": 3347,
    "\u2581\uc120\uc0dd\ub2d8": 3348,
    "\u2581\uc54a\uace0": 3349,
    "\u2581\uc740\ucc38\uc73c\ub85c": 3350,
    "\u2581\uc77c\ub7ec\uac00\ub85c\ub418": 3351,
    "\u2581\uacb0\uc815": 3352,
    "\uc74c\uc2dd": 3353,
    "\u2581qualities": 3354,
    "\uae30\uc804": 3355,
    "\uc544\ub2c8": 3356,
    "\u2581anger": 3357,
    "\u2581\ud558\uace0\uc788\ub294": 3358,
    "\u2581\uc640\uad00\ub828": 3359,
    "\u2581noted": 3360,
    "\u2581\uc804\ud600": 3361,
    "\u258114,": 3362,
    "\u2581difference": 3363,
    "\ud55c\uac00\uc9c0": 3364,
    "\u2581community": 3365,
    "\u2581middle": 3366,
    "\uc9c0\uc0c1": 3367,
    "\u2581\uac00\uc815": 3368,
    "\uacb8\uc190": 3369,
    "\u2581worry": 3370,
    "\u2581helping": 3371,
    "ial": 3372,
    "\u2581servant": 3373,
    "\ub77c\ub3c4": 3374,
    "].": 3375,
    "\u2581computer": 3376,
    "\u2581;": 3377,
    "\u2581hate": 3378,
    "\u2581\uc774\uc544\ub2c8\ub2e4": 3379,
    "\u2581suffer": 3380,
    "\u2581\uc77c\uac83": 3381,
    "\ub2d8": 3382,
    "\u2581Tell": 3383,
    "\u2581nearly": 3384,
    "\u2581\ud558\uae30\uc704\ud558\uc5ec": 3385,
    "\u2581St": 3386,
    "\u2581rate": 3387,
    "\uce20": 3388,
    "\ud558\ub824\uace0": 3389,
    "\u2581Perhaps": 3390,
    "\u2581hair": 3391,
    "\u2581\uc5b8\uc81c": 3392,
    "\u2581\ud3ec": 3393,
    "\ucca0": 3394,
    "\u2581treatment": 3395,
    "\u2581\uc0ac\uc2e4\uc0c1": 3396,
    "\ubc31\uc131": 3397,
    "\ud480": 3398,
    "\u2581exercise": 3399,
    "\u2581\ud558\ub298": 3400,
    "\u2581Keep": 3401,
    "\u2581warning": 3402,
    "\u2581drug": 3403,
    "\u2581\uba38\ub9ac": 3404,
    "v": 3405,
    "\uc5c8\uc74d\ub2c8\ub2e4": 3406,
    "\u2581quality": 3407,
    "\u2581develop": 3408,
    "\ub9cc\ud55c": 3409,
    "\u2581\uc54a": 3410,
    "\ubc00": 3411,
    "\ubc29\uc2dd": 3412,
    "\ucc9c\uc0ac": 3413,
    "\u2581minister": 3414,
    "\u2581Still": 3415,
    "\uac00\uce58": 3416,
    "\uac81\ub2c8\ub2e4": 3417,
    "\u2581nbsp": 3418,
    "\ubc1c\ud589": 3419,
    "\ud68c\ubcf5": 3420,
    "\uace0\ub300": 3421,
    "\u2581conscience": 3422,
    "\u2581risk": 3423,
    "\u2581kid": 3424,
    "\u2581military": 3425,
    "\u2581seemed": 3426,
    "\u2581\ub098\uac00": 3427,
    "\uae30\uc5b5": 3428,
    "\ub354\ub2c8": 3429,
    "\u2581\uace0\ub9d0": 3430,
    "\u2581cell": 3431,
    "\u2581\uc744\ubc1c\uacac": 3432,
    "\u2581pick": 3433,
    "\uc26c": 3434,
    "\u2581\uc2dc\ud0a4\ub294": 3435,
    "\u2581dad": 3436,
    "\u2581\uc644\uc804": 3437,
    "\u2581date": 3438,
    "\u2581keeping": 3439,
    "\uc5d8": 3440,
    "\u2581\uba54": 3441,
    "\u2581\uc778\ub370": 3442,
    "\u258120.": 3443,
    "\u2581Genesis": 3444,
    "\u2581although": 3445,
    "\u2581\ubb50\uac00": 3446,
    "\u2581\ud558\uace0\uc788\uc2b5\ub2c8\ub2e4": 3447,
    "\u2581\ub3cc\uc544\uac00": 3448,
    "\ub2e4\ub294\uac83": 3449,
    "\u2581Before": 3450,
    "\u2581piece": 3451,
    "\u2581loss": 3452,
    "\u2581\uc55e\uc5d0": 3453,
    "\u2581\ub3fc\uc694": 3454,
    "\u2581\uaed8\uc11c\ub294\uadf8": 3455,
    "\u2581\uc774\uc720": 3456,
    "\u2581price": 3457,
    "\u2581\ub294\uc790\uae30": 3458,
    "\u2581leaving": 3459,
    "\uc774\uc9c0": 3460,
    "\u2581\ubd05\uc2dc\ub2e4": 3461,
    "\uc654\ub2e4": 3462,
    "\u2581helps": 3463,
    "\uaca0\uc9c0": 3464,
    "\u2581path": 3465,
    "\u2581\uc77c\ubcf8": 3466,
    "\u2581\uc544\ub294": 3467,
    "\u2581\uc0ac\ub2e8": 3468,
    "\uac1c\uc778\uc801": 3469,
    "\u2581Give": 3470,
    "\u2581eventually": 3471,
    "\uc2b5\uad00": 3472,
    "\uc5ed\ud560": 3473,
    "\uba38": 3474,
    "\u2581higher": 3475,
    "\u2581\ubc1b\uc544": 3476,
    "ne": 3477,
    "\u2581enemies": 3478,
    "\u2581success": 3479,
    "\u2581\uc54a\uc544\uc694": 3480,
    "\u2581distance": 3481,
    "\u2581root": 3482,
    "\u2581\uc544\ub2f4": 3483,
    "\ud589\uc0ac": 3484,
    "\u2581gotta": 3485,
    "\u2581cold": 3486,
    "\ud558\uc9c0\ub9cc": 3487,
    "\u2581Box": 3488,
    "\ud558\uc2dc": 3489,
    "\u2581\ubb50\uc57c": 3490,
    "\u2581eating": 3491,
    "\u2581thoughts": 3492,
    "\u2581\uadf8\ub9bc": 3493,
    "\u2581Though": 3494,
    "\u2581\ud560\ud544\uc694": 3495,
    "(_": 3496,
    "\u2581\ub300\uccb4": 3497,
    "\u2581Was": 3498,
    "\u2581\ud558\uc168\uc74d\ub2c8\ub2e4": 3499,
    "\u2581straight": 3500,
    "\uc5b4\ub290": 3501,
    "\u2581French": 3502,
    "\u2581Sorry": 3503,
    "\u2581Over": 3504,
    "\u2581\uc5c6\uc744": 3505,
    "\u2581\uac71\uc815": 3506,
    "\u2581answered": 3507,
    "\u2581prepared": 3508,
    "\uac74\ubb3c": 3509,
    "\u2581cover": 3510,
    "\u258136": 3511,
    "\u2581\ub294\ud558\ub290\ub2d8": 3512,
    "ian": 3513,
    "\u2581touch": 3514,
    "\u2581\ud55c\ub2e4\uace0": 3515,
    "\u2581sisters": 3516,
    "\u2581\ud63c\uc790": 3517,
    "\ub300\ud654": 3518,
    "\u2581minute": 3519,
    "lo": 3520,
    "\u258121.": 3521,
    "\u2581measure": 3522,
    "\u2581scientists": 3523,
    "\u2581\uc758\uc0dd\uba85": 3524,
    "\u2581\ud558\uc790": 3525,
    "\u2581Every": 3526,
    "ies": 3527,
    "\u2581prayers": 3528,
    "\u2581realized": 3529,
    "\uc138\ud3ec": 3530,
    "\u2581\ub294\uc774": 3531,
    "\u2581Times": 3532,
    "\u2581\uc758\ubbff\uc74c": 3533,
    "\uc168": 3534,
    "\u2581appear": 3535,
    "\u2581main": 3536,
    "\u2581\ubc1b\ub294": 3537,
    "\u2581immediately": 3538,
    "he": 3539,
    "\u2581ideas": 3540,
    "\u2581\ubcf4\uc5ec": 3541,
    "\u2581\ub098\uc640": 3542,
    "\u2581fell": 3543,
    "\uc5ed\uc0ac": 3544,
    "\u2581\uc5d0\uc774": 3545,
    "\ub2e4\uc591": 3546,
    "\u2581\uc544\uce68": 3547,
    "\u2581\uc744\ub0b4": 3548,
    "\ucd1d": 3549,
    "\u2581worldwide": 3550,
    "\u2581\ubbff\uc74c": 3551,
    "\uc815\uae30\uc801": 3552,
    "\u2581maintain": 3553,
    "\u2581\ub450\ub824\uc6cc": 3554,
    "\uc778\uc815": 3555,
    "\u2581\uaf2d": 3556,
    "\u2581\ub418\uc5b4\uc788\ub294": 3557,
    "\u2581dangerous": 3558,
    "\u2581presence": 3559,
    "\u2581\uc624\ud788\ub824": 3560,
    "\u2581opened": 3561,
    "\u2581\uc624\ub798": 3562,
    "ah": 3563,
    "\u2581paper": 3564,
    "\u2581blessings": 3565,
    "\uc73c\ub85c\ubd80\ud130": 3566,
    "\u2581green": 3567,
    "\u2581\ucc38\uc73c\ub85c": 3568,
    "ci": 3569,
    "\u2581\ud480": 3570,
    "\u2581species": 3571,
    "\u2581wide": 3572,
    "\u2581\ud589": 3573,
    "\ucd94\uad6c": 3574,
    "\ud558\ub824": 3575,
    "\u2581\uc758\ubc95": 3576,
    "\u2581\ub4a4": 3577,
    "\u2581\ub9d0\ud574": 3578,
    "This": 3579,
    "\u2581knowing": 3580,
    "\uacb0": 3581,
    "\u2581\uc774\ub984\uc744": 3582,
    "\ud76c\uc0dd": 3583,
    "na": 3584,
    "\u2581km": 3585,
    "\u2581Us": 3586,
    "\u2581contact": 3587,
    "\u2581pages": 3588,
    "\ubc16": 3589,
    "\uc774\uc6a9": 3590,
    "\uc2dc\ud5d8": 3591,
    "\uc544\ubb34": 3592,
    "\uc774\ub807\uac8c\ub9d0\uc500": 3593,
    "\u2581\uae08": 3594,
    "ling": 3595,
    "\u2581\ubcf4\ub77c": 3596,
    "\ub2e8\uc9c0": 3597,
    "\u2581\uac00\ub098": 3598,
    "\u2581\uc758\ud574": 3599,
    "\uc774\uba70": 3600,
    "\u2581AIDS": 3601,
    "\u2581mental": 3602,
    "\ud3ed\ub825": 3603,
    "\uccab\uc9f8": 3604,
    "\u2581comfort": 3605,
    "\u2581surface": 3606,
    "\u2581\ub9c8\uc74c": 3607,
    "\u2581#": 3608,
    "\ucc98": 3609,
    "\u2581\uc9c0\uae08\uc740": 3610,
    "\u2581\uace0\ub9c8\uc6cc\uc694": 3611,
    "\uc9d1\ub2e8": 3612,
    "\u2581wanna": 3613,
    "\uc168\ub2e4": 3614,
    "\u2581OK": 3615,
    "\u2581\ud574\ub3c4": 3616,
    "\ub204\uad6c": 3617,
    "\u2581=": 3618,
    "\u2581\uc790\ub124": 3619,
    "\ub204\uac00": 3620,
    "\u2581\uc9c0\uad6c": 3621,
    "\u2581\uc758\uac00\ub974\uce68": 3622,
    "\ub178\ub798": 3623,
    "\u2581\uc218\uc220": 3624,
    "\ud558\uac70\ub098": 3625,
    "\u2581angle": 3626,
    "\u2581causes": 3627,
    "\u2581\ub0b4\ub824": 3628,
    "\u2581\ub5a0\ub098": 3629,
    "\u2581earthly": 3630,
    "\u2581300": 3631,
    "\ub2e4\ub2c8": 3632,
    "\uc5c8\uc73c\uba70": 3633,
    "\u2581box": 3634,
    "\u2581\ucc45": 3635,
    "\u2581established": 3636,
    "\u2581praise": 3637,
    "\u2581Surely": 3638,
    "\u2581billion": 3639,
    "\u2581\ub108\ub97c": 3640,
    "\uc6b0\uc8fc": 3641,
    "\uc9c0\uc54a\uc744\uac83": 3642,
    "\u2581offering": 3643,
    "\u2581\uc758\ub3c4\uc6c0": 3644,
    "ine": 3645,
    "\u2581particularly": 3646,
    "\u2581mom": 3647,
    "\u2581\uc77c\uc5b4\ub098": 3648,
    "\u2581newspaper": 3649,
    "\u2581activities": 3650,
    "\u2581hundreds": 3651,
    "\u2581danger": 3652,
    "\u2581\uc0ac\ud0c4": 3653,
    "\uc5c8\uc5b4\uc694": 3654,
    "\u2581Pictures": 3655,
    "\u2581\uadf8\ub300": 3656,
    "\ucda9\uc131": 3657,
    "\ud558\uc2e0": 3658,
    "\ub354\uad70\uc694": 3659,
    "\u2581\uc644\uc804\ud788": 3660,
    "\ub538": 3661,
    "\u2581worse": 3662,
    "\u2581\uc801\uc774": 3663,
    "\u2581firm": 3664,
    "\u2581\ub9d0\uc500\uc744": 3665,
    "\u2581\uc5b5": 3666,
    "\u2581\ub86d\uac8c": 3667,
    "\u2581\uc2dc\ucf1c": 3668,
    "\u2581\ub2f9\uc7a5": 3669,
    "\u2581\uc744\uc774\ud574": 3670,
    "\u2581race": 3671,
    "\u2581\uc0ac\uc9c4": 3672,
    "\uc7a5\uc18c": 3673,
    "ous": 3674,
    "\u2581required": 3675,
    "co": 3676,
    "\u2581Hall": 3677,
    "\u2581generation": 3678,
    "\uc2a4\uc2a4\ub85c": 3679,
    "\u2581Hi": 3680,
    "\uacb0\uc2ec": 3681,
    "\ud604": 3682,
    "\u2581search": 3683,
    "\ub418\uace0": 3684,
    "\u2581\uc2e0\uacbd": 3685,
    "\u2581\uc2f6\uc740": 3686,
    "\u2581chapter": 3687,
    "\u2581\uc608\ub97c": 3688,
    "\u2581Un": 3689,
    "\u2581standards": 3690,
    "\u2581\uc744\uacaa": 3691,
    "\uc120\ud0dd": 3692,
    "\uc0b6": 3693,
    "\uc5ec\uc131": 3694,
    "\uc5f0\uc124": 3695,
    "\ud398": 3696,
    "\u2581congregations": 3697,
    "\u2581\uc744\uadf8": 3698,
    "\uc794": 3699,
    "\u2581center": 3700,
    "\u2581weight": 3701,
    "\u2581\ud55c\ub54c": 3702,
    "\u2581attack": 3703,
    "\u2581chief": 3704,
    "\u2581\ud544\uc694\ud55c": 3705,
    "\uc774\uc81c": 3706,
    "\u258111,": 3707,
    "\u2581function": 3708,
    "\u2581spiritually": 3709,
    "\u2581temporary": 3710,
    "\u2581500": 3711,
    "\u2581\ub97c\ub4e4\uba74": 3712,
    "\u2581\uac19": 3713,
    "\u2581\ub3c8\uc744": 3714,
    "\u2581\uc774\uc5c8\uc74d\ub2c8\ub2e4": 3715,
    "ol": 3716,
    "\u2581deeds": 3717,
    "\uc9c8\ubcd1": 3718,
    "\u2581global": 3719,
    "\u2581France": 3720,
    "\u2581\uc5d0\uc0ac\ub294": 3721,
    "\uc5c8\ub358": 3722,
    "\uce68": 3723,
    "\uc2e4\uc81c": 3724,
    "\u2581\ud588\ub294\ub370": 3725,
    "\u2581party": 3726,
    "\u2581\uc5d0\uadfc\uac70": 3727,
    "\u2581\ud558\ub8e8": 3728,
    "\u2581recognize": 3729,
    "\u2581\uba74\ub124\ubaa8": 3730,
    "\u2581judge": 3731,
    "\u2581De": 3732,
    "\u2581carried": 3733,
    "\u2581pleasure": 3734,
    "\u2581\uc54c\uc544\uc694": 3735,
    "\uac1c\uc778": 3736,
    "\u2581foot": 3737,
    "\u258116,": 3738,
    "\u2581\uc73c\ub85c\ub294": 3739,
    "\uadf8\ub7ec": 3740,
    "\u2581\uad00\ud55c": 3741,
    "\u2581Show": 3742,
    "\u2581technology": 3743,
    "\uc790\ub9ac": 3744,
    "\uc804\ud30c": 3745,
    "\u2581\ub4e4\uc0ac\uc774": 3746,
    "\u2581\uc5d0\uc11c\uadf8": 3747,
    "\u2581\uc744\uc778\uc815": 3748,
    "\uc790\uac00": 3749,
    "Do": 3750,
    "\uac10\uc815": 3751,
    "\u2581\uadf8\ub9ac": 3752,
    "\u258119.": 3753,
    "\u2581concerned": 3754,
    "\u2581\ubcf4\uae30": 3755,
    "\u2581evening": 3756,
    "\u2581wine": 3757,
    "\u2581workers": 3758,
    "\u2581\uc774\ubc88": 3759,
    "\ud588\uace0": 3760,
    "\u2581fulfillment": 3761,
    "\uc81c\uc548": 3762,
    "\u2581foretold": 3763,
    "\u2581include": 3764,
    "\u2581\ub97c\uc704\ud558\uc5ec": 3765,
    "\u2581\uc220": 3766,
    "\u2581reached": 3767,
    "\uadf8\ub987": 3768,
    "\uc9d0": 3769,
    "\u2581Hebrews": 3770,
    "\uc9c0\uc54a\ub294\ub2e4": 3771,
    "\u2581brings": 3772,
    "\uc608\ub8e8\uc0b4\ub818": 3773,
    "\uae68\uc5b4\ub77c": 3774,
    "\ud588\uc744": 3775,
    "\u2581teacher": 3776,
    "\uc7a1\uc9c0": 3777,
    "age": 3778,
    "\u2581putting": 3779,
    "im": 3780,
    "\u2581\uc57d\uc18d": 3781,
    "\uaca0\uc2b5\ub2c8\ub2e4": 3782,
    "\uc131\ucde8": 3783,
    "\uc218\uc220": 3784,
    "\u2581harmony": 3785,
    "\u2581\ubab0\ub77c": 3786,
    "\u2581\uc804\uc7c1": 3787,
    "\u2581addition": 3788,
    "\u2581obey": 3789,
    "\u2581Once": 3790,
    "\uadf8\ub9ac\uc2a4\ub3c4\uad50": 3791,
    "\uba3c": 3792,
    "\u2581k": 3793,
    "\u2581Time": 3794,
    "\uc600\uc2b5\ub2c8\ub2e4": 3795,
    "\u2581table": 3796,
    "\u2581\ubb34\uc5c7\uc744": 3797,
    "\u2581\uc774\ubd84\uba85": 3798,
    "\uc2dc\ub294": 3799,
    "\uc774\ub780": 3800,
    "\ub099\uc6d0": 3801,
    "\ub3d9\uc77c": 3802,
    "\u2581environment": 3803,
    "\u2581OF": 3804,
    "\u2581birds": 3805,
    "\ud615\ud0dc": 3806,
    "\u2581related": 3807,
    "\u2581promises": 3808,
    "\u2581\ud55c\ub9d0": 3809,
    "He": 3810,
    "id": 3811,
    "\u2581seeking": 3812,
    "\u2581\ub9cc\ub4e0": 3813,
    "\u2581\uc758\uc0dd\uac01": 3814,
    "\u2581\uc774\ub9d0": 3815,
    "\u2581economic": 3816,
    "\u2581project": 3817,
    "\u2581youth": 3818,
    "\u2581experienced": 3819,
    "\u2581drive": 3820,
    "\u2581hearing": 3821,
    "\u2581\uc758\ubbf8": 3822,
    "\u2581YOU": 3823,
    "\u2581\ud574\uc57c\ud560": 3824,
    "\uc558\ub2e4": 3825,
    "\u2581member": 3826,
    "\ucc3d\uc870": 3827,
    "\ub294\ub2e4": 3828,
    "\uc788\uae30\ub54c\ubb38": 3829,
    "\uc131\ub839": 3830,
    "\u2581claim": 3831,
    "\u2581length": 3832,
    "\u2581plant": 3833,
    "\u2581wind": 3834,
    "\ube48": 3835,
    "\u2581\u266b": 3836,
    "\u2581\uc7a1\uc544": 3837,
    "\uac00\ub09c": 3838,
    "\ud50c": 3839,
    "\u2581\ub450\uace0": 3840,
    "\u2581\uc608\uc218\uadf8\ub9ac\uc2a4\ub3c4": 3841,
    "\ub9c1": 3842,
    "la": 3843,
    "\u2581\uadf8\ub140\uc758": 3844,
    "\u2581aware": 3845,
    "\u2581\ub9d0\uc500": 3846,
    "000": 3847,
    "\uc18c\uc911": 3848,
    "\u2581\uc740\uc774\ub807\uac8c\ub9d0": 3849,
    "\u2581army": 3850,
    "\uc990\uac70\uc6c0": 3851,
    "\u2581salvation": 3852,
    "\u2581\uc885\uad50": 3853,
    "\u2581\uace0\ub300": 3854,
    "\u2581\uc744\uac00\uc9c4": 3855,
    "\uc880": 3856,
    "\u2581\uc815\ubcf4": 3857,
    "\ub3c5": 3858,
    "\uc5c8\ub294\ub370": 3859,
    "\u2581\uc5f0\uacb0": 3860,
    "\u2581\uc815\uc758": 3861,
    "\u2581\uc804\uccb4": 3862,
    "\u2581produced": 3863,
    "\ud569\ub2c8\uae4c": 3864,
    "\u2581wall": 3865,
    "\u2581\uad1c\ucc2e\uc544\uc694": 3866,
    "\u2581\ud655\uc778": 3867,
    "\uc5d0\ub3c4": 3868,
    "\u2581Matt": 3869,
    "\u2581appreciation": 3870,
    "\u2581existence": 3871,
    "\u2581languages": 3872,
    "\u2581nine": 3873,
    "\u2581\uadf8\uc800": 3874,
    "\u2581\ub9cc\uba85": 3875,
    "\uac15\ud654": 3876,
    "\ud655\uc2e4": 3877,
    "\u2581spoken": 3878,
    "\uce7c": 3879,
    "\uc0ac\uc5c5": 3880,
    "\u2581names": 3881,
    "\u2581vision": 3882,
    "~": 3883,
    "\ubc18\ub300": 3884,
    "\uac70\uc8e0": 3885,
    "\uc0bc": 3886,
    "\uc728": 3887,
    "\u2581\ub3c5\uc77c": 3888,
    "\u2581\uc0dd\uba85": 3889,
    "\u2581\uc744\ud558": 3890,
    "\u2581heavy": 3891,
    "\u2581pioneer": 3892,
    "te": 3893,
    "\u2581bread": 3894,
    "\u2581\uc9c1\uc811": 3895,
    "\uad6c\uc6d0": 3896,
    "\u2581destroy": 3897,
    "\u2581n": 3898,
    "\u2581\ub9cc\ud07c": 3899,
    "\u2581\uc774\uc790\uae30": 3900,
    "\u2581approach": 3901,
    "\u2581\ub9c8\uce68\ub0b4": 3902,
    "\ubb3c\uc9c8": 3903,
    "\ubc15\ud574": 3904,
    "\u2581creatures": 3905,
    "\u2581\ud558\ub9ac\ub77c": 3906,
    "\u2581India": 3907,
    "\u2581wives": 3908,
    "\u2581\ubd80\uc778": 3909,
    "\u2581calling": 3910,
    "\u2581\uc7a0": 3911,
    "\u2581\uc8c4": 3912,
    "\u2581court": 3913,
    "ING": 3914,
    "\u2581\ud558\ub098\uc758": 3915,
    "\u2581paradise": 3916,
    "\u2581\uc8fd\uc740": 3917,
    "\uae4c\uc694": 3918,
    "\uc601\uad6d": 3919,
    "\u2581active": 3920,
    "\u2581branch": 3921,
    "\uac70\uc9c0": 3922,
    "\uace8": 3923,
    "\u2581aid": 3924,
    "\u2581\uc744\ub290\ub07c": 3925,
    "\ud1b5\uce58": 3926,
    "\u2581\ud558\uc168": 3927,
    "li": 3928,
    "\u2581address": 3929,
    "\u2581agree": 3930,
    "\u2581\ub9dd": 3931,
    "\u2581crazy": 3932,
    "\u2581mountain": 3933,
    "\ub4e4\uc5b4": 3934,
    "do": 3935,
    "\u2581\ud658\uc790": 3936,
    "\u2581articles": 3937,
    "\u2581benefits": 3938,
    "\uc601\uad11": 3939,
    "\uc120\ubb3c": 3940,
    "\u2581\uac8c\uc784": 3941,
    "\u2581\ucc3e\uc744": 3942,
    "\u2581dream": 3943,
    "\u2581occasion": 3944,
    "\u2581parent": 3945,
    "\u2581playing": 3946,
    "de": 3947,
    "\uce5c\uc808": 3948,
    "\u2581\uc774\uc5c6\ub294": 3949,
    "\uc870\uc0ac": 3950,
    "go": 3951,
    "\u258112,": 3952,
    "\u2581Jacob": 3953,
    "\u2581boys": 3954,
    "\u2581easily": 3955,
    "\u2581shot": 3956,
    "\uc4f0": 3957,
    "\uc8fc\ub294": 3958,
    "\u2581\uadf8\ub7ec\ub2c8": 3959,
    "\u2581Mom": 3960,
    "\u2581\uadc0": 3961,
    "\u2581everybody": 3962,
    "\u2581h": 3963,
    "\ub07c": 3964,
    "ish": 3965,
    "\ubaa9\ud45c": 3966,
    "\u2581\ub2f9\uc2dc": 3967,
    "\u2581amazing": 3968,
    "\u2581\ud504\ub85c\uadf8\ub7a8": 3969,
    "\u2581\ubb38\uc81c\ub97c": 3970,
    "\u2581\uc544\uc9c1\ub3c4": 3971,
    "\u2581\uc5bc\ub9c8": 3972,
    "\u2581\ud558\uc2dc\ub294": 3973,
    "\uc81c\uc2dc": 3974,
    "\u2581\uae38\uc744": 3975,
    "\u2581\uc744\ud1b5\ud558\uc5ec": 3976,
    "\u2581\ud558\ub824\ub294": 3977,
    "\u2581blind": 3978,
    "\u2581\uace0\ub9c8\uc6cc": 3979,
    "\u2581\ub05d": 3980,
    "\u2581\uc800\ub3c4": 3981,
    "\uc131\uc11c\uc5f0\uad6c": 3982,
    "\u2581German": 3983,
    "\u2581planet": 3984,
    "\u2581\uc601\ud654": 3985,
    "\u2581\uc820\uc7a5": 3986,
    "\uac00\ub294": 3987,
    "\uad11": 3988,
    "\u2581Later": 3989,
    "\u2581Compare": 3990,
    "\u2581\ud654": 3991,
    "\u2581goal": 3992,
    "\u2581\uc2eb\uc5b4": 3993,
    "\uad00\ub9ac": 3994,
    "\u2581behavior": 3995,
    "\u2581\uac70\uae30\uc11c": 3996,
    "\u2581\uc640\uc11c": 3997,
    "\u2581\ub9cc\uc544\ub2c8\ub77c": 3998,
    "\ud568\uc744": 3999,
    "\uc9c0\uc54a\uc740": 4000,
    "\u2581determined": 4001,
    "\u2581growth": 4002,
    "\uc6c0": 4003,
    "\u2581arrived": 4004,
    "\u2581\ub538": 4005,
    "\u2581Should": 4006,
    "\u2581responsible": 4007,
    "\u2581\uc791\uc5c5": 4008,
    "\u2581DNA": 4009,
    "\u2581fuck": 4010,
    "\u2581studying": 4011,
    "\u2581\ub178\ub798": 4012,
    "\u2581kings": 4013,
    "\u2581guide": 4014,
    "\u2581\ud45c\uc2dc": 4015,
    "\u2581\uc788\uc5b4\uc11c": 4016,
    "\uc2ed\ub2c8\ub2e4": 4017,
    "\ucd95": 4018,
    "\uc2ec\ud55c": 4019,
    "\uc2b9": 4020,
    "\uc65c": 4021,
    "\u2581\uc2dc\uac04\uc744": 4022,
    "\u2581\ub418\uc5c8": 4023,
    "\uae30\ub300": 4024,
    "\uac00\ub974\uce68": 4025,
    "\uba85\ub839": 4026,
    "\u2581\uc874\uc7ac": 4027,
    "\uc73c\ub77c": 4028,
    "\ud48d": 4029,
    "\u2581\uc2a4\ub7fd\uac8c": 4030,
    "\ud2b9\ud788": 4031,
    "\u2581\ub97c\uc704\ud55c": 4032,
    "\ub204": 4033,
    "\u2581China": 4034,
    "\u2581Each": 4035,
    "\u2581enemy": 4036,
    "\u2581observed": 4037,
    "\u2581sky": 4038,
    "\u2581England": 4039,
    "\ud68c\uc0ac": 4040,
    "\uace0\ub09c": 4041,
    "\u2581challenge": 4042,
    "\u2581\ub108\uc758": 4043,
    "\u2581\uc800\ud76c\ub294": 4044,
    "\u2581\ub9e4\uc77c": 4045,
    "\u2581popular": 4046,
    "\u2581progress": 4047,
    "\u2581\ubab8": 4048,
    "\uc778\uac00": 4049,
    "\u2581\ub0b4\uc77c": 4050,
    "\u2581plants": 4051,
    "\u2581\uc21c": 4052,
    "\u2581\uc790\ub97c": 4053,
    "\u2581Ask": 4054,
    "\ubc1c\uc0dd": 4055,
    "\u2581\uc5f0": 4056,
    "\ubcd1\uc6d0": 4057,
    "\u2581kinds": 4058,
    "\u2581cool": 4059,
    "\u258123.": 4060,
    "\ub418\uc5c8\uc2b5\ub2c8\ub2e4": 4061,
    "\uc694\uc778": 4062,
    "\u2581\ub098\uc05c": 4063,
    "\uc2ec\uc9c0\uc5b4": 4064,
    "9": 4065,
    "\u2581dark": 4066,
    "\u2581\uc744\ud3ec\ud568": 4067,
    "\u2581blue": 4068,
    "\u2581protection": 4069,
    "\u2581\uc4f0": 4070,
    "\u2581\ubc15\uc0ac": 4071,
    "\ub2e8\uc5b4": 4072,
    "\uc5b8": 4073,
    "\u2581studies": 4074,
    "\ub294\uc0ac\uc2e4": 4075,
    "\u2581chosen": 4076,
    "\u2581exist": 4077,
    "\u2581\ud615": 4078,
    "\uae30\uad00": 4079,
    "um": 4080,
    "\u2581appropriate": 4081,
    "\u2581note": 4082,
    "\uaca0\uc9c0\ub9cc": 4083,
    "\u2581Tower": 4084,
    "\u2581attend": 4085,
    "\u2581doctors": 4086,
    "\u2581seed": 4087,
    "\ub80c": 4088,
    "\uc0c1\ub2f9": 4089,
    "\u2581drinking": 4090,
    "\u2581\uc815\ub9d0\ub85c": 4091,
    "\uc73c\ub9ac\ub77c": 4092,
    "ary": 4093,
    "\u2581Nevertheless": 4094,
    "\u2581Scriptural": 4095,
    "\u2581wild": 4096,
    "\u2581\uc744\uc54c": 4097,
    "\u2581\ucabd": 4098,
    "\u2581window": 4099,
    "\uae30\uaebc\uc774": 4100,
    "\uc788\uc5b4": 4101,
    "\uc778\uc2dd": 4102,
    "\uace0\ub824": 4103,
    "\ubc1b": 4104,
    "\u2581\uc778\ub958": 4105,
    "\u2581\uc368": 4106,
    "\u2581Children": 4107,
    "\u2581international": 4108,
    "\u2581recorded": 4109,
    "\u2581skin": 4110,
    "\u2581\uae4c\uc9c0\ub3c4": 4111,
    "\u2581rain": 4112,
    "\uc601\ud63c": 4113,
    "\u2581\ubcf4\ub294": 4114,
    "\u2581University": 4115,
    "\u2581\ubc29\uae08": 4116,
    "\u2581leading": 4117,
    "like": 4118,
    "\u2581\ub3c4\uc2dc": 4119,
    "\ub294\uc774\uc720": 4120,
    "\u2581\uc544\ub798": 4121,
    "\ub2e8\uc21c": 4122,
    "\u2581damage": 4123,
    "\u2581\ub418\uae30": 4124,
    "\ud569": 4125,
    "\u2581\ub9cc\ub4dc\ub294": 4126,
    "\uc57c\ud55c\ub2e4": 4127,
    "+": 4128,
    "\u2581\uc740\uc131\uc11c": 4129,
    "\u2581\uc774\ub354": 4130,
    "\ub2f5": 4131,
    "\u2581\ub300\uc2e0": 4132,
    "\u2581\uc2dd": 4133,
    "\u2581commanded": 4134,
    "\u2581\uadf8\ub2e4\uc74c": 4135,
    "\u2581\ubb50\ub77c\uace0": 4136,
    "\u2581lay": 4137,
    "\u2581\uc788\ub178\ub77c": 4138,
    "\uc7a5\uce58": 4139,
    "\uc9d1\ub2c8\ub2e4": 4140,
    "\u2581\uc7a1": 4141,
    "\uba85\ubc31": 4142,
    "\u2581Others": 4143,
    "\u2581\ub3c4\uadf8": 4144,
    "\u2581\ub294\ub098": 4145,
    "\u2581rise": 4146,
    "\u2581thanks": 4147,
    "\u2581\uc774\ub54c": 4148,
    "\u2581\uc774\uc694": 4149,
    "\ucabd": 4150,
    "\u2581pre": 4151,
    "\u2581series": 4152,
    "\ub9ac\ub2c8": 4153,
    "\u2581display": 4154,
    "\u2581\ud1a0": 4155,
    "\ubbc0\ub85c": 4156,
    "\u2581\ud558\uc5ec\uae08": 4157,
    ".\u201d": 4158,
    "\u2581design": 4159,
    "for": 4160,
    "\u2581copy": 4161,
    "\u2581increased": 4162,
    "\u2581\uc544\uae30": 4163,
    "\u2581effects": 4164,
    "\u2581\uc758\uc544\ubc84\uc9c0": 4165,
    "\u2581\ub144\uc804": 4166,
    "\ud2c0": 4167,
    "\u2581divided": 4168,
    "ty": 4169,
    "\u2581\ub178\uc544": 4170,
    "\u2581discovered": 4171,
    "\uc555\ub825": 4172,
    "\u2581\uc77c\ub2e8": 4173,
    "\u2581North": 4174,
    "\u2581turns": 4175,
    "\ube44\ub86f": 4176,
    "\u2581Paradise": 4177,
    "\u2581mountains": 4178,
    "\u2581\ubbff\uc9c0": 4179,
    "\ud560\ub54c": 4180,
    "\u2581\uba54\uc2dc\uc9c0": 4181,
    "\u2581escape": 4182,
    "\u2581\ud6e8\uc52c": 4183,
    "\u2581Nothing": 4184,
    "\u2581\ud589\ub3d9": 4185,
    "\u2581acts": 4186,
    "\ub978": 4187,
    "\u2581careful": 4188,
    "\u2581cry": 4189,
    "\uc9c0\uc54a\uc558\ub2e4": 4190,
    "\u2581\uc4f8": 4191,
    "\u2581\uc548\ub155\ud558\uc138\uc694": 4192,
    "\ud2b9\uc131": 4193,
    "\u2581battle": 4194,
    "\u2581reality": 4195,
    "\u2581\uc788\uc73c\uba74": 4196,
    "\u2581\ubbff\uc74c\uc744": 4197,
    "\u2581error": 4198,
    "\u2581train": 4199,
    "\uacbd\uac74": 4200,
    "\u2581dollars": 4201,
    "\u2581practical": 4202,
    "\u2581\uc5d0\ub108\uc9c0": 4203,
    "\u2581fail": 4204,
    "\u2581lies": 4205,
    "\u2581emotional": 4206,
    "\u2581\ub2e4\ub2c8\uc5d8": 4207,
    "\u2581\ubd88\ub7ec": 4208,
    "\u2581British": 4209,
    "\u2581\ucef4\ud4e8\ud130": 4210,
    "men": 4211,
    "\u2581patients": 4212,
    "\uaca0\ub2e4\uace0": 4213,
    "\u2581\ucd94\uac00": 4214,
    "\u2581national": 4215,
    "\u2581raise": 4216,
    "\u2581\uc0ac\ub78c\uc758": 4217,
    "\uc6d0\uce59": 4218,
    "\u2581factor": 4219,
    "\u2581\uc5c6\ub2e4": 4220,
    "\u2581broken": 4221,
    "\u2581churches": 4222,
    "\u2581solution": 4223,
    "\u2581\uc0ac\uc6a9\uc790": 4224,
    "\u2581d": 4225,
    "ma": 4226,
    "\u2581sitting": 4227,
    "\u2581\uacfc\uc758": 4228,
    "\uc2ec\ud310": 4229,
    "\u2581closer": 4230,
    "\u2581decisions": 4231,
    "\u2581notes": 4232,
    "\u2581base": 4233,
    "\u2581affect": 4234,
    "\u2581\ub780": 4235,
    "\u2581tribulation": 4236,
    "\u2581\uc55e\uc5d0\uc11c": 4237,
    "\u2581invited": 4238,
    "\u2581godly": 4239,
    "\u2581Messiah": 4240,
    "\uc77c\ubc18\uc801": 4241,
    "\u2581\uc0ac\ub294": 4242,
    "\uc778\uc0dd": 4243,
    "\u2581forces": 4244,
    "\u2581ship": 4245,
    "\u2581\uac00\uc5ec\ud638\uc640": 4246,
    "\u2581convention": 4247,
    "\u2581\ud560\ub9cc\ud55c": 4248,
    "\u2581placed": 4249,
    "\u2581privilege": 4250,
    "\uc774\ub7f0": 4251,
    "\u2581bringing": 4252,
    "\u2581mass": 4253,
    "op": 4254,
    "\u2581desires": 4255,
    "\uc2ed": 4256,
    "if": 4257,
    "\u2581Love": 4258,
    "\u2581declared": 4259,
    "\u2581event": 4260,
    "\uc18c\uc2dd": 4261,
    "\u2581connection": 4262,
    "\u2581\ud558\uc2ec": 4263,
    "\u2581current": 4264,
    "\u2581\uc640\ube44\uc2b7": 4265,
    "\uaf43": 4266,
    "\u2581notice": 4267,
    "ted": 4268,
    "\u2581\uc758\uc9c1\ubb34": 4269,
    "\u2581handle": 4270,
    "\u2581baptism": 4271,
    "\u2581\uc601": 4272,
    "\ub4ef": 4273,
    "\uc774\ubbf8": 4274,
    "50": 4275,
    "\u2581\uba85\ub839": 4276,
    "\ub294\uc790": 4277,
    "\ube44\uc2b7": 4278,
    "\u2581\ud574\ubcf4": 4279,
    "\ub77c\uba74": 4280,
    "\ub9ac\uc544": 4281,
    "\u2581Help": 4282,
    "\u2581\ud558\uc2dc\uace0": 4283,
    "\u2581survive": 4284,
    "\u2581tomorrow": 4285,
    "\u2581forgive": 4286,
    "\u2581\uc740\uadf8\ubd84": 4287,
    "\u2581\ub97c\uc2dc\uc791": 4288,
    "\u2581\ubc31": 4289,
    "\u2581somebody": 4290,
    "\u2581\uc7a5\ub85c": 4291,
    "\uc5b4\ub514": 4292,
    "\uc5f4\ub9e4": 4293,
    "\u2581\ud5c8": 4294,
    "\u2581accurate": 4295,
    "\u2581La": 4296,
    "\u2581twenty": 4297,
    "\u2581\uac00\ud1a8\ub9ad": 4298,
    "\u2581\ud55c\ubc14": 4299,
    "\uc9c1\uc5c5": 4300,
    "\ud06c\uac8c": 4301,
    "\u2581manner": 4302,
    "\u2581\ub9d0\uc500\uc774": 4303,
    "\u2581\ud3c9\ud654": 4304,
    "\u2581\uaed8\uc11c\ub294\uc790\uc2e0": 4305,
    "\u2581\uc744\ub2f9\ud558": 4306,
    "\u2581\uc815\ubd80": 4307,
    "\ub2e4\uc717": 4308,
    "\u2581\uc9c8\ubb38": 4309,
    "\uc21c\uc885": 4310,
    "\u2581personality": 4311,
    "\u2581\uc774\uc57c\uae30\ub97c": 4312,
    "\u2581interests": 4313,
    "\u2581steps": 4314,
    "\u2581\ub294\ub610\ud55c": 4315,
    "\u2581\ub9d0\uc785\ub2c8\ub2e4": 4316,
    "\u2581values": 4317,
    "\u2581\uc9c8": 4318,
    "\u2581precious": 4319,
    "\u2581\ubc8c\uc744": 4320,
    "\uac12": 4321,
    "\uba39": 4322,
    "\ubcf5\uc885": 4323,
    "\u2581degrees": 4324,
    "\uc9c0\uc6d0": 4325,
    "\ud56d": 4326,
    "\u2581expressed": 4327,
    "\u2581regularly": 4328,
    "\uaca0\uc5b4\uc694": 4329,
    "\u2581fathers": 4330,
    "\u2581equation": 4331,
    "\u2581harm": 4332,
    "\uba3c\uc800": 4333,
    "we": 4334,
    "\u2581join": 4335,
    "\u2581wealth": 4336,
    "\uc5b5": 4337,
    "\ud5e4": 4338,
    "\u2581angel": 4339,
    "\u2581\ubcf4\ub2e4\ub294": 4340,
    "\u2581\uccad\uc18c\ub144": 4341,
    "\uac74\ucd95": 4342,
    "\uacb0\ucf54": 4343,
    "\u2581Moreover": 4344,
    "\u2581dog": 4345,
    "\ud0c8": 4346,
    "\u2581\ub54c\ub54c\ub85c": 4347,
    "\u2581warm": 4348,
    "\u2581\ub298": 4349,
    "\u2581stopped": 4350,
    "\uc758\ubb38": 4351,
    "\ud558\uc138\uc694": 4352,
    "\u2581\ub514": 4353,
    "\uc73c\uc2dc": 4354,
    "\u2581\uc740\ubaa8\ub450": 4355,
    "\u2581\uc758\uc81c\uc790": 4356,
    "\u2581\ub4e3\uace0": 4357,
    "\u2581\uc911\uad6d": 4358,
    "\ub9db": 4359,
    "\ube14": 4360,
    "\u2581\ud589\ubcf5": 4361,
    "\u2581prevent": 4362,
    "\u2581\ub97c\uc5bb": 4363,
    "\u2581\uc2ec\ud310": 4364,
    "\u2581\uc774\ubd10": 4365,
    "\uba87\uac00\uc9c0": 4366,
    "\ud558\uc600\uc2b5\ub2c8\uae4c": 4367,
    "\u2581blessed": 4368,
    "\u2581\uc744\ucc3e": 4369,
    "\uc131\uc804": 4370,
    "\u2581High": 4371,
    "\u2581song": 4372,
    "\u2581bodies": 4373,
    "\u2581\ud55c\uc810": 4374,
    "\ud0dc": 4375,
    "\ud588\uc8e0": 4376,
    "\u2581\ub4a4\uc5d0": 4377,
    "\ud754\ud788": 4378,
    "\u2581Sometimes": 4379,
    "\u2581floor": 4380,
    "\u2581\uc6b0\uc120": 4381,
    "\u2581mate": 4382,
    "\uc80a\uc740\uc774": 4383,
    "\u2581\uacb0\ucf54": 4384,
    "\u2581male": 4385,
    "\u2581\ub85c\uadf8": 4386,
    "\u2581\ud560\uc218\uc788\uc2b5\ub2c8\uae4c": 4387,
    "\u2581Rome": 4388,
    "\u2581below": 4389,
    "\u2581\ub4dc": 4390,
    "\uc790\uccb4": 4391,
    "\u2581respond": 4392,
    "\u2581\uc548\uc804": 4393,
    "\u2581street": 4394,
    "\u2581\ub54c\uae4c\uc9c0": 4395,
    "\u2581\ub9de": 4396,
    "\uac00\ub2a5": 4397,
    "\ubb3c\uac74": 4398,
    "\u00b7": 4399,
    "\u2581\ubcf4\ud1b5": 4400,
    "\u2581Saul": 4401,
    "\u2581speed": 4402,
    "\u2581\uad6d\uac00": 4403,
    "\ud48d\ubd80": 4404,
    "\u2581\uc744\uc785": 4405,
    "\ub2e8\uacc4": 4406,
    "\ud55c\uac83": 4407,
    "\u2018": 4408,
    "\u2581\uc800\uc758": 4409,
    "\uc2dd\ud488": 4410,
    "\uc5ec\ud638\uc640\ud558\ub098\ub2d8": 4411,
    "\u2581@": 4412,
    "\ub354\ub9ce\uc740": 4413,
    "\u258113,": 4414,
    "\u2581\uc73c\ub85c\uadf8": 4415,
    "\u2581charge": 4416,
    "\u2581glad": 4417,
    "\u2581\ubc29\ubc95\uc744": 4418,
    "\ube44\uc6a9": 4419,
    "\u2581\ud604\ub300": 4420,
    "\u2581teachings": 4421,
    "\u2581Listen": 4422,
    "\u2581Y": 4423,
    "\uad00\uc2b5": 4424,
    "\uad8c\uace0": 4425,
    "\ubbf8\ub798": 4426,
    "\uc27d\uac8c": 4427,
    "\uc791\uc6a9": 4428,
    "\u2581dedicated": 4429,
    "\u2581\uacfc\uac70": 4430,
    "\u2581village": 4431,
    "\u2581merely": 4432,
    "\u2581\uc624\uc9c1": 4433,
    "\u2581\uac83\uc774\uc8e0": 4434,
    "\u2581\uce7c": 4435,
    "\uc5c8\uae30\ub54c\ubb38": 4436,
    "\ucd08\ub300": 4437,
    "\ucd5c\uadfc": 4438,
    "\u258122.": 4439,
    "\u2581African": 4440,
    "\u2581\uc744\ub354": 4441,
    "\uc18c\ub140": 4442,
    "\u2581watching": 4443,
    "\u2581\uc0dd\uac01\ud569\ub2c8\ub2e4": 4444,
    "\u2581teachers": 4445,
    "\ubaa8\uc591": 4446,
    "\u2581cast": 4447,
    "\uc131\uad6c": 4448,
    "\u2581\uac10\uc0ac": 4449,
    "\uc608\uc5b8\uc790": 4450,
    "\u2581paid": 4451,
    "\u2581Make": 4452,
    "\u2581express": 4453,
    "\u2581literature": 4454,
    "\u2581\ubc29\ubc95\uc774": 4455,
    "\u2581fulfilled": 4456,
    "\u2581forms": 4457,
    "\uae30\uc801": 4458,
    "\ubc84\ub9ac": 4459,
    "\u2581\uc744\ub4e4": 4460,
    "\u2581continues": 4461,
    "\u2581\ub294\ub0b4": 4462,
    "\u2581\ubcf4\uc138\uc694": 4463,
    "\u2581:": 4464,
    "\u2581\uc5b4\uca4c\uba74": 4465,
    "\u2581\uc788\uc5c8\uc5b4\uc694": 4466,
    "Comment": 4467,
    "\u2581discipline": 4468,
    "\uace1": 4469,
    "\ub0b4\uac8c": 4470,
    "\u2581\uadf8\ub300\ub85c": 4471,
    "\uc9c0\uc54a\uc2b5\ub2c8\ub2e4": 4472,
    "\uc37c\uc2b5\ub2c8\ub2e4": 4473,
    "\uc73c\ub098": 4474,
    "\u2581\uc758\ubcf8": 4475,
    "\uc2e0\uc138": 4476,
    "\u2581successful": 4477,
    "\u2581\ubd84\uc774": 4478,
    "\uc544\ub984\ub2e4\uc6b4": 4479,
    "\uc774\ub791": 4480,
    "\u2581enjoyed": 4481,
    "\u2581remove": 4482,
    "\u2581provides": 4483,
    "\u2581loyal": 4484,
    "\u2581nuclear": 4485,
    "\ub2e4\uace0\uc0dd\uac01": 4486,
    "\u2581busy": 4487,
    "\u2581\uacf3\uc5d0": 4488,
    "\u2581\uc2e4\ud589": 4489,
    "Jehovah": 4490,
    "\u2581\ub418\uc9c0": 4491,
    "\ub85c\ub9c8": 4492,
    "\u2581lower": 4493,
    "\u2581ransom": 4494,
    "\u2581\uc120\uc744": 4495,
    "\ud2b9\uc815": 4496,
    "\u2581\uadf8\ub300\uc5d0\uac8c": 4497,
    "\u2581actions": 4498,
    "\u2581\ud589\ud558\ub294": 4499,
    "\ub4e4\uc5d0": 4500,
    "\u2581\uacfc\ud559": 4501,
    "\uc218\uc788\uc2b5\ub2c8\ub2e4": 4502,
    "out": 4503,
    "se": 4504,
    "\u2581Other": 4505,
    "\u2581\uc740\uadf8\ub7ec\ud55c": 4506,
    "\u258124.": 4507,
    "\uad00\ub828": 4508,
    "\u2581solve": 4509,
    "\u2581\ub108\ud76c\uc758": 4510,
    "\u2581\uc5d0\uc5ec\ud638\uc640": 4511,
    "\u2581\uc81c\uacf1": 4512,
    "\u2581\uc740\ub2f9\uc2e0": 4513,
    "\u2581abuse": 4514,
    "\u2581\uacbd\ucc30": 4515,
    "\u2581\ub3d9\ubb3c": 4516,
    "\uc885\uad50\uc801": 4517,
    "\u2581writer": 4518,
    "\u2581\uacf5\uaca9": 4519,
    "\ub73b": 4520,
    "\ud558\ub8e8": 4521,
    "\u2581Lo": 4522,
    "\u2581\ub3c4\uc6c0\uc774": 4523,
    "\uc774\uae30": 4524,
    "\ud68c\uac1c": 4525,
    "\u2581\ud55c\ubb38\uc81c": 4526,
    "\u2581island": 4527,
    "\u2581market": 4528,
    "\u2581\uc608\ub808\ubbf8\uc57c": 4529,
    "\ub984": 4530,
    "ized": 4531,
    "\u2581London": 4532,
    "\u2581guard": 4533,
    "\u2581\ubcf4\uc9c0": 4534,
    "\u2581\uc6a5": 4535,
    "\u2581\uc815\uc2e0": 4536,
    "\u2581pure": 4537,
    "\uc84c\ub2e4": 4538,
    "\uc5bc\ub9c8\ub098": 4539,
    "\uc2e0\ubb38": 4540,
    "\uc720\ud639": 4541,
    "\u2581\ud55c\ud6c4": 4542,
    "\uc9d3": 4543,
    "\u2581apart": 4544,
    "\u2581w": 4545,
    "\u2581impossible": 4546,
    "\ub355\ubd84": 4547,
    "\u2581Christianity": 4548,
    "\ub450\uac00\uc9c0": 4549,
    "\ub450\ub824\uc6c0": 4550,
    "0": 4551,
    "\u2581\uc5ec\ud589": 4552,
    "\u2581\uc774\ub418\uc5c8\ub2e4": 4553,
    "\ud558\ub2e4": 4554,
    "\u2581\uc77c\uc5d0": 4555,
    "\ubc14\ub85c": 4556,
    "\u2581preach": 4557,
    "\u2581Soon": 4558,
    "\u2581expected": 4559,
    "\u2581\ud558\uc9c0\ub9cc\uadf8": 4560,
    "\u2581unique": 4561,
    "\ub2f4\ubc30": 4562,
    "\ubc1b\uc740": 4563,
    "\uc694\uad6c": 4564,
    "\u2581leaves": 4565,
    "\u2581\ub418\ub9ac\ub77c": 4566,
    "\u2581\ub808": 4567,
    "\u2581neighbor": 4568,
    "\u2581suffered": 4569,
    "\ub180\ub77c\uc6b4": 4570,
    "\u2581systems": 4571,
    "\u2581waters": 4572,
    "\uc9c0\uc54a\ub294": 4573,
    "\u2581pattern": 4574,
    "\ub098\uc774\ub2e4": 4575,
    "\uc791\uc5c5": 4576,
    "\ucc38\uc870": 4577,
    "\u2581\uc774\uacf3": 4578,
    "\uc218\ub2e8": 4579,
    "ance": 4580,
    "\u2581Eve": 4581,
    "\u2581\uac1c\uc758": 4582,
    "\uc600\uc5b4\uc694": 4583,
    "\u25811970": 4584,
    "\u2581\uc788\uc73c\uba70": 4585,
    "tic": 4586,
    "\u2581\uc744\ud655\uc2e0": 4587,
    "\u2581aren": 4588,
    "\u2581\uae38\uc774": 4589,
    "\u258117:": 4590,
    "\u2581\uc758\ub208": 4591,
    "\u2581\uc774\ub429\ub2c8\ub2e4": 4592,
    "\u2581rules": 4593,
    "\u2581\ub204\uad70\uac00": 4594,
    "\u2581lines": 4595,
    "\u2581II": 4596,
    "\uadf8\ub9ac\uc2a4\ub3c4\uad50\uad6d": 4597,
    "\uc758\uc2ec": 4598,
    "\u2581\uc740\ub098": 4599,
    "\uac00\ub2a5\uc131": 4600,
    "\ub839": 4601,
    "\u2581\uc774\uc0ac\ub78c": 4602,
    "ful": 4603,
    "\u2581Ah": 4604,
    "\u2581store": 4605,
    "\uc2ac": 4606,
    "\u2581fighting": 4607,
    "\u2581\ub9d0\uc57c": 4608,
    "\u2581\uc744\ub9d0": 4609,
    "\u2581Al": 4610,
    "\u2581\ub2c8\uac00": 4611,
    "\u2581caught": 4612,
    "\u2581\ub9c8\ub9ac\uc544": 4613,
    "\uc815\ub9d0": 4614,
    "\u2581conversation": 4615,
    "\u2581\ub354\ud558\uae30": 4616,
    "\u2581\uc2dc\ud5d8": 4617,
    "\u2581\ud558\uc9c0\uc54a\uace0": 4618,
    "\u2581sacred": 4619,
    "\u2581stress": 4620,
    "\u2581\uc55e\uc73c\ub85c": 4621,
    "\u2581student": 4622,
    "\u2581\ub300\ub2f5": 4623,
    "\u2581\uc0ac\ub3c4\ubc14\uc6b8": 4624,
    "\uc158": 4625,
    "\ud558\ub358": 4626,
    "\u2581AND": 4627,
    "\u2581\uc744\ubc29\ubb38": 4628,
    "\u2581heat": 4629,
    "\ub2f9\uc2dc": 4630,
    "\u2581Never": 4631,
    "\u2581focus": 4632,
    "\u2581\uc5c6\uace0": 4633,
    "\ud6a8\uacfc": 4634,
    "ig": 4635,
    "\u2581\ucc3d\uc870": 4636,
    "\u2581rock": 4637,
    "\u2581\uc0dd\uac01\ud558\ub294": 4638,
    "\u2581\uc774\ud558\ub290\ub2d8": 4639,
    "\ub9c8\uc57d": 4640,
    "os": 4641,
    "\u2581\uc774\uc790": 4642,
    "\u2581principle": 4643,
    "\u2581till": 4644,
    "\u2581\uac83\uc774\ub2e4": 4645,
    "\ud658": 4646,
    "\u2581terrible": 4647,
    "\u2581travel": 4648,
    "\u2581\ub54c\ub294": 4649,
    "\u2581\uc874": 4650,
    "\uc6a9\uc11c": 4651,
    "\u2581\uba4b\uc9c4": 4652,
    "\u2581belief": 4653,
    "\u2581development": 4654,
    "\ubcf4\uc874": 4655,
    "\u2581\ud55c\ubc29\ubc95": 4656,
    "\u2581\ud55c\ud3b8": 4657,
    "\ub9c8\uc744": 4658,
    "\u2581\ub178\ub825": 4659,
    "\u2581\uc5d0\ubca0\uc18c": 4660,
    "\uac74\uc804": 4661,
    "\u2581darkness": 4662,
    "\u2581\uc74c\uc545": 4663,
    "\u2581\uc774\ub418\uc5b4": 4664,
    "\u2581designed": 4665,
    "\u2581integrity": 4666,
    "\u2581moon": 4667,
    "\u2581\uc788\uc5c8": 4668,
    "\u2581\ud558\uc9c0\uc54a": 4669,
    "\ud604\ub300": 4670,
    "\u2581\uc744\uc783": 4671,
    "\uc0c1\uc2e4": 4672,
    "\u2581deliver": 4673,
    "\u2581severe": 4674,
    "\u2581\uac11\uc790\uae30": 4675,
    "\u2581\uc0ac\uc774\uc5d0": 4676,
    "vi": 4677,
    "\u2581suddenly": 4678,
    "\u2581\ub098\ub77c": 4679,
    "\u2581\ub192\uc740": 4680,
    "\u2581\uc788\ub3c4\ub85d": 4681,
    "\u2581\uad8c": 4682,
    "\u2581\uc5ec\uc804\ud788": 4683,
    "\u2581\ub108\ub3c4": 4684,
    "ant": 4685,
    "\u2581conclusion": 4686,
    "\uc804\ubb38\uac00": 4687,
    "\u2581talked": 4688,
    "\uadf9": 4689,
    "\ub354\ub77c\ub3c4": 4690,
    "\ubc30\uc6b0\uc790": 4691,
    "\ud588\ub294\ub370": 4692,
    "\u2581\ud56d": 4693,
    "\uacfc\ud559": 4694,
    "\u2581\uac00\uae4c\uc774": 4695,
    "\u2581\uc5ec\uae34": 4696,
    "\ubc15\uc0ac": 4697,
    "\ud3d0": 4698,
    "\u2581statement": 4699,
    "\uc7a1": 4700,
    "17:": 4701,
    "\ub3d9\uc758": 4702,
    "\u2581slow": 4703,
    "\u2581\ubaa8\ub450\uac00": 4704,
    "\u2581\ud558\ub824\uba74": 4705,
    "\u2581authorities": 4706,
    "\u2581correct": 4707,
    "\u2581\uc774\ub418\uc5c8\uc2b5\ub2c8\ub2e4": 4708,
    "\uc654\uc2b5\ub2c8\ub2e4": 4709,
    "\u2581occur": 4710,
    "\u2581Cor": 4711,
    "\u2581grew": 4712,
    "\uc218\uc788\ub2e4": 4713,
    "\uc720\uc77c": 4714,
    "\u2581\uc655\uc774": 4715,
    "\ub098\uac00": 4716,
    "\ubd80\uc871": 4717,
    "\u2581KDE": 4718,
    "\u2581win": 4719,
    "\uc81c\ud55c": 4720,
    "\uc138\ub300": 4721,
    "\u2581importance": 4722,
    "\u2581\ud588": 4723,
    "ated": 4724,
    "ating": 4725,
    "\u2581\uc758\uc544\ub0b4": 4726,
    "\uc2dd\uc0ac": 4727,
    "\u258123:": 4728,
    "\u2581\ub418\uac8c": 4729,
    "\uc0ac\ud0c4": 4730,
    "\u2581\uc774\ub41c\ub2e4": 4731,
    "con": 4732,
    "\u2581\uae30\uc6d0": 4733,
    "\u2581\ub2e4\ub4e4": 4734,
    "ce": 4735,
    "\u2581\uc5d0\uc11c\ub098": 4736,
    "\ub3c5\uc77c": 4737,
    "\ubb34\uae30": 4738,
    "\u2581\ub97c\uc720\uc9c0": 4739,
    "\u2581\ub418\uace0\uc788\ub2e4": 4740,
    "\u2581City": 4741,
    "\u2581\uc218\ub294": 4742,
    "\u2581seriously": 4743,
    "\u2581\uc758\ub0a0": 4744,
    "\u2581\uc9c4\ud589": 4745,
    "\u2581\ubc94\uc8c4": 4746,
    "son": 4747,
    "\u2581specific": 4748,
    "\u2581\ud558\ub824": 4749,
    "\u2581\ud558\uc2e0\uac83": 4750,
    "\ub2e4\ub294\uc0ac\uc2e4": 4751,
    "\u2581\uaf64": 4752,
    "\u2581\ud558\uc2ed\ub2c8\ub2e4": 4753,
    "\uc6c0\uc9c1": 4754,
    "\u2581\uac83\ub4e4\uc774": 4755,
    "\uc640\uc11c": 4756,
    "\u2581appears": 4757,
    "\ucfe0": 4758,
    "\u2581listening": 4759,
    "\u2581\uc9d3": 4760,
    "\ubcbd": 4761,
    "\u2581\uac83\ub4e4\uc744": 4762,
    "\u2581\ubaa9": 4763,
    "\uac70\uc9d3": 4764,
    "\u2581product": 4765,
    "\u2581welcome": 4766,
    "\u2581\uaed8\uc11c\uadf8": 4767,
    "\ub2c8\uae4c\uc694": 4768,
    "\u2581sounds": 4769,
    "\u2581\uc545": 4770,
    "\ud655\uc778": 4771,
    "\u2581\uacc4\uc0b0": 4772,
    "ite": 4773,
    "\u2581machine": 4774,
    "\u2581\uc0ac\ud68c": 4775,
    "\uc544\ubb34\uac83": 4776,
    "\ube44\ub09c": 4777,
    "\u2581deeply": 4778,
    "\u2581lying": 4779,
    "\u2581stood": 4780,
    "\u2581\ubfd0": 4781,
    "Other": 4782,
    "\u2581\uc5ed\uc0ac": 4783,
    "\u2581\uc788\ub358": 4784,
    "\u2581\uc758\uc2ec": 4785,
    "\uc73c\uc2e0": 4786,
    "\u2581\uc790\uc5f0": 4787,
    "\u2581supply": 4788,
    "\u2581\uac70\ub9ac": 4789,
    "\uc9c1\uc7a5": 4790,
    "\u2581\uac8c\ub2e4\uac00": 4791,
    "\ub290\ub0d0": 4792,
    "\uc788\uc2b5\ub2c8\ub2e4": 4793,
    "\uc788\uc744": 4794,
    "J": 4795,
    "\u2581\ub294\uc0ac\ub78c": 4796,
    "\ucc98\uc74c": 4797,
    "\u2581Australia": 4798,
    "\u2581fill": 4799,
    "\u2581literally": 4800,
    "\u2581stars": 4801,
    "\uc5b4\ub290\uc815\ub3c4": 4802,
    "\u2581\uc740\uc5b4\ub5a4": 4803,
    "My": 4804,
    "\u2581heads": 4805,
    "\u2581minds": 4806,
    "\ud558\uc2ed\uc2dc\uc624": 4807,
    "\ubb34\uc2a8\uc77c": 4808,
    "\uc788\uac8c": 4809,
    "\uc5c6": 4810,
    "\u2581feed": 4811,
    "\u2581stone": 4812,
    "\uac8c\uc694": 4813,
    "\u2581manifest": 4814,
    "\u2581\uac00\ub2a5": 4815,
    "\u2581\uce58\ub8cc": 4816,
    "\u2581West": 4817,
    "\u2581issues": 4818,
    "\ub428": 4819,
    "\u2581\ubc95": 4820,
    "\u2581\uc0ac\uc6a9\ud560": 4821,
    "\u2581\uc5c6\uc74c": 4822,
    "\ubcf4\uc774": 4823,
    "\uc0ac\uc81c": 4824,
    "\u2581\uacf3": 4825,
    "\u2581victims": 4826,
    "\u2581\ucc44": 4827,
    "\u2581limited": 4828,
    "\u2581\uc5b4\ub54c": 4829,
    "\u2581\uc601\uc801": 4830,
    "\u2581\uc774\ub2c8\ub77c": 4831,
    "\u258119,": 4832,
    "\u2581\uc8fc\ub294": 4833,
    "\uaca0\ub2e4": 4834,
    "\u2581object": 4835,
    "\u2581tonight": 4836,
    "\u2581\ub9c8\ub9ac": 4837,
    "\u2581larger": 4838,
    "\u2581\uc5d0\uae30\ub85d": 4839,
    "20": 4840,
    "\u2581response": 4841,
    "by": 4842,
    "\u2581constant": 4843,
    "\u2581\uad50": 4844,
    "\u2581\uc0ac\ub78c\ub4e4\uc5d0\uac8c": 4845,
    "10": 4846,
    "\u2581treat": 4847,
    "\u2581\ubc14\ubca8\ub860": 4848,
    "\ub193\uace0": 4849,
    "\u2581School": 4850,
    "\u2581access": 4851,
    "\u2581elder": 4852,
    "\u2581houses": 4853,
    "\uc84c\uc2b5\ub2c8\ub2e4": 4854,
    "\u258137": 4855,
    "\uc2dc\ub828": 4856,
    "ta": 4857,
    "\u2581\uc744\ubc1b\uc558\ub2e4": 4858,
    "\uc288": 4859,
    "\u2581legal": 4860,
    "\u2581\uc9c4\uc2e4": 4861,
    "\u2581direct": 4862,
    "\uac11": 4863,
    "\uc558\uc2b5\ub2c8\ub2e4": 4864,
    "\u2581Pharaoh": 4865,
    "\u2581tongue": 4866,
    "\u2581\uc774\uc9c0\ub9cc": 4867,
    "\u2581\uc9c0\uc5ed": 4868,
    "\uc2e0\ubd84": 4869,
    "\u2581\uac00\uc544\ub2c8\ub77c": 4870,
    "\u2581complex": 4871,
    "\u2581experiences": 4872,
    "\u2581Organiser": 4873,
    "\u2581l": 4874,
    "\u2581\uba39": 4875,
    "\u2581\uc190\uc744": 4876,
    "\uc62c\ubc14\ub978": 4877,
    "\u2581Among": 4878,
    "\u2581\ubc84": 4879,
    "\uc77d": 4880,
    "\uc5c5": 4881,
    "\u2581directly": 4882,
    "ca": 4883,
    "ga": 4884,
    "ut": 4885,
    "\u2581\uc548\uc5d0\uc11c": 4886,
    "\u2581dealing": 4887,
    "\u2581sword": 4888,
    "\u2581encouraged": 4889,
    "\u2581household": 4890,
    "\ub4dc\ub9ac": 4891,
    "\u2581affected": 4892,
    "\u2581\uc740\ud61c\ub97c": 4893,
    "\u2581\ud798": 4894,
    "\u2581covered": 4895,
    "\u2581\uba40\ub9ac": 4896,
    "\u2581\uc790\ub4e4\uc744": 4897,
    "\u2581\ud06c": 4898,
    "\u2581north": 4899,
    "\u2581\ud558\ub294\uc9c0": 4900,
    "\u2581fit": 4901,
    "\u2581\ub192\uc774": 4902,
    "\u2581\uc5ec\ub7ec\ubd84\uc758": 4903,
    "\u2581factors": 4904,
    "\u2581powers": 4905,
    "\u2581\uc774\uc790\uc2e0": 4906,
    "\uc790\uc5f0": 4907,
    "\u2581\uc758\uc790\ub140": 4908,
    "\u2581camp": 4909,
    "\uc7ac\ub09c": 4910,
    "\u2581honest": 4911,
    "\u2581\uc758\uc190": 4912,
    "\uac70\uc608\uc694": 4913,
    "\ub9ce\uc774": 4914,
    "\u2581Mother": 4915,
    "\u2581unless": 4916,
    "\u2581\uc0ac\uc774": 4917,
    "\uace0\uadf8": 4918,
    "\u2581contrast": 4919,
    "\ubb3c\uc9c8\uc801": 4920,
    "\uc870\uc5b8": 4921,
    "\u2581appeared": 4922,
    "\u2581decide": 4923,
    "\ubc29\ubb38": 4924,
    "\u258165": 4925,
    "\uc720\ub7fd": 4926,
    "\u2581multiply": 4927,
    "\u2581Young": 4928,
    "\u2581\uc744\ubcf4\uba74": 4929,
    "\u2581\uc794": 4930,
    "\uac15\ud55c": 4931,
    "\u2581\uc774\uc820": 4932,
    "\u2581Has": 4933,
    "\u2581National": 4934,
    "\u2581\ub85c\ub294": 4935,
    "\uc704\ud611": 4936,
    "\u2581Canada": 4937,
    "\u2581famous": 4938,
    "\u2581traveling": 4939,
    "Let": 4940,
    "\u2581\uc5d0\uac78\uccd0": 4941,
    "\ucc3d\uc870\uc8fc": 4942,
    "\u2581persecution": 4943,
    "\u2581Nations": 4944,
    "\uc800\ud76c": 4945,
    "\u2581stories": 4946,
    "\u2581Sea": 4947,
    "\u2581\ubcf4\uc774": 4948,
    "\u2581\uc744\ubc1b\uc740": 4949,
    "\u2581remains": 4950,
    "\ud55c\ub2e4\uace0": 4951,
    "per": 4952,
    "\u258138": 4953,
    "\u2581beauty": 4954,
    "\u2581\uae30\uc0ac": 4955,
    "\u2581\ud558\uc600": 4956,
    "\u2581carefully": 4957,
    "\u2581garden": 4958,
    "\u2581\ud06c\uac8c": 4959,
    "\uc120\uad50\uc778": 4960,
    "\u258134": 4961,
    "\u2581cross": 4962,
    "\u258114:": 4963,
    "\u2581psalmist": 4964,
    "\u2581pieces": 4965,
    "\u2581\uc655\uad6d": 4966,
    "\u2581\uc815\ubcf4\ub97c": 4967,
    "\ub0b8": 4968,
    "ED": 4969,
    "\u2581\ucc28\uc138\uacc4\ub300\uc804": 4970,
    "\u2581\uc788\uc9c0\ub9cc": 4971,
    "\u2581\ud588\uace0": 4972,
    "\u2581\uc6b0\uc8fc": 4973,
    "\u2581\uc774\uc788\uc5c8\ub2e4": 4974,
    "\u2581rights": 4975,
    "\u2581\ud639\uc2dc": 4976,
    "\u2581\uc0dd\uac01\uc774": 4977,
    "@": 4978,
    "\u2581devotion": 4979,
    "\u2581encourage": 4980,
    "\u2581\ubc1b\uace0": 4981,
    "\u2581\uc57c\uace0\ubcf4": 4982,
    "\uc790\uaca9": 4983,
    "\u2581Finally": 4984,
    "\u2581\ubbf8\uc548\ud574": 4985,
    "\uc73c\ubbc0\ub85c": 4986,
    "\u2581despite": 4987,
    "\u2581miss": 4988,
    "\u2581\uadf8\ub8f9": 4989,
    "\u2581\uc774\uc77c": 4990,
    "\ud2b9\uad8c": 4991,
    "\u2581mail": 4992,
    "\uc131\uc7a5": 4993,
    "\uc544\ud504\ub9ac\uce74": 4994,
    "\uc790\uc8fc": 4995,
    "\u2581model": 4996,
    "\u2581\ub97c\ud1b5\ud558\uc5ec": 4997,
    "\u2581female": 4998,
    "\u2581\ub098\uc911\uc5d0": 4999,
    "\u2581\ud558\ub354\ub77c": 5000,
    "\u2581\ud76c": 5001,
    "\u2581\uccab\ubc88\uc9f8": 5002,
    "\u2581starting": 5003,
    "\u2581\uc740\ub9d0": 5004,
    "\u2581\uc758\uac00\uc871": 5005,
    "\ubc88\uc5ed": 5006,
    "\u2581ran": 5007,
    "\uac80\ud1a0": 5008,
    "bo": 5009,
    "\u2581flock": 5010,
    "\u2581\uc788\ub098\uc694": 5011,
    "\uae30\uad6c": 5012,
    "\uc11c\uc801": 5013,
    "\u2581behalf": 5014,
    "\u2581\uc5c4\ub9c8\uac00": 5015,
    "ize": 5016,
    "\u2581uses": 5017,
    "\ub79c": 5018,
    "\uc694\uccad": 5019,
    "\u2581\uacfc\uc77c\uce58": 5020,
    "\u2581\ub610\ub2e4\ub978": 5021,
    "\ubcf4\uba74": 5022,
    "\u2581\uadf8\ub7ac": 5023,
    "\u2581\ub098\uc774": 5024,
    "\u2581easier": 5025,
    "\u2581grown": 5026,
    "\uc8fc\uc704": 5027,
    "\u2581\ud558\uac8c\ub420\uac83": 5028,
    "\ub354\uc6b1": 5029,
    "\u2581gathered": 5030,
    "\u2581r": 5031,
    "\u2581\ub410\uc5b4": 5032,
    "\uadf8\ub798": 5033,
    "\u2581river": 5034,
    "\u2581\uc774\uc788\uc2b5\ub2c8\uae4c": 5035,
    "\u2581\uacbd\uace0": 5036,
    "\ub098\uc774": 5037,
    "\ub2ec\ub7ec": 5038,
    "\ud558\uc2e4": 5039,
    "\u2581East": 5040,
    "\u2581feels": 5041,
    "\u2581vast": 5042,
    "\u2581\ubd80\ud0c1": 5043,
    "\u2581\uc774\uc810": 5044,
    "\ud558\uc600\uae30\ub54c\ubb38": 5045,
    "\uc0ac\uc0c1": 5046,
    "\ub9c8\uadc0": 5047,
    "\uc911\ud558\ub098": 5048,
    "\u2581\ub300\ud558\uc5ec": 5049,
    "\uacfc\ud559\uc790": 5050,
    "\u2581divorce": 5051,
    "\u2581\uc790\uc720": 5052,
    "\uc138\uacc4\uc801": 5053,
    "\uc815\ubcf4": 5054,
    "\u2581effective": 5055,
    "\u2581ice": 5056,
    "\u2581master": 5057,
    "\u2581delivered": 5058,
    "\uc5c8\uc9c0\ub9cc": 5059,
    "\u2581\uc804\uc790": 5060,
    "\ubcf4\uae30": 5061,
    "\u2581memory": 5062,
    "\u2581opening": 5063,
    "\u2581Actually": 5064,
    "\u2581property": 5065,
    "\u2581\ucc3d\uc138": 5066,
    "\ud558\uc600": 5067,
    "\u2581television": 5068,
    "\u2581extent": 5069,
    "\u2581scale": 5070,
    "\u2581\ub9c8\ucc2c\uac00\uc9c0": 5071,
    "\u2581\ub9d0\ud558\uace0": 5072,
    "\u2581\ud68c\uc911": 5073,
    "\u258125.": 5074,
    "\u2581potential": 5075,
    "\uc774\uacf3": 5076,
    "\u2581relief": 5077,
    "\uc21c": 5078,
    "\u2581behold": 5079,
    "\u2581\ubb34\uc5c7\uc774": 5080,
    "\u2581advantage": 5081,
    "\u2581entered": 5082,
    "\u2581broke": 5083,
    "\u2581letters": 5084,
    "\u2581wars": 5085,
    "\u2581\uc131\uacf5": 5086,
    "\u2581\uc758\uac83": 5087,
    "\uc790\ub9e4": 5088,
    "\u2581sharing": 5089,
    "\u2581\uc5d0\uc11c\uac00\uc7a5": 5090,
    "\u2581trade": 5091,
    "\uaed8": 5092,
    "\u2581\uc788\uae30": 5093,
    "\u258120,": 5094,
    "\u2581fourth": 5095,
    "\u2581greatly": 5096,
    "\uacac\ud574": 5097,
    "\uc788\uace0": 5098,
    "\u2581\ubcc0\ud654": 5099,
    "\uaca0\uc5b4": 5100,
    "\ucee4\ub2e4\ub780": 5101,
    "\ud56d\uc0c1": 5102,
    "\u2581\ub354\uc6b1": 5103,
    "\uace0\uc694": 5104,
    "\u2581forgiveness": 5105,
    "\u2581\uc5d0\ub3c4\ubd88\uad6c\ud558\uace0": 5106,
    "\u2581\ud558\ub77c\uace0": 5107,
    "\uc558": 5108,
    "\u2581Um": 5109,
    "\u2581\uac74\uac15": 5110,
    "\u2581\uc194\ub85c\ubaac": 5111,
    "\uc804\ud30c\ud65c\ub3d9": 5112,
    "\u25812000": 5113,
    "\uc728\ubc95": 5114,
    "\u2581\uc774\uc720\ub294": 5115,
    "great": 5116,
    "\u2581gun": 5117,
    "\u2581\ud558\uc2e0\ub2e4": 5118,
    "\u2581\ub418\uc5c8\uc73c\uba70": 5119,
    "\u2581\uc800\uc7a5": 5120,
    "\u2581Ma": 5121,
    "ner": 5122,
    "\u2581scientific": 5123,
    "\u2581requires": 5124,
    "\u2581\uc2f6\uc9c0": 5125,
    "\u2581\ud558\ub098\ub294": 5126,
    "\uac70\ub300": 5127,
    "\uacf5\uaca9": 5128,
    "\ubc14\ub78c": 5129,
    "\ud588": 5130,
    "14:": 5131,
    "\u258117,": 5132,
    "\u2581violent": 5133,
    "\u2581\ud55c\ub2e4\ub294\uac83": 5134,
    "\u2581Japanese": 5135,
    "\u2581\uc774\uc788\ub294\uac00": 5136,
    "\u2581\uc900": 5137,
    "\uc2a4\ud130": 5138,
    "\u2581associated": 5139,
    "\ubb34\ub9ac": 5140,
    "\uc6b0\uc2a4": 5141,
    "\u2581arms": 5142,
    "\u2581private": 5143,
    "\u2581stupid": 5144,
    "\ubc29\ud5a5": 5145,
    "\u2581Samuel": 5146,
    "\u2581\uc637": 5147,
    "\u2581inhabitants": 5148,
    "\u2581\uadf8\ub807\uc8e0": 5149,
    "\u2581\uadf8\uc640": 5150,
    "\u2581\uc5b4\ub514\uc11c": 5151,
    "\u2581refused": 5152,
    "\ub9e8": 5153,
    "\u2581prayed": 5154,
    "\u2581zero": 5155,
    "\ub4e4\ub3c4": 5156,
    "\u2581facts": 5157,
    "\u2581\uac00\ub418\uc5b4": 5158,
    "\u2581\ub294\uac83": 5159,
    "\uc131\uacf5\uc801": 5160,
    "\uc2b5": 5161,
    "\uc2dc\uba70": 5162,
    "\u2581round": 5163,
    "\ubd09": 5164,
    "\u2581Am": 5165,
    "\u2581unity": 5166,
    "\uc601\ud654": 5167,
    "There": 5168,
    "\u2581alcohol": 5169,
    "\u2581laid": 5170,
    "\u2581\ubc14\ub2e4": 5171,
    "\u2581\uc54a\uc558\uc2b5\ub2c8\ub2e4": 5172,
    "\uae30\ucd08": 5173,
    "\u2581Mount": 5174,
    "\uc5c8\uc5b4": 5175,
    "\u2581\uc774\ub974\ub418": 5176,
    "\ud1b5\uce58\uc790": 5177,
    "\ud478": 5178,
    "\u2581practices": 5179,
    "\uae30\ub984\ubd80\uc74c": 5180,
    "\u2581Chinese": 5181,
    "\u2581useful": 5182,
    "\u2581dwell": 5183,
    "\u2581tiny": 5184,
    "\u2581\uac83\uc774\uc694": 5185,
    "\uc880\ub354": 5186,
    "\u2581\uc790\uc2e0\uc744": 5187,
    "\ucd5c\ucd08": 5188,
    "\u2581mighty": 5189,
    "\u2581ruin": 5190,
    "\u2581\uc788\uc796\uc544": 5191,
    "\uad50\uc9c1\uc790": 5192,
    "\u2581purposes": 5193,
    "\u2581\ub294\uc608\uc218": 5194,
    "\u2581finding": 5195,
    "\ub1cc": 5196,
    "\uc918": 5197,
    "\u2581taste": 5198,
    "\u2581\uac70\uc9d3": 5199,
    "\u2581\ub3c5\uc790": 5200,
    "\u2581rejoice": 5201,
    "\u2581\uc5ed": 5202,
    "\uac83\uac19\uc2b5\ub2c8\ub2e4": 5203,
    "\ud2bc": 5204,
    "No": 5205,
    "\u258142": 5206,
    "\u2581turning": 5207,
    "\u2581\uac00\ud544\uc694": 5208,
    "\uadf8\ub300\ub85c": 5209,
    "\uc9c0\uba74": 5210,
    "\u2581observe": 5211,
    "\uc131\uc778": 5212,
    "\u2581genuine": 5213,
    "\u2581included": 5214,
    "\u2581\ubd10\uc694": 5215,
    "\u2581\ud68c": 5216,
    "\uc9c0\uc54a\uc558\uc2b5\ub2c8\ub2e4": 5217,
    "\u2581prophets": 5218,
    "\u2581warned": 5219,
    "\u2581\uac00\uc5c6": 5220,
    "\u2581\ud1b5": 5221,
    "\u2581\ub124\uac8c": 5222,
    "\u2581\uc774\ub4e4\uc740": 5223,
    "our": 5224,
    "\u2581dying": 5225,
    "\u2581\uc6d0\ub798": 5226,
    "\uc7a5\uc560": 5227,
    "\u2581silver": 5228,
    "\u2581\uadf8\ub140\ub97c": 5229,
    "\u2581\ud588\uc8e0": 5230,
    "\ud558\uc600\uc74d\ub2c8\ub2e4": 5231,
    "\u2581developing": 5232,
    "\u2581foreign": 5233,
    "\u2581opposite": 5234,
    "\u2581range": 5235,
    "\u2581stage": 5236,
    "\u2581\uc788\uc5c8\ub358": 5237,
    "\u2581400": 5238,
    "\u2581sake": 5239,
    "\ub0bc": 5240,
    "\ucc38\uc5ec": 5241,
    "\u2581setting": 5242,
    "\u2581beliefs": 5243,
    "\u2581\uad50\uc721": 5244,
    "\u2581hey": 5245,
    "\uac04\ub2e8": 5246,
    "\u2581trial": 5247,
    "\u2581\ub300\ud654": 5248,
    "\uc77c\ubcf8": 5249,
    "\u2581April": 5250,
    "\u2581\uc5ec\uc131": 5251,
    "\uadf8\ucc98\ub7fc": 5252,
    "\u2581quick": 5253,
    "\ub9c8\ub2e4": 5254,
    "\u2581committed": 5255,
    "\u2581\uc5d0\ub9cc": 5256,
    "\u2581\ud6cc\ub96d\ud55c": 5257,
    "\uc5b4\uc57c": 5258,
    "ow": 5259,
    "\ub044": 5260,
    "\ub78c": 5261,
    "\u2581highly": 5262,
    "\u2581Last": 5263,
    "\uc6d0\uc778": 5264,
    "\uc9c1\uc811": 5265,
    "\ud765\ubbf8": 5266,
    "\u2581\uaed8\uc11c\uc6b0\ub9ac": 5267,
    "\u2581\uc8fc\ub2d8\uc758": 5268,
    "\u2581endure": 5269,
    "\u2581\uc740\uc544\ub2d9\ub2c8\ub2e4": 5270,
    "\u2581\ud55c\ub2e4\ub294": 5271,
    "\u2581UN": 5272,
    "\u2581president": 5273,
    "\u2581\ud558\ub294\ubc29\ubc95": 5274,
    "\ub7f0": 5275,
    "\u2581\uc800\ub141": 5276,
    "\u2581\uc8fc\uc5ec": 5277,
    "\u2581\uc0dd\uac01\uc744": 5278,
    "\u2581\uc778\uc9c0\ub97c": 5279,
    "\uc0dd\uc874": 5280,
    "\u2581trip": 5281,
    "\u2581\uc544\ub984\ub2e4\uc6b4": 5282,
    "\u2581\uc81c\uc77c": 5283,
    "\ubaa8\uc784": 5284,
    "\u2581holding": 5285,
    "\u2581\ubbff": 5286,
    "\uc73c\ub824\uace0": 5287,
    "\ud558\uc790": 5288,
    "\u258148": 5289,
    "\uc120\uc5b8": 5290,
    "\uc84c": 5291,
    "\u2581capital": 5292,
    "\u2581herself": 5293,
    "\uc131\uc801": 5294,
    "\u2581adds": 5295,
    "\ub9ac\uc2a4": 5296,
    "\uc544\ubb34\ub7f0": 5297,
    "\u2581\uc73c\ub85c\uc0dd\uac01": 5298,
    "\u2581\uc5d0\ub450": 5299,
    "\u2581\uc744\ud558\ub294": 5300,
    "\u2581\uc81c\ub300\ub85c": 5301,
    "\uad50\ub9ac": 5302,
    "ge": 5303,
    "\uac8c\ub420": 5304,
    "\ub458\uc9f8": 5305,
    "\uc778\uac00\uc694": 5306,
    "\u2581improve": 5307,
    "\u2581\uc788\uc5c8\uc5b4": 5308,
    "\u2581\uc790\ub4e4\uc774": 5309,
    "\uc774\ub77c\ub3c4": 5310,
    "\u2581Without": 5311,
    "\u2581missing": 5312,
    "\u2581\uac00\ud558\ub098\ub2d8": 5313,
    "\u2581drawn": 5314,
    "\ub144\uc5d0": 5315,
    "\uc790\ube44": 5316,
    "\ud6a8\uacfc\uc801": 5317,
    "\u2581\uc0c1\ud0dc": 5318,
    "\uc219": 5319,
    "\u2581clothes": 5320,
    "\u2581\uae30\ub300": 5321,
    "\u2581\ub1cc": 5322,
    "\u2581\uadf8\uc911": 5323,
    "\u2581\ub9d0\ub3c4": 5324,
    "\u2581\uc744\ub530\ub77c": 5325,
    "\u2581\ud588\uc744\ub54c": 5326,
    "\u2581[\u201c": 5327,
    "\u2581killing": 5328,
    "\u2581um": 5329,
    "\u2581\ud588\uc744": 5330,
    "\u2581dear": 5331,
    "\u2581\uc6b0\ub9b4": 5332,
    "\uadfc\ucc98": 5333,
    "\uc74c\uc744": 5334,
    "\u2581religions": 5335,
    "\u2581\uc744\uac16": 5336,
    "\u2581\uc758\ubb38\uc81c": 5337,
    "\u2581\ubcf4\uc774\ub294": 5338,
    "\u2581\uc624\ub958": 5339,
    "\u2581\uc99d\uac00": 5340,
    "\uac04\uc8fc": 5341,
    "\u2581Similarly": 5342,
    "\u2581\uac70\ub77c\uace0": 5343,
    "\u2581\ubd80\ub974": 5344,
    "\u2581\uce60": 5345,
    "\u2581divide": 5346,
    "\u2581scene": 5347,
    "\u2581site": 5348,
    "\u2581throne": 5349,
    "ac": 5350,
    "\u2581\uc744\ub2e4": 5351,
    "\u2581\uc744\uc804\ud30c": 5352,
    "\ucd9c\ud310\ubb3c": 5353,
    "\u2581150": 5354,
    "\uc0dd\uc0b0": 5355,
    "\u2581Whatever": 5356,
    "\u2581stick": 5357,
    "\u2581\uaed8\uc11c\ub294\uc6b0\ub9ac": 5358,
    "\u2581pictures": 5359,
    "\uaf2d": 5360,
    "\u2581\ud558\uac8c\ub3c4": 5361,
    "\u2581\uacc4": 5362,
    "\uace0\uc788\ub294\uac83": 5363,
    "\u2581appearance": 5364,
    "\u2581ended": 5365,
    "\u2581\uc77c\ubd80\uc0ac\ub78c": 5366,
    "\u2581\uc8fd\uc744": 5367,
    "\ub2e4\ub9ac": 5368,
    "\u2581summer": 5369,
    "\u2581finished": 5370,
    "\u2581\uc758\uc608\uc5b8": 5371,
    "\ubcf4\ub2c8": 5372,
    "\ud608": 5373,
    "\u2581\uc5ed\uc2dc": 5374,
    "\u2581wear": 5375,
    "\uac70\uc808": 5376,
    "\u2581forest": 5377,
    "\u2581healthy": 5378,
    "\u2581\uc740\uc544\ub2c8\ub2e4": 5379,
    "\ub9c8\ucc2c\uac00\uc9c0": 5380,
    "\ud55c\ub2e4\ub294": 5381,
    "\u2581Think": 5382,
    "\u2581bottom": 5383,
    "\u2581weapons": 5384,
    "\u2581\uac10": 5385,
    "\uc9c0\uc9c0": 5386,
    "\ubab9\uc2dc": 5387,
    "\uc8fc\uace0": 5388,
    "\ud604\uba85": 5389,
    "\u2581catch": 5390,
    "\u2581content": 5391,
    "\u2581separate": 5392,
    "\u2581European": 5393,
    "\u2581drop": 5394,
    "\u2581humble": 5395,
    "\u2581\ub97c\ub0b4": 5396,
    "\u2581\uc774\ub77c\ub294\uac83": 5397,
    "\u2581\uc740\ub0b4": 5398,
    "\u2581\uc800\uc5d0\uac8c": 5399,
    "\uace0\uc788\uc74d\ub2c8\ub2e4": 5400,
    "\u2581consequences": 5401,
    "\u2581\uc744\uc778\uc2dd": 5402,
    "\u2581\uac00\ub2a5\ud55c": 5403,
    "\ud328": 5404,
    "\u2581imitate": 5405,
    "\u2581\uc5b4\ub9b0": 5406,
    "\u2581\uc788\uc744\uae4c\uc694": 5407,
    "\u2581\ucbe4": 5408,
    "\uc9c4\uc9c0": 5409,
    "\u2581ill": 5410,
    "\u2581\ub4e0": 5411,
    "\u2581\uc704\uce58": 5412,
    "\ud544": 5413,
    "\u2581dust": 5414,
    "\u2581\ub85c\ud558\uc5ec\uae08": 5415,
    "\u2581dry": 5416,
    "\u2581increasing": 5417,
    "\uacf5\uae30": 5418,
    "mo": 5419,
    "\u02b9": 5420,
    "\u2581hide": 5421,
    "\u2581\uc774\ub984\uc774": 5422,
    "\uc2e0\uccb4\uc801": 5423,
    "\u2581reflect": 5424,
    "\uc57c\ud560": 5425,
    "\u2581personally": 5426,
    "\u2581waste": 5427,
    "\ud611\ud68c": 5428,
    "\u2581Sir": 5429,
    "\uacb0\uad6d": 5430,
    "\u2581bird": 5431,
    "\u2581\ubcc4\ub85c": 5432,
    "\u2581\ud398": 5433,
    "\uc218\ub9ce\uc740": 5434,
    "\u2581eternal": 5435,
    "\u2581\uc744\uc774\ub8e8": 5436,
    "\u2581boat": 5437,
    "\u2581publication": 5438,
    "\u2581theory": 5439,
    "\u2581\uc744\uc774\uc6a9": 5440,
    "\uacac": 5441,
    "\ub3c4\ub85c": 5442,
    "\u2581]": 5443,
    "\u2581twice": 5444,
    "\u2581viewed": 5445,
    "\u2581mere": 5446,
    "\u2581\uc801\uc5b4\ub3c4": 5447,
    "\uc81c\uac70": 5448,
    "\u2581\uc5d0\uac8c\uadf8": 5449,
    "\uc0dd\ubb3c": 5450,
    "\u2581\ub098\uc11c": 5451,
    "\u2581\uc744\uc9c0\uc801": 5452,
    "\u2581aside": 5453,
    "\u2581\uc6b4\ub3d9": 5454,
    "\uc5c8\uc8e0": 5455,
    "\u25811,000": 5456,
    "\u2581movement": 5457,
    "\u2581valuable": 5458,
    "\u2581\uc549\uc544": 5459,
    "\ud30c\uad34": 5460,
    "\u2581understood": 5461,
    "\u2581\uc54c\uc558\uc5b4\uc694": 5462,
    "\ubc18\uc601": 5463,
    "\u2581governments": 5464,
    "\uad74": 5465,
    "\uad8c\uc704": 5466,
    "\uc190\uc0c1": 5467,
    "\uc790\ub97c": 5468,
    "\u2581sell": 5469,
    "\uad50\uc0ac": 5470,
    "\uc790\ub3d9\ucc28": 5471,
    "\u2581Internet": 5472,
    "\u2581\uac80\uc0c9": 5473,
    "\u2581\uc88b\uc544\ud558\ub294": 5474,
    "\uc815\uce58": 5475,
    "\u2581relatives": 5476,
    "\u2581\uad70": 5477,
    "\u2581\uc9c0\ud61c": 5478,
    "\u2581\uac00\uace0": 5479,
    "\ud574\uacb0": 5480,
    "\u2581shut": 5481,
    "\u2581\ub9cc\ub098": 5482,
    "\u2581\uc744\uc9c0\ud0a4": 5483,
    "\uaebc": 5484,
    "\u2581Christmas": 5485,
    "\u2581belong": 5486,
    "\u2581radio": 5487,
    "\u2581strange": 5488,
    "\ub85d": 5489,
    "\ud300": 5490,
    "\u2581\uc774\uc788\uc744\uac83": 5491,
    "\u2581generally": 5492,
    "\u2581occurred": 5493,
    "\u2581throw": 5494,
    "\uc785\uc7a5": 5495,
    "\u2581financial": 5496,
    "\uc624\uc5fc": 5497,
    "\u2581ears": 5498,
    "\u2581\uc778\ud130\ub137": 5499,
    "\ub110\ub9ac": 5500,
    "\u2581mention": 5501,
    "\u2581pro": 5502,
    "\u2581\uad00": 5503,
    "\u2581\uce90\ub098\ub2e4": 5504,
    "\u2581surprise": 5505,
    "\u2581weak": 5506,
    "\u2581bar": 5507,
    "\u2581official": 5508,
    "\u2581\ud544\uc694\uac00": 5509,
    "\uc815\uc9c1": 5510,
    "\uc778\uc1c4": 5511,
    "\u2581proud": 5512,
    "\u2581\ud558\uc2e4\uac83": 5513,
    "\uc624\ub798": 5514,
    "\u2581fly": 5515,
    "\u2581victim": 5516,
    "\u2581George": 5517,
    "\u2581\uc138\ud3ec": 5518,
    "\u2581Under": 5519,
    "\u2581\ucd5c\uace0": 5520,
    "\uace0\uae30": 5521,
    "\uc600\uc5b4": 5522,
    "\u2581\uc744\ubc1b\uc558\uc2b5\ub2c8\ub2e4": 5523,
    "\u2581culture": 5524,
    "\u2581therein": 5525,
    "\ub838": 5526,
    "\u2581o": 5527,
    "\u2581\uac70\uc9d3\ub9d0": 5528,
    "\uc874": 5529,
    "\u2581totally": 5530,
    "\u2581Bethel": 5531,
    "\u2581degree": 5532,
    "\u2581sad": 5533,
    "\u2581\ud45c\ud604": 5534,
    "\ud615\uc131": 5535,
    "\u2581Fire": 5536,
    "\u2581remained": 5537,
    "\u2581variety": 5538,
    "\u2581assembly": 5539,
    "\u2581forced": 5540,
    "\u2581operation": 5541,
    "\u2581\uc778\ud558\uc5ec": 5542,
    "\u2581\uc5d0\uc601\ud5a5": 5543,
    "\u2581Britain": 5544,
    "\uc778\ub370\uc694": 5545,
    "\u2581formed": 5546,
    "\u2581\ud130": 5547,
    "\u2581\ud55c\uc0c1\ud0dc": 5548,
    "\u2581courage": 5549,
    "\u2581\uc911\uc5d0\uc11c": 5550,
    "\u2581\ubc00": 5551,
    "\uc774\ud63c": 5552,
    "\u2581\ub9d0\ud55c": 5553,
    "\u2581\ubabb\ud560": 5554,
    "\ub300\ub2e8": 5555,
    "\uc655\uad6d\ud68c\uad00": 5556,
    "\u2581arrangement": 5557,
    "\u2581State": 5558,
    "\u2581standard": 5559,
    "\u2581\ubc29\ubc95": 5560,
    "\u2581everywhere": 5561,
    "\u2581causing": 5562,
    "\u2581missionary": 5563,
    "\u2581\ub97c\uac16": 5564,
    "\u2581\uc720\ub300\uc778": 5565,
    "di": 5566,
    "\u2581Use": 5567,
    "\u2581presented": 5568,
    "\u2581\ub9de\uc544\uc694": 5569,
    "\uc0e4": 5570,
    "\u2581\uc7a0\uc2dc": 5571,
    "\u2581600": 5572,
    "\u2581\ubcd1\uc6d0": 5573,
    "\u2581\uc774\uc788\uc5c8\uc2b5\ub2c8\ub2e4": 5574,
    "\u2581Messenger": 5575,
    "\u2581\uac00\uc5c6\ub2e4": 5576,
    "\uc2e0\uc559": 5577,
    "\u2581anyway": 5578,
    "\u2581\uc758\uc57d\uc18d": 5579,
    "\uc2dc\uc124": 5580,
    "\u2581association": 5581,
    "\u2581\ub0ad\ub3c5": 5582,
    "\u258129.": 5583,
    "\u2581daughters": 5584,
    "\u2581walked": 5585,
    "\ub3d9\uae30": 5586,
    "\u2581mistake": 5587,
    "\u2581smoke": 5588,
    "\u2581\uacb0\uacfc": 5589,
    "\uadf8\uc810": 5590,
    "\uc0c8\ub07c": 5591,
    "\u2581\uc5b4\ub9b0\uc774": 5592,
    "\u2581\uc704\ud5d8": 5593,
    "\uc600": 5594,
    "\u2581reasonable": 5595,
    "\u2581\uae30\uc220": 5596,
    "\u2581sweet": 5597,
    "\u2581games": 5598,
    "\u2581\ucee4": 5599,
    "\u2581grand": 5600,
    "\u2581majority": 5601,
    "\u2581\ub144\ub300": 5602,
    "\u2581\uc790\ub4e4\uc740": 5603,
    "\u2581IT": 5604,
    "\u2581\uc5b8\uc5b4": 5605,
    "\u2581\uc0b4\uc778": 5606,
    "\u2581\uc2f6": 5607,
    "\ub192\uc774": 5608,
    "ER": 5609,
    "\u2581\uc740\ub204\uad6c": 5610,
    "\uc2e4\ud328": 5611,
    "ni": 5612,
    "que": 5613,
    "\u2581gas": 5614,
    "\u2581indicate": 5615,
    "\uc555": 5616,
    "\u2581exists": 5617,
    "\u2581fault": 5618,
    "\u2581\ud574\uacb0": 5619,
    "\ub3c4\ub355\uc801": 5620,
    "X": 5621,
    "ard": 5622,
    "you": 5623,
    "\u2581prepare": 5624,
    "\u2581\ud55c\uac00\uc9c0": 5625,
    "\u2581count": 5626,
    "\u2581\uc790\ub8cc\uc81c\uacf5": 5627,
    "\u2581\uc9c0\ub3c4": 5628,
    "\u2581\uac19\uc740\ub370": 5629,
    "\u2581\uac1c\uc6d4": 5630,
    "\u2581\ubd88\uc2e0\uc790\ub4e4": 5631,
    "\u2581style": 5632,
    "\ub9e4\uc77c": 5633,
    "\uc774\uba74": 5634,
    "\u2581empty": 5635,
    "\u2581\uacfc\ud559\uc790": 5636,
    "\u2581\ud558\uc600\ub294\ub370": 5637,
    "\u2581\uc870\uc0ac": 5638,
    "\uc140": 5639,
    "\uc18c\ub144": 5640,
    "\u2581CD": 5641,
    "\u2581grateful": 5642,
    "\ud310\ub2e8": 5643,
    "\u2581balance": 5644,
    "\u2581towards": 5645,
    "\uc218\uc788\ub294": 5646,
    "\u2581convinced": 5647,
    "\u2581exact": 5648,
    "\u2581\uc120\uc9c0\uc790": 5649,
    "\u2581\uc740\uc0ac\uc2e4": 5650,
    "\uc218\ud608": 5651,
    "\u2581deny": 5652,
    "\u2581media": 5653,
    "\u2581Any": 5654,
    "\u2581\uc774\ub984\uc740": 5655,
    "\u2581\ub77c\uba74": 5656,
    "AL": 5657,
    "\u2581overcome": 5658,
    "\u2581star": 5659,
    "\u2581\uc744\ud55c": 5660,
    "\uacf5\uae09": 5661,
    "\uce58\ub294": 5662,
    "\u2581\ud558\uace0\ub9d0": 5663,
    "\u2581\ud5c8\ub77d": 5664,
    "\uc9d0\uc2b9": 5665,
    "\u2581carrying": 5666,
    "\u2581contains": 5667,
    "\u2581faced": 5668,
    "\u2581largest": 5669,
    "\uc721\uccb4": 5670,
    "\u2581communication": 5671,
    "\u2581evolution": 5672,
    "\u2581\uc2e4\ud5d8": 5673,
    "\u2581\ud558\uc600\uc744\ub54c": 5674,
    "\u2581meat": 5675,
    "\u2581seconds": 5676,
    "\u2581midst": 5677,
    "\u2581smoking": 5678,
    "\u258124,": 5679,
    "\uaca0\ub294\uac00": 5680,
    "\u2581journey": 5681,
    "\u2581loves": 5682,
    "\u2581\uc5bb\uc744": 5683,
    "\u2581\uc740\ubd84\uba85": 5684,
    "30": 5685,
    "\u2581basically": 5686,
    "\u2581souls": 5687,
    "\u2581visited": 5688,
    "\u2581\uc790\uc5d0\uac8c": 5689,
    "\ub4dc\ub294": 5690,
    "ex": 5691,
    "\u2581reveal": 5692,
    "\u2581\uacfc\uadf8\ubd84": 5693,
    "\ud558\ub824\uba74": 5694,
    "\u2581press": 5695,
    "\u2581\uc774\uc804\uc5d0": 5696,
    "\u2581\ud55c\ud55c": 5697,
    "\uadf8\ub9ac": 5698,
    "\uc870\uc2ec": 5699,
    "\ud568\uc774": 5700,
    "\u2581fair": 5701,
    "\u2581proof": 5702,
    "\uc801\uc5b4\ub3c4": 5703,
    "\uc88b\uc544": 5704,
    "\u2581Con": 5705,
    "\u2581\uc758\uc88b\uc740\uc18c\uc2dd": 5706,
    "\ube4c": 5707,
    "old": 5708,
    "\ub784": 5709,
    "\uccab": 5710,
    "\ud504\ub85c\uadf8\ub7a8": 5711,
    "\ud588\uc9c0\ub9cc": 5712,
    "\u2581sold": 5713,
    "\u2581\uc744\ubcf4\ud638": 5714,
    "\ucda9\uace0": 5715,
    "ence": 5716,
    "\u2581\uc744\ud574": 5717,
    "\u2581\ud560\uc218\uc788\ub294\uac00": 5718,
    "\u2581angry": 5719,
    "\u2581perform": 5720,
    "\uace0\uc788\uc5c8\ub2e4": 5721,
    "\uadf8\uc0ac\ub78c": 5722,
    "\ub9c8\uc9c0\ub9c9": 5723,
    "\ud790": 5724,
    "\uc5b4\ub5a4\uac83": 5725,
    "\u2581\ubabb\ud558\ub294": 5726,
    "\uade0\ud615": 5727,
    "\u2581\uc744\ubcf8": 5728,
    "\u2581\uc788\ub098\ub2c8": 5729,
    "\uc0ac\uc9c4": 5730,
    "\uc2dc\uc624": 5731,
    "ho": 5732,
    "\u2581belongs": 5733,
    "\u2581milk": 5734,
    "\uac00\uc11c": 5735,
    "\ub79c\ub4dc": 5736,
    "\ubbfc\uc871": 5737,
    "\u2581painful": 5738,
    "\u2581\uc27d\uac8c": 5739,
    "\u2581\uc758\uc870\uc9c1": 5740,
    "\u2581\ub294\uc131\uc11c": 5741,
    "\u2581\uc65c\ub0d0\uba74": 5742,
    "\uba85\uc758": 5743,
    "\ubca8": 5744,
    "\ubaa8\uc138": 5745,
    "\u2581\ube44\ubc00": 5746,
    "\u2581\uc0b4\ud574": 5747,
    "\u2581\uc788\uc5b4\uc57c": 5748,
    "\u2581diseases": 5749,
    "\u2581pull": 5750,
    "\u2581\uc0dd": 5751,
    "\u2581lesson": 5752,
    "\u2581accident": 5753,
    "\u2581assigned": 5754,
    "\uc721": 5755,
    "\ud78c": 5756,
    "When": 5757,
    "\u2581Next": 5758,
    "\u2581meal": 5759,
    "\uc544\ub2f4": 5760,
    "\u2581\uc0ad\uc81c": 5761,
    "\u2581\uc744\ub204\ub9ac": 5762,
    "\u2581\ud55c\uacf3": 5763,
    "\u2581failure": 5764,
    "\u2581keeps": 5765,
    "\u2581\ub5a0": 5766,
    "\ud558\uc168": 5767,
    "\u2581sees": 5768,
    "\ud3ed": 5769,
    "\uc2dc\ub2e4": 5770,
    "\ucc2c": 5771,
    "time": 5772,
    "\u2581Joshua": 5773,
    "\ub838\uc2b5\ub2c8\ub2e4": 5774,
    ":\u201c": 5775,
    "\ub17c": 5776,
    "\u2581Spanish": 5777,
    "\u2581beat": 5778,
    "\u2581\uc5d0\ub300\ud55c\uc0ac\ub791": 5779,
    "\ud0dc\uc591": 5780,
    "\u2581\uc2e4\ud328": 5781,
    "\u2581\ud55c\uacb0\uacfc": 5782,
    "\u2581\ud574\uc9c0": 5783,
    "\uc5b4\ub9b0": 5784,
    "\u2581removed": 5785,
    "\u2581soil": 5786,
    "\u2581\ubd80\ubd84": 5787,
    "\u2581\uc0c8\ub85c": 5788,
    "\u2581\uc5b8\uc81c\ub098": 5789,
    "\u2581cope": 5790,
    "\u2581\uac1c\uc778": 5791,
    "\u2581\uc5d0\ub4e4\uc5b4\uac00": 5792,
    "\u2581\uc740\uadf8\uac83": 5793,
    "\u2581Asia": 5794,
    "\u2581\uc9c0\ub098": 5795,
    "\u2581\ud558\ub098\ub2d8\uacfc": 5796,
    "lurb": 5797,
    "\u2581\uc2a4\ud398\uc778": 5798,
    "\ub809": 5799,
    "\u2581\uc54c\uc558": 5800,
    "\u2581\uc57d\uac04": 5801,
    "\uc774\uc6c3": 5802,
    "\u2581Le": 5803,
    "\u2581\uc678\uc5d0\ub294": 5804,
    "line": 5805,
    "\u2581\uc744\uc54c\uace0": 5806,
    "\u2581extra": 5807,
    "\u2581\uc5c4\uccad": 5808,
    "\u2581walls": 5809,
    "\u2581\uacbd\ud5d8": 5810,
    "\ubd84\uc758": 5811,
    "\uc6a9\uae30": 5812,
    "\u2581wood": 5813,
    "\ubd80\uba74": 5814,
    "\uc0ac\uace0": 5815,
    "=": 5816,
    "\u2581faces": 5817,
    "\u2581\uafc8": 5818,
    "\u2581\ud30c\uc77c\uc744": 5819,
    "\u2581opposition": 5820,
    "that": 5821,
    "\u2581\uace0\ud1b5": 5822,
    "\u2581images": 5823,
    "\u2581ma": 5824,
    "\u2581discuss": 5825,
    "\u2581played": 5826,
    "\u2581south": 5827,
    "\u2581\uc694\uc149": 5828,
    "\u2581\ud798\uc744": 5829,
    "\u2581services": 5830,
    "\u2581\uc6b8": 5831,
    "\uc138\uae30": 5832,
    "\u2581\ub9c8\uc74c\uc744": 5833,
    "\u2581\uac00\uc6b0\ub9ac": 5834,
    "\u2581\uc544\ub2c8\ud55c": 5835,
    "\uae30\uc5d0": 5836,
    "\uac8c\ud558\ub294": 5837,
    "ally": 5838,
    "\u2581fresh": 5839,
    "\u2581\ub418\uc5c8\uace0": 5840,
    "\u2581\uc2dc\uc2a4\ud15c": 5841,
    "\u2581\uc758\ud558\ub098\ub2d8": 5842,
    "\ub9fa": 5843,
    "\uc9d5\uacc4": 5844,
    "\ud574\uc57c\ud569\ub2c8\ub2e4": 5845,
    "\u258155": 5846,
    "\u2581lady": 5847,
    "\u2581Three": 5848,
    "\u2581\ub8e8": 5849,
    "\u2581\ud558\uc2e4": 5850,
    "\u2581arm": 5851,
    "\uc804\uc138\uacc4": 5852,
    "\u2581region": 5853,
    "\u2581\ub9d0\ud558\uc9c0": 5854,
    "\uc154": 5855,
    "\u2581Sunday": 5856,
    "\u2581consideration": 5857,
    "\uacc4\uc2dc": 5858,
    "\u2581\ub7ec\uc2dc\uc544": 5859,
    "\uc545\ud55c": 5860,
    "\u258118,": 5861,
    "\u2581\ubd84\uc790": 5862,
    "\u2581\ube7c": 5863,
    "\u2581\uc5d0\uc758\ud558\uc5ec": 5864,
    "\u2581\uc791": 5865,
    "\u258128,": 5866,
    "\u2581quiet": 5867,
    "\u2581\uac00\ub354": 5868,
    "\ud138": 5869,
    "les": 5870,
    "\u2581applied": 5871,
    "\u2581\ub294\ub2e4\uc74c": 5872,
    "\ub454": 5873,
    "\ub9cc\uc774": 5874,
    "\u2581\ubabb\ud55c": 5875,
    "\u2581\ud328": 5876,
    "\u2581\uc544\ub2c8\ud558\uace0": 5877,
    "\u2581\uc774\ub9ac": 5878,
    "\u2581\ud655\uc2e4": 5879,
    "\u2581Ezekiel": 5880,
    "\u2581Peace": 5881,
    "\u2581essential": 5882,
    "\u2581\uc0ac\uace0": 5883,
    "\u2581\uc870\uc9c1": 5884,
    "\ub530\ub73b": 5885,
    "\u2581discussion": 5886,
    "\uc885\ub958": 5887,
    "\u2581$": 5888,
    "\u2581attending": 5889,
    "\u2581remnant": 5890,
    "RE": 5891,
    "\uc2b9\ub9ac": 5892,
    "\uc628\uac16": 5893,
    "\uc8fd\uc740\uc790": 5894,
    "\u2581Everything": 5895,
    "\uae30\ubd84": 5896,
    "\uace0\uc8fc\uc7a5": 5897,
    "\uc5c4\uccad": 5898,
    "me": 5899,
    "\u2581\ub97c\uc5f0\uad6c": 5900,
    "\ubd80\ub3c4\ub355": 5901,
    "\uc804\ud654": 5902,
    "\u2581products": 5903,
    "\u2581\ubc29\ubc95\uc740": 5904,
    "\uace0\ub098\uc11c": 5905,
    "\uc73c\uba74\uc11c": 5906,
    "\u2581code": 5907,
    "\u2581\uba87\uba87": 5908,
    "\u2581imperfect": 5909,
    "\u2581soldiers": 5910,
    "\uc2e4\uc6a9\uc801": 5911,
    "\u2581coffee": 5912,
    "\u2581poverty": 5913,
    "\u2581resurrected": 5914,
    "\u2581\uc0ac\uc2e4\uc744": 5915,
    "\u2581whoever": 5916,
    "\u2581\uacf3\uc5d0\uc11c": 5917,
    "\ub85c\uc11c": 5918,
    "ists": 5919,
    "\uad6c\uc5ed": 5920,
    "\uc788\uc5c8\ub2e4": 5921,
    "\u2581delight": 5922,
    "\u2581safety": 5923,
    "\uae30\ub984": 5924,
    "\ub294\ubcf4\ub3c4": 5925,
    "\ub5a0": 5926,
    "\uc774\uc138\uc0c1": 5927,
    "And": 5928,
    "\ubcf4\uc99d": 5929,
    "\u258141": 5930,
    "\u2581\uc744\ud558\uace0": 5931,
    "\u2581\uc8fd\uc74c": 5932,
    "\uacfc\uac70": 5933,
    "\uc601\uac10": 5934,
    "\u2581Open": 5935,
    "\u2581depression": 5936,
    "\u2581murder": 5937,
    "\u2581structure": 5938,
    "\u2581\uc5d0\uc11c\uc77c": 5939,
    "\u2581\ub97c\uacc4\uc18d": 5940,
    "\u2581\uc811\uadfc": 5941,
    "\uc720\uc9c0": 5942,
    "\u2581treated": 5943,
    "12": 5944,
    "cause": 5945,
    "\u2581\ubc1b\uc558": 5946,
    "\uc2dc\ucf1c": 5947,
    "\u2581Mexico": 5948,
    "\u2581\ud558\uc9c0\uc54a\ub294\ub2e4": 5949,
    "\u2581plane": 5950,
    "\u2581\ud300": 5951,
    "\uac70\ub77c\uace0": 5952,
    "\ub9de": 5953,
    "\u2581Mm": 5954,
    "\u2581changing": 5955,
    "\u2581schools": 5956,
    "\u2581\uc740\ub9e4\uc6b0": 5957,
    "\ubc97": 5958,
    "\ubcf4\ub77c": 5959,
    "\u2581News": 5960,
    "\u2581encouragement": 5961,
    "\uafc8": 5962,
    "\ubc1b\ub294": 5963,
    "\u2581sub": 5964,
    "\u2581\uac70\uae30\uc5d0": 5965,
    "\u2581\ub294\uc774\ub7ec": 5966,
    "\u2581\uc5d0\uc11c\uc6b0\ub9ac": 5967,
    "\u2581\uc790\ub124\uac00": 5968,
    "\u258121,": 5969,
    "\u2581request": 5970,
    "\u2581sat": 5971,
    "\u2581Despite": 5972,
    "\u2581Truth": 5973,
    "\u2581files": 5974,
    "\u2581\uc5d8": 5975,
    "\u2581Ephesians": 5976,
    "\u2581worst": 5977,
    "\u2581\uadf8\uc0ac\ub78c": 5978,
    "\u2581\ub2e4\uc2dc\ub9d0": 5979,
    "\ud558\uc600\uace0": 5980,
    "\u2581\uae30\ub2e4\ub824": 5981,
    "\u2581\ubcf4\uc774\uc9c0": 5982,
    "\u2581examine": 5983,
    "\ub2e8\uccb4": 5984,
    "\uc790\uadf9": 5985,
    "\ud30c\uc774\uc624\ub2c8\uc544": 5986,
    "\ud45c\uc900": 5987,
    "\u2581familiar": 5988,
    "\u2581involves": 5989,
    "\ub3d9\ub8cc": 5990,
    "\ud558\ub824\ub294": 5991,
    "so": 5992,
    "\uc600\ub2e4": 5993,
    "\u2581\ud2f0": 5994,
    "\ud5c8": 5995,
    "\u2581previous": 5996,
    "\ucc29": 5997,
    "\u2581details": 5998,
    "\u2581\uc744\ub0b4\ub9ac": 5999,
    "\u2581\uc744\ubc1b\uace0": 6000,
    "\uba39\uc774": 6001,
    "\u258128.": 6002,
    "\u2581assignment": 6003,
    "\u2581selected": 6004,
    "\uac70\uae30": 6005,
    "\uba58": 6006,
    "\u2581\ud560\uc218\uc5c6": 6007,
    "\uace0\uc2f6": 6008,
    "ab": 6009,
    "\u2581dedication": 6010,
    "\u2581\uc758\uc655": 6011,
    "\u2581actual": 6012,
    "\u2581writes": 6013,
    "\u2581\uc5b4\uca0c\ub4e0": 6014,
    "\u2581\uc81c\uac70": 6015,
    "\u2581\uc918": 6016,
    "\ud3ec\uae30": 6017,
    "\u2581smaller": 6018,
    "\u2581\uc5b4\ub5a0": 6019,
    "\uc228": 6020,
    "\ub2e8\ub2e4": 6021,
    "\u2581includes": 6022,
    "\uc54c\ub824\uc90d\ub2c8\ub2e4": 6023,
    "ha": 6024,
    "\u2581marry": 6025,
    "\u2581Italy": 6026,
    "\u2581\ub428": 6027,
    "\u2581\ubaa8\ub974\ub294": 6028,
    "\u2581chose": 6029,
    "\u2581Soviet": 6030,
    "\u2581\uad49\uc7a5\ud788": 6031,
    "\u2581\uc2e4\uc218": 6032,
    "\u2581\uc744\uc8fc\ub294": 6033,
    "\u2581\uc885\ub958\uc758": 6034,
    "\ub354\ud070": 6035,
    "my": 6036,
    "\u2581\ud655\uc2e4\ud788": 6037,
    "\uc2f8\uc6c0": 6038,
    "\u2581\uc744\ud589\ud558": 6039,
    "\u2581\ud06c\uae30": 6040,
    "\u25811980": 6041,
    "\u2581helpful": 6042,
    "\u2581\uc815\ud655\ud788": 6043,
    "\ubcf4\uc774\ub294": 6044,
    "\u2581apparently": 6045,
    "\u2581atmosphere": 6046,
    "\u2581\uac00\uc5b4\ub5bb\uac8c": 6047,
    "\u2581\ub9c8\uc57d": 6048,
    "\u2581\uc21c\uac04": 6049,
    "\u2581\ud310": 6050,
    "\u2581December": 6051,
    "\u2581Ha": 6052,
    "\u2581guilty": 6053,
    "\u2581\ub97c\uc5b4\ub5bb\uac8c": 6054,
    "\uc2e4\uc218": 6055,
    "\u2581accounts": 6056,
    "\u2581ex": 6057,
    "\u2581\ub54c\ubb38\uc774\uc8e0": 6058,
    "\u2581\uc54a\uc73c\uba74": 6059,
    "\ubaa8\uc2b5": 6060,
    "\ucc98\ub9ac": 6061,
    "\uc77c\ubd80\uc0ac\ub78c": 6062,
    "\u2581Being": 6063,
    "\u2581trained": 6064,
    "\uaca0\uc2b5\ub2c8\uae4c": 6065,
    "\ud558\uc600\uc73c\uba70": 6066,
    "\u2581\uc5d0\uc774\ub974": 6067,
    "\u2581\uc774\ub2f9\uc2e0": 6068,
    "\uae30\ub2a5": 6069,
    "\ubd80\ud328": 6070,
    "\u2581gifts": 6071,
    "\u2581\ub97c\uc785": 6072,
    "\ub300\ud559\uad50": 6073,
    "\uc788\ub294\uac83": 6074,
    "\u2581rejected": 6075,
    "\u2581\ub098\uc911": 6076,
    "\u2581\uc0b4\uc544": 6077,
    "\u2581\uc774\ud0c8\ub9ac\uc544": 6078,
    "\ubd81": 6079,
    "\u2581\uc774\uc544\ub2c8": 6080,
    "om": 6081,
    "\u2581leads": 6082,
    "\u2581\ubc1c\uc0dd": 6083,
    "\u2581option": 6084,
    "\u2581\ucca0": 6085,
    "\uc9c0\ub9d0\ub77c": 6086,
    "ba": 6087,
    "\u2581\uac01\uac01": 6088,
    "\u2581\ub2ec\ub77c": 6089,
    "\u2581\uc744\uc6b0\ub9ac": 6090,
    "\uc544\ube0c\ub77c\ud568": 6091,
    "day": 6092,
    "\u2581Put": 6093,
    "^2": 6094,
    "\u2581joined": 6095,
    "\u2581\uc5d0\uc758\ud55c": 6096,
    "\u2581\ud504\ub85c": 6097,
    "\u2581Excuse": 6098,
    "\u2581pointed": 6099,
    "\u2581\uac00\uc788\ub294": 6100,
    "\u2581\uc5d0\uac8c\ub9d0": 6101,
    "\uadf8\ub807\uac8c\ud558": 6102,
    "\ub294\ub9d0": 6103,
    "\uc131\uc6d0": 6104,
    "\uc18d\ub3c4": 6105,
    "\u2581Out": 6106,
    "\uc124\uacc4": 6107,
    "ster": 6108,
    "\u258175": 6109,
    "\u2581younger": 6110,
    "\ub192\uc740": 6111,
    "\u2581background": 6112,
    "\u2581shape": 6113,
    "\u2581\ubc8c\uc774": 6114,
    "\ub2f9\uc5f0": 6115,
    "\ub728": 6116,
    "\u2581Ex": 6117,
    "\u2581possibly": 6118,
    "\ub3c5\uc790": 6119,
    "\u2581\ubb38\uc81c\ub294": 6120,
    "\ud655\uace0": 6121,
    "\u2581demand": 6122,
    "\u2581fat": 6123,
    "\u2581\uc774\ub77c\ub3c4": 6124,
    "\u2581\ub204\uad6c\ub3c4": 6125,
    "\u2581\uc54a\uc558": 6126,
    "\u2581\ud560\uc218\uc788\uc744\uac83": 6127,
    "\u2581\uc0c9": 6128,
    "\u2581\uc601\ud5a5\uc744": 6129,
    "\u2581\uc740\ub2e4\uc74c": 6130,
    "\ucce4": 6131,
    "\u2581Brother": 6132,
    "\u2581ain": 6133,
    "\u2581triangle": 6134,
    "\u2581dress": 6135,
    "\u2581\uc720\uc9c0": 6136,
    "\uc601\uc608": 6137,
    "\u2581Both": 6138,
    "\u2581unable": 6139,
    "\u2581blame": 6140,
    "\u2581mark": 6141,
    "\u2581\ud55c\uadf8\ub9ac\uc2a4\ub3c4\uc778": 6142,
    "\ub3c4\uc804": 6143,
    "\u2581finish": 6144,
    "\u2581offspring": 6145,
    "\u2581driving": 6146,
    "\u2581meters": 6147,
    "\uc9c0\ub77c": 6148,
    "\u2581jobs": 6149,
    "\u2581\ub418\uc5b4\uc788\uc2b5\ub2c8\ub2e4": 6150,
    "\u2581\uc18d\uc5d0": 6151,
    "\ubcf5\uc7a1": 6152,
    "\uc911\uc5d0": 6153,
    "\u2581flow": 6154,
    "\uad6c\uc870": 6155,
    "\ub108\ubb34": 6156,
    "\ud558\uc2dc\ub294": 6157,
    "\u2581Brazil": 6158,
    "\u2581labor": 6159,
    "\u2581\ub208\uc744": 6160,
    "\u2581\uc744\ud558\ub294\uac83": 6161,
    "\uadf8\uc77c": 6162,
    "\u2581\ub531": 6163,
    "\ub9ac\ub294": 6164,
    "\ud558\ub354\ub77c\ub3c4": 6165,
    "\ud68c\uc758": 6166,
    "\u2581El": 6167,
    "\u2581attended": 6168,
    "\u2581\uc9c4\uc815": 6169,
    "\u2581clothing": 6170,
    "\uacf5\uc758": 6171,
    "\ub098\uc911": 6172,
    "\u2581threat": 6173,
    "\u2581\ud0dc\uc591": 6174,
    "\u2581require": 6175,
    "\u2581\ud588\uc9c0\ub9cc": 6176,
    "\u2581trials": 6177,
    "\u2581\uc55e\uc11c": 6178,
    "\uac80\uc0ac": 6179,
    "\u258128:": 6180,
    "\uadc0\uc911": 6181,
    "\u2581application": 6182,
    "\u2581sincere": 6183,
    "\u2581\ub2e4\uc12f": 6184,
    "\u2581\ub530": 6185,
    "\ud63c\ub780": 6186,
    "\u2581August": 6187,
    "\u2581task": 6188,
    "\u2581\uc5d0\ub3c4\ucc29": 6189,
    "\ucd5c\uace0": 6190,
    "\u2581\uc758\uc601\uc801": 6191,
    "\u2581\uc911\uc694": 6192,
    "\uc2e4\ub9dd": 6193,
    "\u2581September": 6194,
    "\uc900\ub2e4": 6195,
    "\ud658\uc601": 6196,
    "\ub208\ubb3c": 6197,
    "\u2581\uc0ac\ub78c\ub4e4\uc758": 6198,
    "\u2581\ud754\ud788": 6199,
    "\ub410": 6200,
    "\ucee8": 6201,
    "\u2581double": 6202,
    "\u2581estimated": 6203,
    "\u2581shouldn": 6204,
    "\u2581types": 6205,
    "\u2581\uac80\uc0ac": 6206,
    "\ub3c5\ud2b9": 6207,
    "\uc5b4\ub5a4\uc77c": 6208,
    "\uc695": 6209,
    "\uc81c\uc0ac\uc7a5": 6210,
    "\u2581Name": 6211,
    "\uace0\uc788\uc73c\uba70": 6212,
    "\uc9c0\uc54a\ub3c4\ub85d": 6213,
    "\u2581bank": 6214,
    "\u2581onto": 6215,
    "\u2581surprised": 6216,
    "\u2581torment": 6217,
    "\u2581\ub0a8\uc740": 6218,
    "\uc720\uba85": 6219,
    "\u2581\uac12": 6220,
    "ran": 6221,
    "\u2581board": 6222,
    "\u2581\uc758\uae30\ub85d": 6223,
    "\u2581evident": 6224,
    "\u2581released": 6225,
    "\ubd84\uc5f4": 6226,
    "\u2581\uc744\ubcf4\ub0b4": 6227,
    "\uc2dc\ub3c4": 6228,
    "way": 6229,
    "\u2581wedding": 6230,
    "\u2581\uad1c\ucc2e": 6231,
    "\uc774\ub4e4": 6232,
    "\uc774\ub545": 6233,
    "\u2581\ubc18\uba74": 6234,
    "\u2581\uc5c6\ub2e4\uace0": 6235,
    "\u2581\ud558\uac8c\ub418\uc5c8\ub2e4": 6236,
    "\u2581magazines": 6237,
    "\u2581\uc6a9\uc11c": 6238,
    "\uc774\ub2c8": 6239,
    "\u2581contrary": 6240,
    "\u2581\uadf8\ub807": 6241,
    "\uac10\uc18c": 6242,
    "\u2581Health": 6243,
    "\ubc2d": 6244,
    "\u2581granted": 6245,
    "\u2581huh": 6246,
    "\u2581release": 6247,
    "\u2581\uc744\uc801\uc6a9": 6248,
    "\u2581'%": 6249,
    "\u2581\ubfd0\uc774\ub77c": 6250,
    "\uc168\uc74d\ub2c8\ub2e4": 6251,
    "\uc80a\uc740": 6252,
    "25": 6253,
    "\u2581Western": 6254,
    "\u2581\uc758\uc8fd\uc74c": 6255,
    "\uc218\uce58": 6256,
    "\u2581affection": 6257,
    "\u2581definitely": 6258,
    "\uadf8\ub54c": 6259,
    "\ub300\uc0c1": 6260,
    "\uc654": 6261,
    "\u2581quit": 6262,
    "\u2581slaves": 6263,
    "\u2581\ub545\uc5d0": 6264,
    "\u2581Very": 6265,
    "\u2581struck": 6266,
    "\ucc2c\uc591": 6267,
    "\u2581nobody": 6268,
    "\u2581\ubc18\ub300": 6269,
    "\uac00\uae4c\uc774": 6270,
    "\uc778\uc790": 6271,
    "\ud63c\uc790": 6272,
    "\u2581oxygen": 6273,
    "\u2581\ub97c\ubcf4": 6274,
    "\u2581\uc2ed": 6275,
    "\u2581\uc81c\uac8c": 6276,
    "\ud5cc\uc2e0": 6277,
    "\u25811990": 6278,
    "\u2581ear": 6279,
    "\u2581location": 6280,
    "\u2581ocean": 6281,
    "\u2581\ub3cc\ub824": 6282,
    "\u2581\uba39\uace0": 6283,
    "\u2581\uc744\ub9ce\uc774": 6284,
    "\u2581\uc758\uc8c4": 6285,
    "\uadf8\ub9bc": 6286,
    "\u2581calm": 6287,
    "\u2581\ub2e8\uc5b4": 6288,
    "\u2581\ubb3c\uc744": 6289,
    "\u2581\uc2dc\ud0a4\uace0": 6290,
    "\u2581\uc5c6\ub178\ub77c": 6291,
    "\uc694\uc18c": 6292,
    "\u2581\ub9ce": 6293,
    "\uac10\uc815\uc801": 6294,
    "\u2581\uc9c0\uc6d0": 6295,
    "end": 6296,
    "\u2581affairs": 6297,
    "\u2581properly": 6298,
    "\u2581somewhere": 6299,
    "\u2581Move": 6300,
    "\u2581clergy": 6301,
    "\u2581favorite": 6302,
    "\u2581method": 6303,
    "\u2581recognized": 6304,
    "\u2581\ud658\uacbd": 6305,
    "\u2581June": 6306,
    "\u2581Spain": 6307,
    "\u2581\uadf8\ub9ac\uc2a4\ub3c4\uad50\uad6d": 6308,
    "\u2581\ube44\ub85d": 6309,
    "\u2581\uc758\uc885\uad50": 6310,
    "\u2581March": 6311,
    "\u2581speaks": 6312,
    "\u2581\ubaa8\ub974": 6313,
    "\uc561": 6314,
    "\ud604\uc0c1": 6315,
    "How": 6316,
    "\u2581anybody": 6317,
    "\u2581college": 6318,
    "\u2581ends": 6319,
    "\uc775": 6320,
    "\u258139": 6321,
    "\u2581medicine": 6322,
    "\u2581\uac00\uc788": 6323,
    "\u2581\ubd99": 6324,
    "\u2581\uc5d0\uad00\uc2ec": 6325,
    "\u2581\uc740\uacb0\ucf54": 6326,
    "\u2581\uc790\ub3d9\ucc28": 6327,
    "\ub098\uc05c": 6328,
    "\ud669": 6329,
    "\u2581Back": 6330,
    "\u2581compared": 6331,
    "\u2581tears": 6332,
    "\u2581\ubc29\ubb38": 6333,
    "\uc874\uacbd": 6334,
    "\u2581admit": 6335,
    "\u2581babies": 6336,
    "\u2581\uacf3\uc774": 6337,
    "\u2581\ubaa9\ub85d": 6338,
    "\uc8fc\uc138\uc694": 6339,
    "\u2581adults": 6340,
    "\u2581glass": 6341,
    "\uc704\uc6d0\ud68c": 6342,
    "\u2581audience": 6343,
    "\u2581contribute": 6344,
    "\uac70\ub77c": 6345,
    "\uacbd\ud5a5": 6346,
    "\uc57c\ub9cc": 6347,
    "\u2581\uc0b4\uace0": 6348,
    "\u2581associate": 6349,
    "\u2581\ube5b": 6350,
    "\ub0ae": 6351,
    "\u2581construction": 6352,
    "\u2581\uc560\uad7d": 6353,
    "\u2581\uc740\uc778\uac04": 6354,
    "\uc774\ud6c4": 6355,
    "\u2581dinner": 6356,
    "\u2581obviously": 6357,
    "\u2581weather": 6358,
    "\u2581\uc2dd\ubb3c": 6359,
    "\u2581\uc5bc\uad74": 6360,
    "\u2581\ucc98\ub9ac": 6361,
    "\uac04\uc808": 6362,
    "\u2581resources": 6363,
    "\uc774\ub77c\uba74": 6364,
    "\u2581co": 6365,
    "\u2581v": 6366,
    "\u2581\ub274\uc695": 6367,
    "\u2581\ub2f9\uc5f0\ud788": 6368,
    "\u2581\uacfc\ub294": 6369,
    "\u2581\ub9c8\uc138\uc694": 6370,
    "\u2581Ps": 6371,
    "\u2581obedience": 6372,
    "\u2581significant": 6373,
    "\u2581\uacfc\uac19\uc774\ub9d0": 6374,
    "\u2581\ub97c\ub9fa": 6375,
    "\u2581\uc131\uc7a5": 6376,
    "\uacb0\ud63c\uc0dd\ud65c": 6377,
    "\u25811960": 6378,
    "\u2581\uad6c\uc6d0": 6379,
    "\u2581\ub370\ub9ac\uace0": 6380,
    "\uc2b9\uc778": 6381,
    "\uc8fc\uc778": 6382,
    "\u2581worldly": 6383,
    "\u2581\uc2dc\ub3c4": 6384,
    "\u2581\uc99d\uac70": 6385,
    "\u2581\uc74c\uc2dd": 6386,
    "\uc870\uac01": 6387,
    "\u2581neighbors": 6388,
    "\u2581Hold": 6389,
    "\u2581\uc5c4\uccad\ub09c": 6390,
    "\u2581\ud655\uc2e0": 6391,
    "\uc2dc\ud0ac": 6392,
    "pe": 6393,
    "\uc2ed\ub2c8\uae4c": 6394,
    "\uc758\uc9c0": 6395,
    "\ucbe4": 6396,
    "\u2581demons": 6397,
    "\ub300\uac00": 6398,
    "\u2581sacrifices": 6399,
    "\u2581streets": 6400,
    "\u2581\ub204": 6401,
    "\u2581\uc774\ub9e4\uc6b0": 6402,
    "\uc9d1\uc548": 6403,
    "\ud134": 6404,
    "\u2581hidden": 6405,
    "\u2581secure": 6406,
    "\ubcf4\uace0\uc11c": 6407,
    "\uc57c\uc9c0": 6408,
    "\u2581shared": 6409,
    "\u2581translation": 6410,
    "\uc2e0\uacbd": 6411,
    "15": 6412,
    "\u2581Everyone": 6413,
    "\u2581gather": 6414,
    "\uc751": 6415,
    "\uc790\ub8cc\uc81c\uacf5": 6416,
    "\uba5c": 6417,
    "\uc774\uc5b4": 6418,
    "\ud558\uc2dc\uace0": 6419,
    "\u2581\ub420\ub54c": 6420,
    "\u2581\uc190\uc5d0": 6421,
    "\u2581\uc774\uc5bc\ub9c8\ub098": 6422,
    "\uadf8\ub9ac\uc2a4\ub3c4\uc778\ud68c\uc911": 6423,
    "\ubc30\uc6b0": 6424,
    "\uc804\uc801": 6425,
    "\u2581\uc804\uc138\uacc4": 6426,
    "\u2581\ucd94": 6427,
    "\u2581production": 6428,
    "\u2581\uc8fc\ub2d8": 6429,
    "\uc218\uc5c6\ub294": 6430,
    "60": 6431,
    "\u2581\uacc4\ud68d": 6432,
    "\u2581\uc0b6\uc744": 6433,
    "\u2581\uc2e0\uc774": 6434,
    "\u2581\uc5d0\ud574\ub2f9": 6435,
    "\ubc11": 6436,
    "\uc600\uc8e0": 6437,
    "\ud1f4": 6438,
    "\u2581Something": 6439,
    "\uc9c0\uc9c4": 6440,
    "\u2581\ub3c4\uad6c": 6441,
    "\u2581\ub9c8\uc74c\uc774": 6442,
    "\u2581\ub9f9\uc138": 6443,
    "\u2581\uc77c\uc774\uc57c": 6444,
    "\uc804\ud600": 6445,
    "\u2581Almighty": 6446,
    "\u2581credit": 6447,
    "\u2581critical": 6448,
    "\ub2f4\ub300": 6449,
    "\u2581comments": 6450,
    "\u2581heed": 6451,
    "\u2581\ub2f4": 6452,
    "\u2581\ube0c\ub77c\uc9c8": 6453,
    "\u2581\uc744\uc2dc\uc791": 6454,
    "\ub9cc\uc744": 6455,
    "\uc218\uc788\uc2b5\ub2c8\uae4c": 6456,
    "\u2581\ub97c\ubc1b\uc558\uc2b5\ub2c8\ub2e4": 6457,
    "\u2581\ub9c8\uac00": 6458,
    "\u2581\uc758\ud589\ub3d9": 6459,
    "\u2581obvious": 6460,
    "\u2581\ub450\ubc88\uc9f8": 6461,
    "\ub274": 6462,
    "\ubd88\uc644\uc804": 6463,
    "\u2581scared": 6464,
    "\u2581\uadf8\ub300\ub294": 6465,
    "\u2581\uc744\uac00\uc9c0": 6466,
    "\uc73c\ub2c8\uae4c": 6467,
    "land": 6468,
    "\u2581compare": 6469,
    "\u2581describe": 6470,
    "\u2581\uc654": 6471,
    "\ud588\ub2e4\uace0": 6472,
    "\u2581\ub3cc\uc544\uc624": 6473,
    "\ub0a8\ub140": 6474,
    "\u2581\ub5bc": 6475,
    "\u2581\uc2ec\uc7a5": 6476,
    "40": 6477,
    "\u2581\uacbd\uc81c": 6478,
    "\u2581\uc758\ubab8": 6479,
    "\uc7a5\uc774": 6480,
    "\ud3c9\uac00": 6481,
    "\u2581\uc758\ub2a5\ub825": 6482,
    "\uc9c0\ub2c8": 6483,
    "\u2581October": 6484,
    "\uc870\uc815": 6485,
    "\u2581dis": 6486,
    "\u2581iron": 6487,
    "\u2581views": 6488,
    "\u2581\uc628\uc804": 6489,
    "\uad11\uace0": 6490,
    "\ubc18\ub4dc\uc2dc": 6491,
    "\u2581flight": 6492,
    "\u2581sought": 6493,
    "\uc0c1\uc0c1": 6494,
    "\ud53c\ud574": 6495,
    "\u2581\ubd80\ud65c": 6496,
    "\u2581\uc744\uac15\uc870": 6497,
    "\u2581\uc2dc\ud3b8": 6498,
    "\uc0c1\ucc98": 6499,
    "\u2581station": 6500,
    "\u2581\ub418\uc8e0": 6501,
    "\uace0\ud55c\ub2e4": 6502,
    "\uae4a\uc774": 6503,
    "\ubd84\uc57c": 6504,
    "For": 6505,
    "\u2581\ub9cc\ub4e4\uace0": 6506,
    "\u2581\ud574\ubcf4\ub77c": 6507,
    "\uc2dc\ud3b8": 6508,
    "\u2581provision": 6509,
    "\u2581\ub2f9\uc2e0\uc5d0\uac8c": 6510,
    "\u2581\uc758\ud53c": 6511,
    "\ubaac": 6512,
    "\uc778\uc0c1": 6513,
    "\u2581\ube44\ud589\uae30": 6514,
    "\ub85c\uc368": 6515,
    "but": 6516,
    "\u2581opinion": 6517,
    "\u2581\uc8fd\uc5b4": 6518,
    "ph": 6519,
    "\u2581extremely": 6520,
    "\u2581\ub180\ub77c\uc6b4": 6521,
    "\u2581\uc778\uc77c": 6522,
    "\u2581\uc704\ub85c": 6523,
    "\u2581January": 6524,
    "\u2581agreed": 6525,
    "\u2581anywhere": 6526,
    "\uae30\ubcf8\uc801": 6527,
    "\ub0a9": 6528,
    "\u2581pride": 6529,
    "\u2581Mrs": 6530,
    "\u2581bound": 6531,
    "\uac00\uc2b4": 6532,
    "ru": 6533,
    "\u2581impressed": 6534,
    "\u2581\uc774\ub2c8": 6535,
    "\ub294\ubc29\ubc95": 6536,
    "\u2581\uac00\ub418\ub294": 6537,
    "\u2581\ud558\uc9c0\uc54a\uc740": 6538,
    "\u2581\uac00\uac8c": 6539,
    "\ubf08": 6540,
    "\u2581constantly": 6541,
    "\u2581\ub300\ud559": 6542,
    "\u2581\uc67c\ucabd": 6543,
    "\u2581\uc6a9": 6544,
    "\u2581noticed": 6545,
    "\u2581\uae30\ubd84": 6546,
    "\u2581\uc544\ube60\uac00": 6547,
    "\ub204\uad70\uac00": 6548,
    "\u2581decades": 6549,
    "\u2581excellent": 6550,
    "\u2581skills": 6551,
    "\uac83\uac19\ub2e4": 6552,
    "\ube44\uc544": 6553,
    "\uc2dc\uc7a5": 6554,
    "\uc758\ub85c\uc6b4": 6555,
    "\u2581\uc758\ud65c\ub3d9": 6556,
    "\u2581\ucc99": 6557,
    "\u2581worshipers": 6558,
    "izing": 6559,
    "\u2581determine": 6560,
    "\uc804\ub2ec": 6561,
    "\u25811/2": 6562,
    "\u2581bought": 6563,
    "\u2581guided": 6564,
    "\u2581\uc544\ube44": 6565,
    "\u2581\uc740\uc65c": 6566,
    "\ub2ec\ub9ac": 6567,
    "\u2581besides": 6568,
    "\ubaa8\ub4e0\uc77c": 6569,
    "\u2581allows": 6570,
    "\u2581\ubcf5": 6571,
    "\u2581\uc744\uadf9\ubcf5": 6572,
    "\u2581\ud574\uc8fc\ub294": 6573,
    "\uc8fc\uc758\uc790": 6574,
    "\ud558\ub77c\uace0": 6575,
    "\".": 6576,
    "\u258146": 6577,
    "\u2581industry": 6578,
    "\u2581\uae30\ubcf8": 6579,
    "\u2581\uc0dd\uc0b0": 6580,
    "\u2581\uc788\ub098": 6581,
    "\u2581\ud654\uba74": 6582,
    "\u2581essentially": 6583,
    "\u2581wake": 6584,
    "\u2581\uc228": 6585,
    "\u2581\uc544\ub2c8\uc694": 6586,
    "\u2581\ud558\uace0\uadf8": 6587,
    "\u2581situations": 6588,
    "\u2581\ub0b4\uc9c0": 6589,
    "80": 6590,
    ":%": 6591,
    "\u2581\ub9cc\uc744": 6592,
    "\u2581\uc5b4\ub514\uc5d0": 6593,
    "\u2581\ud574\uc904": 6594,
    "\ud558\uc2ec": 6595,
    "\u2581honey": 6596,
    "\u2581\ubb34\ub9ac": 6597,
    "\uc5c8\uc744": 6598,
    "\u258114;": 6599,
    "\u2581begins": 6600,
    "\u2581\uc5f4\uc5b4": 6601,
    "\u2581\uc758\uc2e0": 6602,
    "\u2581En": 6603,
    "\u2581\uadf8\ub300\uac00": 6604,
    "\u2581\ube4c": 6605,
    "\u2581\uc73c\ub85c\uc0ac\uc6a9": 6606,
    "\u2581\ud558\uc600\uc74d\ub2c8\uae4c": 6607,
    "\uc804\ub9dd": 6608,
    "\u2581Co": 6609,
    "\u2581TED": 6610,
    "\u2581studied": 6611,
    "\u2581height": 6612,
    "\u2581overseer": 6613,
    "\u2581\ub9c8\uc9c0\ub9c9\uc73c\ub85c": 6614,
    "\u2581\ube48": 6615,
    "\u2581tired": 6616,
    "\uc811": 6617,
    "\u2581sand": 6618,
    "\u2581\uc720\uc77c\ud55c": 6619,
    "\uac70\ub298": 6620,
    "\uace0\uc790": 6621,
    "\u2581\uc744\ub4e3\uace0": 6622,
    "\uc790\ub8cc": 6623,
    "\u2581\uc598\uae30\ub97c": 6624,
    "\u2581\uc804\uae30": 6625,
    "\u2581damn": 6626,
    "\u2581organized": 6627,
    "\u2581\uba74\uc0ac\uc9c4": 6628,
    "\u2581\uc544\ub2c8\uace0": 6629,
    "\u2581120": 6630,
    "\u2581\ud55c\uc9c0\uc2dd": 6631,
    "\uc9c0\ubd80": 6632,
    "\u2581rid": 6633,
    "\uc774\uc5c8\uc2b5\ub2c8\ub2e4": 6634,
    "\u2581\uc22b\uc790": 6635,
    "AR": 6636,
    "\u2581\ubd88\uc2e0": 6637,
    "\u2581illness": 6638,
    "\u2581\ubc14\ub77c": 6639,
    "\u2581\uc624\ub294": 6640,
    "\ub9c8\ub9ac\uc544": 6641,
    "\uc758\ubb34": 6642,
    "\u2581\ud574\uc900\ub2e4": 6643,
    "\ub7fc": 6644,
    "\ub9c8\uc9c0\ub9c9\ub0a0": 6645,
    "\uc2a4\ud0c0": 6646,
    "\u2581patience": 6647,
    "\u2581winter": 6648,
    "\u2581\uc744\ubbff": 6649,
    "\u2581plans": 6650,
    "\u2581\ud558\uc9c0\uc54a\ub294": 6651,
    "\ub193": 6652,
    "\u2581horse": 6653,
    "\u2581\uc678\uc5d0": 6654,
    "\uae30\uc6d0\uc804": 6655,
    "\ub2c8\uc544": 6656,
    "\ucc28\uc774": 6657,
    "\u258126.": 6658,
    "\u2581Hell": 6659,
    "\u2581Through": 6660,
    "\uc624\ub294": 6661,
    "hether": 6662,
    "ub": 6663,
    "\ub824\uace0\ub178\ub825": 6664,
    "\u2581illustration": 6665,
    "\ud608\uc561": 6666,
    "\u00e9": 6667,
    "\u2581ruler": 6668,
    "\u2581\ub9cc\uc871": 6669,
    "\ubca0\ub4dc\ub85c": 6670,
    "\uc544\ub9c8": 6671,
    "\u2581missionaries": 6672,
    "\u2581otherwise": 6673,
    "\uc54c\ub824\uc900\ub2e4": 6674,
    "\uc870\uae08": 6675,
    "\ud3c9\uade0": 6676,
    "\u2581July": 6677,
    "\uac10\ub3c5\uc790": 6678,
    "\ub4e4\ub85c": 6679,
    "\u2581\uad00\uacc4": 6680,
    "\u2581burning": 6681,
    "\u2581elderly": 6682,
    "\u2581spring": 6683,
    "\u2581\uc8fc\uace0": 6684,
    "\uac8c\ub418\uba74": 6685,
    "\uad8c\ub9ac": 6686,
    "\ub9ac\uace0": 6687,
    "\uc790\ub77c": 6688,
    "\u2581\uae68": 6689,
    "\u2581\ud2b8": 6690,
    "\uc816": 6691,
    "\u2581mothers": 6692,
    "\u2581verse": 6693,
    "\u2581shalt": 6694,
    "\u2581\uad70\ub300": 6695,
    "\u2581\ub2e8\uacc4": 6696,
    "\u2581Mo": 6697,
    "\u2581career": 6698,
    "\u2581instruction": 6699,
    "\u2581\uac00\ub418\uc5c8\ub2e4": 6700,
    "\uc624\ub7ab\ub3d9\uc548": 6701,
    "\uc9f8": 6702,
    "\u2581\ud55c\uc0ac\uc2e4": 6703,
    "\u2581\ud569": 6704,
    "\u2581\uc758\ubd09\uc0ac": 6705,
    "\u2581\ud588\uc73c\uba70": 6706,
    "\ubb3c\uace0\uae30": 6707,
    "\ud589\ub85c": 6708,
    "der": 6709,
    "\u2581preached": 6710,
    "\u2581\ubab0\ub77c\uc694": 6711,
    "\u2581\ud14c": 6712,
    "\uc0c8\ub85c": 6713,
    "\ucda9": 6714,
    "\ub098\ub294": 6715,
    "\ub118": 6716,
    "\ub2e4\uc12f": 6717,
    "\ud559\ub300": 6718,
    "\u2581Up": 6719,
    "\u2581\uc810\uc810": 6720,
    "IN": 6721,
    "\u2581receiving": 6722,
    "\u2581\uc57c\uacf1": 6723,
    "\uc18c\uc11c": 6724,
    "da": 6725,
    "\u2581Z": 6726,
    "\u2581verses": 6727,
    "\u2581\ub97c\ud0c0\uace0": 6728,
    "\u2581\uc0dd\ud65c": 6729,
    "\u2581\uc5d0\uc774\ub974\uae30": 6730,
    "\u2581diet": 6731,
    "\u2581Canno": 6732,
    "\u2581\ubc15": 6733,
    "\u2581\ud574\ubcf4\uc790": 6734,
    "\uc218\ub85d": 6735,
    "\u258100:": 6736,
    "\u2581pounds": 6737,
    "\u2581referred": 6738,
    "\u2581\uc0ac\ub9dd": 6739,
    "\u2581\ud6cc\ub96d": 6740,
    "\uc601\uc5b4": 6741,
    "au": 6742,
    "\u258116;": 6743,
    "\u2581innocent": 6744,
    "\u2581\uc744\ub530\ub974": 6745,
    "\uc758\ud559": 6746,
    "\u2581\ubd09\uc0ac": 6747,
    "\uc545\ud654": 6748,
    "\u2581Family": 6749,
    "\u2581absolutely": 6750,
    "\u2581ride": 6751,
    "\u2581\ud37c": 6752,
    "\u2581\ud558\uace0\uc790": 6753,
    "\u2581\ud604": 6754,
    "\uc989\uc2dc": 6755,
    "\u2581Fuck": 6756,
    "\u2581verily": 6757,
    "\ub113": 6758,
    "\u2581\uc744\ub9c9": 6759,
    "\uac01\uac01": 6760,
    "\u2581!": 6761,
    "\u2581funny": 6762,
    "\u2581\uadf8\ub300\uc758": 6763,
    "\u2581goals": 6764,
    "\u2581\uc5d4": 6765,
    "\u2581bearing": 6766,
    "\u2581\uac74\ubb3c": 6767,
    "\u2581\uc744\ubd84\uba85": 6768,
    "\u2581\uccb4": 6769,
    "\u2581\ucd5c\uace0\uc758": 6770,
    "\u2581\ud55c\ud0dc\ub3c4": 6771,
    "\uc9dd": 6772,
    "\u2581prophecies": 6773,
    "\u2581\ube44\ub514\uc624": 6774,
    "\uac14\ub2e4": 6775,
    "\u2581\ud569\uc2dc\ub2e4": 6776,
    "\uae40": 6777,
    "\u2581\ucc3e\ub294": 6778,
    "\u2581\ud558\uc9c0\uc54a\uc2b5\ub2c8\ub2e4": 6779,
    "\u2581Synchronising": 6780,
    "\u2581Tim": 6781,
    "\u2581\ubbf8\ub9ac": 6782,
    "\u2581\ube0c": 6783,
    "lic": 6784,
    "\u2581River": 6785,
    "\u2581\uc624\uc2a4\ud2b8\ub808\uc77c\ub9ac\uc544": 6786,
    "\ubc1c\ud45c": 6787,
    "\u2581reaction": 6788,
    "\u2581tend": 6789,
    "\u2581truths": 6790,
    "\u2581\ubd80\uc871": 6791,
    "\u2581\ud55c\ud615\ud0dc": 6792,
    "\u2581describes": 6793,
    "\u2581\ub77c\ub3c4": 6794,
    "\u2581beast": 6795,
    "\u2581\uc744\uc694\uad6c": 6796,
    "\u2581\uc870\uc9c0": 6797,
    "\u2581\ud55c\uc9c8\ubb38": 6798,
    "\uc790\ub294": 6799,
    "*": 6800,
    "\u2581host": 6801,
    "\u2581\uae00": 6802,
    "\u2581\uc2dc\uc7a5": 6803,
    "\uc9c0\uce68": 6804,
    "\u2581pleased": 6805,
    "\u2581\ub73b\uc774": 6806,
    "\uad70\ub300": 6807,
    "\u2581adult": 6808,
    "\uc704\ub300": 6809,
    "\u2581Red": 6810,
    "\u2581carbon": 6811,
    "\u2581compassion": 6812,
    "\u2581distress": 6813,
    "\u2581\uc774\ub0b4": 6814,
    "\u2581\uc774\uc5c6\ub2e4": 6815,
    "\u2581\uc774\uc640": 6816,
    "\u2581impact": 6817,
    "\u2581\ub9c8\uc2dc": 6818,
    "\u2581\ud544\uc694\ud574": 6819,
    "\u2581\uc124\uce58": 6820,
    "\uc644": 6821,
    "ier": 6822,
    "\u2581\ub418\uba70": 6823,
    "\ubb38\ud654": 6824,
    "\uc8fc\uc81c": 6825,
    "\ucc99": 6826,
    "\u2581starts": 6827,
    "\u2581\uad00\ub9ac": 6828,
    "\uc57d\uac04": 6829,
    "\u2581Isaac": 6830,
    "\u2581\ub2a5\ub825": 6831,
    "\u2581\uc744\ucd08\ub798": 6832,
    "\u2581\ud55c\uc9c0": 6833,
    "\ubfcc\ub9ac": 6834,
    "\u258127.": 6835,
    "\u2581losing": 6836,
    "\uadfc\uac70": 6837,
    "\uc2f1": 6838,
    "\uc90d\ub2c8\ub2e4": 6839,
    "\u2581\uc26c": 6840,
    "\u2581\uc5d0\uc2a4\uac94": 6841,
    "\u2581\uc744\ub4e3": 6842,
    "\uc0c1\uc9d5\uc801": 6843,
    "\uc2dc\ub2c8": 6844,
    "\u2581\uc744\uc22d\ubc30": 6845,
    "\u2581\uc774\uc2e0": 6846,
    "\ubb34\ub835": 6847,
    "\u25810.": 6848,
    "\u2581screen": 6849,
    "\u2581\uc785\ub825": 6850,
    "\u2581superior": 6851,
    "\u2581\ubbf8\uc548": 6852,
    "\u2581\uc744\uae30\ub300": 6853,
    "\uae30\uac00": 6854,
    "\u2581Furthermore": 6855,
    "\u2581bigger": 6856,
    "\u2581reject": 6857,
    "\u2581subjects": 6858,
    "\u2581\uc758\ud798": 6859,
    "\u2581\uc7a0\uae50\ub9cc": 6860,
    "\u2581Evolution": 6861,
    "\u2581\uc870\uac01": 6862,
    "\uc720\ub2e4": 6863,
    "\u2581indicates": 6864,
    "\u2581\ub098\uba38\uc9c0": 6865,
    "\u2581\uc744\ucc3e\uc544": 6866,
    "ator": 6867,
    "bi": 6868,
    "\u2581Sure": 6869,
    "\u2581fields": 6870,
    "\u2581acting": 6871,
    "\u2581\ub514\ubaa8\ub370": 6872,
    "\uc131\uc744": 6873,
    "\u2581Land": 6874,
    "\u2581traditional": 6875,
    "\ud305": 6876,
    "\u2581reign": 6877,
    "\u2581\uc2dc\ucf1c\uc8fc": 6878,
    "\ub2ec\ub77c\uace0": 6879,
    "\ub9b0\ub2e4": 6880,
    "\uc778\uad6c": 6881,
    "\uc885\uc885": 6882,
    "\u2581\uce35": 6883,
    "\u2581(19": 6884,
    "\u2581obedient": 6885,
    "\u2581\ub9d9\uc18c\uc0ac": 6886,
    "\u2581\uc758\uae30\ub3c4": 6887,
    "\u2581\uc9d1\uc744": 6888,
    "\u2581\uc885\uc885": 6889,
    "\ud2b9\uc9d5": 6890,
    "\u2581quoted": 6891,
    "\u2581\ub97c\uc8fc": 6892,
    "\u2581\uc758\uacb0\uacfc": 6893,
    "\uc13c": 6894,
    "\u2581Stay": 6895,
    "\u2581\uc774\uc5b4": 6896,
    "\u2581\ucc9c\uc0ac": 6897,
    "\uc6e0": 6898,
    "\u2581\ud574\uc90d\ub2c8\ub2e4": 6899,
    "\uac1c\ubc1c": 6900,
    "\u2581\ubd80\uc815": 6901,
    "\u2581\uc774\uc131\uc11c": 6902,
    "\u2581\ud558\uac8c\ub418\uc5c8\uc2b5\ub2c8\ub2e4": 6903,
    "\ub450\uc0ac\ub78c": 6904,
    "\uc9c0\uc544\ub2c8\ud558": 6905,
    "\u2581International": 6906,
    "\u2581lasting": 6907,
    "\u2581\ub300\ud1b5\ub839": 6908,
    "\u2581\ud06c\ub9ac\uc2a4": 6909,
    "\u2581paying": 6910,
    "\uace0\ucc29": 6911,
    "\ubaa8\ub4e0\ub098\ub77c": 6912,
    "\uc5c8\ub358\uac83": 6913,
    "\uc788\uc74d\ub2c8\uae4c": 6914,
    "\u2581dance": 6915,
    "\u2581tax": 6916,
    "\u2581\uc5ec\ud638\uc640\ud558\ub098\ub2d8": 6917,
    "\u2581\uc758\ud0dc\ub3c4": 6918,
    "\u2581bones": 6919,
    "\u2581remarkable": 6920,
    "\uc591\uc2ec": 6921,
    "Why": 6922,
    "\u2581objects": 6923,
    "\u2581wilderness": 6924,
    "\u2581\uadf8\ubd84\uc774": 6925,
    "\u2581\uc9d1\uc5d0\uc11c": 6926,
    "\uac01\uc790": 6927,
    "\uc9c4\ud589": 6928,
    "\u2581\ubcc0\uacbd": 6929,
    "\u2581\uac00\ub09c": 6930,
    "\u2581\uccad": 6931,
    "\u2581acceptable": 6932,
    "\u2581\uadf8\ub9ac\uace0\uadf8": 6933,
    "\u2581\uc8fc\uc138\uc694": 6934,
    "\u2581\ud559\uc0dd": 6935,
    "\u2581legs": 6936,
    "\u2581relations": 6937,
    "\u2581season": 6938,
    "\uce58\uace0": 6939,
    "\uce6d\ucc2c": 6940,
    "70": 6941,
    "\u2581replied": 6942,
    "\u2581\uc788\uc5c8\uc8e0": 6943,
    "\u2581shepherd": 6944,
    "\u2581\uc11c\ub458\ub7ec": 6945,
    "\uc9c0\ub300": 6946,
    "\u2581Biblical": 6947,
    "\u2581tribe": 6948,
    "\u2581\uba70": 6949,
    "\uacb0\ub860": 6950,
    "\ud504\ub791\uc2a4": 6951,
    "\ud558\uaca0\uc2b5\ub2c8\ub2e4": 6952,
    "\u25811000": 6953,
    "\u2581Empire": 6954,
    "\u2581commit": 6955,
    "\u2581\uc5c6\ub2e4\ub294": 6956,
    "\ud0c1\uc6d4": 6957,
    "\ud589\uc2e4": 6958,
    "\u2581burn": 6959,
    "\u2581\ub7f0\ub358": 6960,
    "\u2581\uce74\uba54\ub77c": 6961,
    "\u2581\uaed8\uc11c\uc790\uc2e0": 6962,
    "\u2581\ub514\uc790\uc778": 6963,
    "\uc11c\ub294": 6964,
    "\ud0dd": 6965,
    "iv": 6966,
    "\u2581Add": 6967,
    "\u2581\ub420\uae4c\uc694": 6968,
    "\u2581\uba78\ub9dd": 6969,
    "\uae30\ub294": 6970,
    "\uc9c0\uc2dc": 6971,
    "\u2581conflict": 6972,
    "\u2581immorality": 6973,
    "\u2581salt": 6974,
    "\u2581\uc758\ub2e4\ub978": 6975,
    "\u2581\ud558\ub294\ubc14": 6976,
    "\ub098\uba38\uc9c0": 6977,
    "\uc9c4\uc2ec": 6978,
    "\u2581Note": 6979,
    "\u2581\ubbf8\uce5c": 6980,
    "\uc5fc": 6981,
    "\u2581\uc744\ub5a0\ub098": 6982,
    "\ud658\uc0c1": 6983,
    "\u2581cars": 6984,
    "\u2581closed": 6985,
    "\u2581\uc624\ub978\ucabd": 6986,
    "\u2581\uc9c0\uc0c1": 6987,
    "\u2581territory": 6988,
    "\u2581\ub4e0\uc9c0": 6989,
    "\u2581\ub97c\ucc3e": 6990,
    "\u258135.": 6991,
    "\u2581beneficial": 6992,
    "\u2581invisible": 6993,
    "\u2581\ubc24\uc5d0": 6994,
    "\u2581\ud558\ub2e4\uace0": 6995,
    "\ubcc4\ub85c": 6996,
    "\uc5b8\uc81c\ub098": 6997,
    "\u2581\uc73c\ub85c\uc778\ub3c4": 6998,
    "den": 6999,
    "\u2581Faith": 7000,
    "\u2581Rev": 7001,
    "\u2581title": 7002,
    "\u2581\uc758\uc778\ub3c4": 7003,
    "\u2581\ubc18\ubcf5": 7004,
    "\u2581\uc758\ubb38": 7005,
    "\u2581\uc774\uc544\ub2cc": 7006,
    "\uc2e0\uc790": 7007,
    "\ucd5c\uc120": 7008,
    "\u2581Sam": 7009,
    "\uc9c8\uac83": 7010,
    "\u2581\uc778\uc0ac\ub78c": 7011,
    "\u2581\ud560\uc218\uc5c6\ub294": 7012,
    ")...": 7013,
    "\u2581plain": 7014,
    "\uaed8\uc11c": 7015,
    "\uc8fc\ubbfc": 7016,
    "\u2581\ubc1c\uc804": 7017,
    "\u2581\uc0c1\ud669": 7018,
    "\u2581\uc774\uc0c1\ud55c": 7019,
    "\u2581\uccab\uc9f8": 7020,
    "\ubbf8\ud130": 7021,
    "\u258131.": 7022,
    "\u2581loyalty": 7023,
    "\u2581\uc744\uc77d": 7024,
    "\ub355": 7025,
    "\u2581Latin": 7026,
    "\u2581messages": 7027,
    "\u2581represent": 7028,
    "\u2581victory": 7029,
    "\u2581\ub97c\ub098\ud0c0\ub0b4": 7030,
    "\u2581fix": 7031,
    "\u2581performed": 7032,
    "\u2581\ub97c\uc774\ud574": 7033,
    "\u2581\uc608\uc5b8\uc790": 7034,
    "\uac1c\uc120": 7035,
    "\uafbc": 7036,
    "mp": 7037,
    "\u2581burned": 7038,
    "\u2581officials": 7039,
    "\u2581\ub300\ubd80\ubd84\uc758": 7040,
    "\u2581\ub3c4\ud569\ub2c8\ub2e4": 7041,
    "\u2581\uc740\ud61c": 7042,
    "\u2581\uc758\uae4a\uc774": 7043,
    "\ub5a0\ub098": 7044,
    "\ub838\ub2e4": 7045,
    "\u2581\ube4c\ub9bd\ubcf4": 7046,
    "\u2581\uc601\uc6d0": 7047,
    "\u2581\uc77c\ubc18": 7048,
    "\ub300\uc2e0": 7049,
    "\u258122:": 7050,
    "\u2581harvest": 7051,
    "\u2581\uae30\uacc4": 7052,
    "\u2581\uc0dd\uba85\uc744": 7053,
    "\u2581\uc758\uc601\uad11": 7054,
    "\u2581\uc790\ub9ac": 7055,
    "\u2581Spirit": 7056,
    "\u2581strengthen": 7057,
    "\u2581\uc0ac\uc5c5": 7058,
    "\u2581\uc758\uac00\uce58": 7059,
    "\uc8fc\uc2e4\uac83": 7060,
    "\u2581Aaron": 7061,
    "\u2581\ubd84\uba85\ud788": 7062,
    "\u2581\uc774\uc5ec": 7063,
    "\u2581\ud504\ub85c\uc81d\ud2b8": 7064,
    "\uc73c\uc168": 7065,
    "\u2581crisis": 7066,
    "\u2581spot": 7067,
    "\u2581\uae34": 7068,
    "\uac70\uc9d3\ub9d0": 7069,
    "\u2581\ub9d0\uc774\uc5d0\uc694": 7070,
    "\u2581\uc774\ud6c4": 7071,
    "\uc4f4": 7072,
    "\u2581Gilead": 7073,
    "\u2581sing": 7074,
    "\u2581\ub098\uc624": 7075,
    "\u2581\ub2e4\uc74c\uc5d0": 7076,
    "16": 7077,
    "\u2581items": 7078,
    "\u2581temperature": 7079,
    "\u2581\uc740\ub2e4\ub978\uc0ac\ub78c": 7080,
    "\u2581\uc744\uad6c\ud558": 7081,
    "\u2581\uc885\uc774": 7082,
    "\uac00\uc694": 7083,
    "\ud574\uc57c\ud569\ub2c8\uae4c": 7084,
    "\u2581\uac00\ud558\ub290\ub2d8": 7085,
    "\u2581\ud3ed\ub825": 7086,
    "\ub294\uac78": 7087,
    "\ub4ed": 7088,
    "ag": 7089,
    "\u2581Clearly": 7090,
    "\u2581claims": 7091,
    "\u2581\uad00\ub828": 7092,
    "\u2581\uc2dc\ud0a8\ub2e4": 7093,
    "\u2581\uc5d0\ub300\ucc98": 7094,
    "\uc218\ub3c4": 7095,
    "\ud558\ub2c8\ub77c": 7096,
    "\u2581track": 7097,
    "\u2581\uce5c": 7098,
    "ot": 7099,
    "\u2581\ub354\uc774\uc0c1": 7100,
    "\u2581\ubd81": 7101,
    "\u2581hardly": 7102,
    "\u2581\uc12c": 7103,
    "\u2581\uc73c\ub85c\ub098": 7104,
    "\uc2e0\uccb4": 7105,
    "\ud6e8\uc52c\ub354": 7106,
    "\u2581secular": 7107,
    "\u2581\ub85c\uc0ac\uc6a9": 7108,
    "\u2581\uc5d0\ud558\ub098\ub2d8": 7109,
    "\u2581\uc758\uc18c\uc2dd": 7110,
    "\uc720\ub300": 7111,
    "\ud1a4": 7112,
    "\u2581Besides": 7113,
    "\u2581map": 7114,
    "\u2581\ubb54\uc9c0": 7115,
    "\ucc3e\uc544": 7116,
    "\u2581President": 7117,
    "\u2581Fine": 7118,
    "\u2581rivers": 7119,
    "\u2581\ub9e8": 7120,
    "\u2581\uc778\uad6c": 7121,
    "\u2581\uc811": 7122,
    "\u2581Welcome": 7123,
    "\u2581closely": 7124,
    "\u2581survey": 7125,
    "\u2581\uc8fd": 7126,
    "\u2581refuge": 7127,
    "\ub9c8\uce68\ub0b4": 7128,
    "\u2581hatred": 7129,
    "\u2581\uadf8\ub7ec\uc790": 7130,
    "\u2581prefer": 7131,
    "\u2581puts": 7132,
    "\u2581\uc758\uba85\ub839": 7133,
    "not": 7134,
    "\u2581emotions": 7135,
    "\u2581\ubcf5\uc0ac": 7136,
    "\u2581\uc21c\uc885": 7137,
    "\u2581\uc744\ud55c\ub2e4": 7138,
    "\uc774\uc77c": 7139,
    "\u2581teeth": 7140,
    "\u2581urged": 7141,
    "\u2581\ucc38\uc870": 7142,
    "\uac00\uc9c0\uace0": 7143,
    "\ubb35\uc0c1": 7144,
    "\u2581altar": 7145,
    "\u2581hungry": 7146,
    "\u2581post": 7147,
    "\u2581\ub5a8\uc5b4\uc838": 7148,
    "\u2581\ub97c\uac00\uc9c0\uace0": 7149,
    "\u2581California": 7150,
    "\u2581device": 7151,
    "\uad6c\uc131": 7152,
    "\ube44\uc720": 7153,
    "\uc7a0\uc5b8": 7154,
    "\ud558\ub2e4\uace0": 7155,
    "ber": 7156,
    "\u2581circle": 7157,
    "\u2581\ub97c\ubc1b\uc558\ub2e4": 7158,
    "\u2581\uc5d0\ub300\ud55c\ubbff\uc74c": 7159,
    "\u2581\ucc3e\uace0": 7160,
    "\u2581\ud558\ub294\ubc95": 7161,
    "\u2581elements": 7162,
    "\u2581\ubc16\uc73c\ub85c": 7163,
    "\u2581\uc0ac\ub78c\uc5d0\uac8c": 7164,
    "\u2581\uc9c8\ubb38\uc744": 7165,
    "\u2581\uc5d0\uc0ac\uc6a9": 7166,
    "\u2581\uc740\ud589": 7167,
    "\u2581\uc758\uc758\ubbf8": 7168,
    "\uacbd\uacc4": 7169,
    "\ub354\ub098\uc740": 7170,
    "\u2581contain": 7171,
    "\u2581\uc774\uc720\uac00": 7172,
    "\uc9c0\ubaa8\ub985\ub2c8\ub2e4": 7173,
    "\ud558\uc0ac": 7174,
    "\u2581Verily": 7175,
    "\u2581\ub77c\ub294\ub9d0": 7176,
    "\u2581\uc774\uc77c\uc5b4\ub098": 7177,
    "\u2581\ud574\uc654\ub2e4": 7178,
    "\u2581push": 7179,
    "\u2581spending": 7180,
    "\u2581\uba38": 7181,
    "\u2581\uc744\ubc30\uc6b0": 7182,
    "\ud560\uc218\uc788\ub294": 7183,
    "\u25811919": 7184,
    "\u2581\uc744\uac00\uc9c4\uc0ac\ub78c": 7185,
    "\u2581\ubc29\ubc95\uc73c\ub85c": 7186,
    "\u2581cup": 7187,
    "\uc8fd\uc784": 7188,
    "\u2581believing": 7189,
    "\u2581sovereignty": 7190,
    "\ubbff": 7191,
    "\uc788\uc5c8\uc2b5\ub2c8\ub2e4": 7192,
    "22:": 7193,
    "\u2581goodness": 7194,
    "\u2581remaining": 7195,
    "\uc2ac\ud514": 7196,
    "\uc6b0\ub824": 7197,
    "\u2581marvelous": 7198,
    "\uadf8\uc5ec\uc790": 7199,
    "\u2581prospect": 7200,
    "\ub9c8\ub9ac": 7201,
    "\uac71\uc815": 7202,
    "\uc81c\uacf1": 7203,
    "\u2581ought": 7204,
    "\u2581publications": 7205,
    "\u2581react": 7206,
    "\u2581seat": 7207,
    "\uad50\uc218": 7208,
    "\u2581\ub9c8\uc74c\uc5d0": 7209,
    "\u2581\uc0ac\uac74": 7210,
    "\u2581\uc2b9\ub9ac": 7211,
    "\uc788\uc744\uac83": 7212,
[...]
