{
    "</s>": 0,
    "<unk>": 1,
    ".": 2,
    ">>vie<<": 3,
    ",": 4,
    "\u2581-": 5,
    "?": 6,
    "\u2581the": 7,
    "'": 8,
    "\u2581I": 9,
    "\u2581to": 10,
    "s": 11,
    "\u2581you": 12,
    "\u2581of": 13,
    "\u2581l\u00e0": 14,
    "\u2581a": 15,
    "\u2581kh\u00f4ng": 16,
    "!": 17,
    "\u2581c\u00f3": 18,
    "\u2581and": 19,
    "\u2581t\u00f4i": 20,
    "\u2581c\u1ee7a": 21,
    "\u2581in": 22,
    "\u2581ta": 23,
    "\u2581that": 24,
    "\u2581v\u00e0": 25,
    "\u2581ng\u01b0\u1eddi": 26,
    "\u2581m\u1ed9t": 27,
    "...": 28,
    "t": 29,
    "\u2581\u0111\u00e3": 30,
    "\u2581it": 31,
    "\u2581is": 32,
    "-": 33,
    "\u2581cho": 34,
    "\u2581s\u1ebd": 35,
    "\u2581\u0111\u01b0\u1ee3c": 36,
    "\u2581anh": 37,
    "\u2581ch\u00fang": 38,
    "\u2581\u0111\u00f3": 39,
    "\u2581l\u00e0m": 40,
    "\u2581T\u00f4i": 41,
    "\u2581g\u00ec": 42,
    "\u2581for": 43,
    "\u2581n\u00e0y": 44,
    "\u2581\u0111i": 45,
    "\u2581nh\u1eefng": 46,
    "\u2581trong": 47,
    "\u2581th\u1ec3": 48,
    "\u2581You": 49,
    "\u2581v\u1edbi": 50,
    "\u2581ph\u1ea3i": 51,
    "\u2581me": 52,
    ":": 53,
    "\u2581be": 54,
    "\u2581we": 55,
    "\u2581on": 56,
    "\u2581ra": 57,
    "\u2581n\u00f3i": 58,
    "\u2581\u201c": 59,
    "_": 60,
    "\u2581have": 61,
    "\u2581\u1edf": 62,
    "\u2581this": 63,
    "\u2581was": 64,
    "\u2581not": 65,
    "\u2581c\u00e1c": 66,
    "\u2581s\u1ef1": 67,
    "\u2581with": 68,
    "\u2581bi\u1ebft": 69,
    "\u2581th\u1ebf": 70,
    "\u2581do": 71,
    "\u2581l\u1ea1i": 72,
    "m": 73,
    "\u2581\u0111\u1ebfn": 74,
    "\u2581r\u1ed3i": 75,
    "\u2581con": 76,
    "\u2581\u0111\u1ec3": 77,
    "\u2581are": 78,
    "\u2581your": 79,
    "\u2581nh\u01b0": 80,
    "\u2581n\u00e0o": 81,
    "\u2581he": 82,
    "\u2581m\u00e0": 83,
    "\u2581v\u1ec1": 84,
    "\u2581my": 85,
    "re": 86,
    "\u2581n\u00f3": 87,
    "\u2581Anh": 88,
    "\u2581can": 89,
    "\u2581\u0111\u00e2y": 90,
    "\u2581khi": 91,
    "\u2581sao": 92,
    "\u2581\u201d": 93,
    "\u2581What": 94,
    "\u2581c\u00f4": 95,
    "\u2581\u1ea5y": 96,
    "\u2581h\u1ecd": 97,
    "\u2581It": 98,
    "\u2581his": 99,
    "\u2581The": 100,
    "\u2581Ch\u00faa": 101,
    "\u2581And": 102,
    "\u2581\u00f4ng": 103,
    "\u2581what": 104,
    "\u2581all": 105,
    "\u2581know": 106,
    "\u2581em": 107,
    "\u2581Gi\u00ea": 108,
    "\u2581,": 109,
    "\u2581m\u00ecnh": 110,
    "\u2581th\u1ea5y": 111,
    "\u2581they": 112,
    "\u2581will": 113,
    "\u2581mu\u1ed1n": 114,
    "\u2581\u0111ang": 115,
    "\u2581vi\u1ec7c": 116,
    "\u2581\"": 117,
    "\u2581b\u1ea1n": 118,
    "\u2581th\u00ec": 119,
    "\u2581him": 120,
    "\u2581\u0110\u1ee9c": 121,
    "\u2581c\u0169ng": 122,
    "\u2581\u0111i\u1ec1u": 123,
    "\u2581v\u00e0o": 124,
    "\u2581v\u1eady": 125,
    "\u2581as": 126,
    "\u2581c\u1ea3": 127,
    "\u2581b\u1ecb": 128,
    "\u2581Kh\u00f4ng": 129,
    "\u2581We": 130,
    "\u2581out": 131,
    "\u2581c\u00e1i": 132,
    "\u2581from": 133,
    "\u2581Ch\u00fang": 134,
    "\u2581at": 135,
    "\u2581one": 136,
    "\u2581v\u00ec": 137,
    "\u2581about": 138,
    "\u2581ch\u1ec9": 139,
    ";": 140,
    "\u2581up": 141,
    "\u2581don": 142,
    "\u2581r\u1eb1ng": 143,
    "\u2581God": 144,
    "\u2581an": 145,
    "\u2581like": 146,
    "\u2581them": 147,
    "\u2581just": 148,
    "\u2581He": 149,
    "\u2581\u2014": 150,
    "\u2581there": 151,
    "\u2581here": 152,
    "\u2581t\u1eeb": 153,
    "\u2581so": 154,
    "\u2581\u0111\u00e2u": 155,
    "\u2581c\u00f2n": 156,
    "ll": 157,
    "\u2581c\u1eadu": 158,
    "\u2581ngh\u0129": 159,
    "\u2581tr\u00ean": 160,
    "\u2581gi\u1edd": 161,
    "\u2581V\u00e0": 162,
    "\u2581by": 163,
    "\u2581but": 164,
    "\u2019": 165,
    "\u2581th\u00e0nh": 166,
    "\u2581get": 167,
    "\u25811": 168,
    "\u2581h\u01a1n": 169,
    "\u2581us": 170,
    "\u2581chuy\u1ec7n": 171,
    "\u2581Tr\u1eddi": 172,
    "\u2581C\u00f3": 173,
    "\u2581who": 174,
    "\u2581right": 175,
    "\u2581kh\u00e1c": 176,
    "\u2581(": 177,
    "\u2581nhi\u1ec1u": 178,
    "\u2581tin": 179,
    "\u2581nh\u00e0": 180,
    "\u2581go": 181,
    "\u2581c\u1ea7n": 182,
    "\u2581h\u00f4": 183,
    "\u2581her": 184,
    "\u2581th\u1eadt": 185,
    "\u2581\u0111\u1ea7u": 186,
    "\u2581n\u1eefa": 187,
    "\u2581no": 188,
    "\u2581r\u1ea5t": 189,
    "\u2581n\u00ean": 190,
    "\u2581our": 191,
    "\u2581c\u00f9ng": 192,
    "\u2581c\u00e1ch": 193,
    "\u2581were": 194,
    "\u2581c\u00f4ng": 195,
    ")": 196,
    "\u2581or": 197,
    "\u2581s\u1ed1ng": 198,
    "\u2581nh\u01b0ng": 199,
    "\u2581Nh\u01b0ng": 200,
    "d": 201,
    "\u2581That": 202,
    "\u2581ai": 203,
    "\u2581But": 204,
    "\u2581A": 205,
    "\u2581if": 206,
    "\u2581their": 207,
    "\u2581l\u00ean": 208,
    "\u2581had": 209,
    "\u2581theo": 210,
    "\u2581l\u1eddi": 211,
    "\u2581va": 212,
    "\u2581th\u1ee9": 213,
    "\u2581tr\u01b0\u1edbc": 214,
    "ve": 215,
    "\u2581\u201d.": 216,
    "\u2581Jehovah": 217,
    "\u2581So": 218,
    "\u2581\u0111\u1ea5y": 219,
    "\u2581th\u00f4i": 220,
    "\u2581ng\u00e0y": 221,
    "\u2581time": 222,
    "\u2581No": 223,
    "\u2581C\u00f4": 224,
    "\u2581.": 225,
    "\u2581people": 226,
    "\u2581would": 227,
    "\u2581quan": 228,
    "\u0301": 229,
    "\u2581want": 230,
    "\u2581when": 231,
    "i": 232,
    "\u2581ng\u01b0\u01a1i": 233,
    "\u2581m\u1ecdi": 234,
    "\u2581Ng\u00e0i": 235,
    "\u2581did": 236,
    "\u2581n\u01a1i": 237,
    "\u2581think": 238,
    "\u2581see": 239,
    "\u2581got": 240,
    "\u2581now": 241,
    "\u2581t\u00ecm": 242,
    "\u2581n\u0103m": 243,
    "ing": 244,
    "\u2581nh\u1ea5t": 245,
    "\u2581Yeah": 246,
    "\u2581Oh": 247,
    "\u2581has": 248,
    "\u2581t\u1edbi": 249,
    "\u2581\u00fd": 250,
    "\u2581This": 251,
    "\u2581Em": 252,
    "\u2581nh\u1eadn": 253,
    "\u2581qua": 254,
    "\u2581ch\u1ee9": 255,
    "\u2581s\u1ed1": 256,
    "\u2581hay": 257,
    "\u2581\u0111\u1ed3": 258,
    "\u2581she": 259,
    "\u2581ch\u1ebft": 260,
    "\u2581man": 261,
    "\u2581How": 262,
    "\u2581been": 263,
    "\u2581sau": 264,
    "\u2581They": 265,
    "\u2581h\u1ecdc": 266,
    "\u2581good": 267,
    "\u2581y\u00eau": 268,
    "n": 269,
    "\u2581gi\u00fap": 270,
    "\u2581xem": 271,
    "\u2581said": 272,
    "\u2581ch\u01b0a": 273,
    "\u2581t\u1ea1i": 274,
    "\u2581nghe": 275,
    "\u2581back": 276,
    "\u2581n\u1ebfu": 277,
    "\u2581going": 278,
    "\u2581more": 279,
    "\u2581bao": 280,
    "\u2581\u00d4ng": 281,
    "\u2581t\u1ed1t": 282,
    "\u2581k\u1ebb": 283,
    "\u2581th\u1eddi": 284,
    "\u2581some": 285,
    "\u2581t\u1ef1": 286,
    "\u2581\u01a1n": 287,
    "\u2581way": 288,
    "\u2581how": 289,
    "\u2581N\u1ebfu": 290,
    "\u2581th\u00edch": 291,
    "\u2581need": 292,
    "\u2581b\u1eaft": 293,
    "\u2581ch\u00ednh": 294,
    "\u2581M\u1ed9t": 295,
    "\u2581h\u1eafn": 296,
    "\u2581[": 297,
    "\u2581come": 298,
    "\u2581\u00e0": 299,
    "\u2581m\u1edbi": 300,
    "\u2581nh\u00e2n": 301,
    "\u2581": 302,
    "\u2581qu\u00e1": 303,
    "\u2581b\u1eb1ng": 304,
    "\u2581V\u1eady": 305,
    "\u2581l\u00f2ng": 306,
    "\u2581\u0111\u1ed9ng": 307,
    "\u2581could": 308,
    "\u2581hai": 309,
    "\u2581d\u00e2n": 310,
    "\u2581\u0111\u1ecbnh": 311,
    "\u2581Con": 312,
    "\u2581c\u1ea3m": 313,
    "\u2581h\u1ebft": 314,
    "\u2581tr\u1edf": 315,
    "\u2581N\u00f3": 316,
    "\u2581Well": 317,
    "\u2581make": 318,
    "\u2581\u0103n": 319,
    "\u2581say": 320,
    "\u2581h\u00e3y": 321,
    "a": 322,
    "\u2581gonna": 323,
    "\u2581gia": 324,
    "\u2581If": 325,
    "\u2581m\u1eb9": 326,
    "\u2581gian": 327,
    "\u2581take": 328,
    "\u2581ng\u00e0i": 329,
    "\u2581Jesus": 330,
    "\u2581l\u1ea5y": 331,
    "\u2581l\u1ed7i": 332,
    "\u2581C\u1eadu": 333,
    "y": 334,
    "\u2581H\u00e3y": 335,
    "\u2581down": 336,
    "\u2581Kinh": 337,
    "\u2581In": 338,
    "\u0323": 339,
    "\u2581nay": 340,
    "\u2581Ta": 341,
    "\u2581hi\u1ec3u": 342,
    "\u2581nhi\u00ean": 343,
    "\u2581into": 344,
    "\u2581m\u1eb7t": 345,
    "\u2581Do": 346,
    "\u2581th\u1ef1c": 347,
    "\u2581Why": 348,
    "\u2581tay": 349,
    "\u2581\u0110\u00f3": 350,
    "\u2581kh\u1ecfi": 351,
    "\u2581over": 352,
    ".\"": 353,
    "\u2581life": 354,
    "\u2581should": 355,
    "\u2581h\u1ecfi": 356,
    "\u2581then": 357,
    "\u2581hi\u1ec7n": 358,
    "\u2581may": 359,
    "\u2581Christ": 360,
    "\u2581l\u00fac": 361,
    "\u2581n\u01b0\u1edbc": 362,
    "\u2581\u00d0\u1ee9c": 363,
    "\u2581t\u00ean": 364,
    "\u2581Hey": 365,
    "\u2581which": 366,
    "ng": 367,
    "\u2581these": 368,
    "\u2581cu\u1ed9c": 369,
    "\u2581\u0111\u1eddi": 370,
    "\u2581She": 371,
    "\u2581v\u1eabn": 372,
    "\u2581\u0111\u00fang": 373,
    "\u2581\u0111\u1ec1u": 374,
    "\u2581ch\u1eb3ng": 375,
    "ed": 376,
    "\u2581b\u00e0": 377,
    "\u2581th\u00e1nh": 378,
    "\u2581\u0110\u01b0\u1ee3c": 379,
    "\u2581nhau": 380,
    "\u2581\u0111\u1ec1": 381,
    "\u2581su": 382,
    "\u2581There": 383,
    "\u2581g\u1eb7p": 384,
    "\u2581t\u1ea5t": 385,
    "\u2581g\u1ecdi": 386,
    "\u2581Yes": 387,
    "\u2581b\u1ecf": 388,
    "\u2581than": 389,
    "\u2581h\u00ecnh": 390,
    "\u2581tr\u1ecdng": 391,
    "\u2581those": 392,
    "\u2581shall": 393,
    "\u2581V\u00ec": 394,
    "\u2581l\u00fd": 395,
    "\u2581b\u1ea3o": 396,
    "\u2581H\u1ecd": 397,
    "\u2581day": 398,
    "\u2581only": 399,
    "\u2581h\u1ed9i": 400,
    "\u0300": 401,
    "\u2581C\u00e1c": 402,
    "\u2581l\u1ea7n": 403,
    "\u2581ngay": 404,
    "\u2581even": 405,
    "\u2581xin": 406,
    "\u2581h\u00e0nh": 407,
    "\u2581\u0111\u1ed3ng": 408,
    "\u2581l\u1edbn": 409,
    "]": 410,
    "\u2581Okay": 411,
    "\u2581\u0111\u01b0\u1eddng": 412,
    "\u2581to\u00e0n": 413,
    "\u2581c\u01a1": 414,
    "\u2581let": 415,
    "\u2581d\u00f9ng": 416,
    "\u2581t\u00ecnh": 417,
    "\u2581because": 418,
    "\u2581something": 419,
    "\u25812": 420,
    "\u2581really": 421,
    "\u2581Khi": 422,
    "\u2581Let": 423,
    "\u2581\u0111\u1ea5t": 424,
    "\u2581things": 425,
    "\u2581b\u1ea5t": 426,
    "\u2581t\u00e2m": 427,
    "\u2581ti\u00ean": 428,
    "\u2581th\u01b0\u01a1ng": 429,
    "\u2581very": 430,
    "\"": 431,
    "\u2581t\u1edb": 432,
    "\u2581nh\u00ecn": 433,
    "\u2581Come": 434,
    "\u2581h\u1ee3p": 435,
    "\u2581Th\u00e1nh": 436,
    "\u2581c\u1ea7u": 437,
    "\u2581other": 438,
    "\u2581ti\u1ebfp": 439,
    "\u2581love": 440,
    "\u2581v\u1ee5": 441,
    "\u2581gi\u1ebft": 442,
    "\u2581work": 443,
    "\u2581l\u1ebd": 444,
    "\u2581\u0110\u00e2y": 445,
    "\u2581gi\u1edbi": 446,
    "\u2581help": 447,
    "\u2581too": 448,
    "\u2581c\u1ee9": 449,
    "\u2581Bible": 450,
    "\u2581two": 451,
    "\u2581\u0111\u1ed1i": 452,
    "\u2581m\u1ea5t": 453,
    "\u2581Sao": 454,
    "\u2581ho\u1eb7c": 455,
    "\u2581tell": 456,
    "\u2581didn": 457,
    "\u2581All": 458,
    "\u2581before": 459,
    "\u2581h\u00e0ng": 460,
    "\u2581vui": 461,
    "\u2581k\u1ebft": 462,
    "\u2581first": 463,
    "\u2581where": 464,
    "\u2581any": 465,
    "\u2581never": 466,
    "\u2581sinh": 467,
    "\u2581l\u1eafm": 468,
    "\u2581Now": 469,
    "\u2581gi\u1ea3i": 470,
    "\u2581ch\u1eafc": 471,
    "\u2581lu\u00f4n": 472,
    "c": 473,
    "\u2581\u0111\u01b0a": 474,
    "\u2581Nh\u1eefng": 475,
    "\u2581little": 476,
    "\u2581Ng\u01b0\u1eddi": 477,
    "\u2581c\u00e2u": 478,
    "\u2581much": 479,
    "\u2581off": 480,
    "\u2581world": 481,
    "\u2581years": 482,
    "\u2581b\u00ecnh": 483,
    "\u2581am": 484,
    "\u2581...": 485,
    "\u2581b\u1ea3n": 486,
    "\u2581xu\u1ed1ng": 487,
    "\u2581also": 488,
    "\u2581th\u01b0\u1eddng": 489,
    "\u2581ph\u1ea7n": 490,
    "\u2581m\u00e0y": 491,
    "\u2581ti\u1ec1n": 492,
    "\u2581xe": 493,
    "\u2581look": 494,
    "\u2581Don": 495,
    "\u2581\u2019": 496,
    "\u2581My": 497,
    "\u2581ti\u1ebfng": 498,
    "\u2581ch\u1ee9ng": 499,
    "\u2581doing": 500,
    "\u2581cha": 501,
    "\u2581find": 502,
    "\u2581c\u1ed1": 503,
    "\u2581thing": 504,
    "\u2581made": 505,
    "\u2581x\u1ea3y": 506,
    "va": 507,
    "\u2581give": 508,
    "\u2581c\u1ee9u": 509,
    "\u2581thay": 510,
    "\u2581Xin": 511,
    "\u2581th\u00f4ng": 512,
    "\u2581v\u1ecb": 513,
    "\u2581t\u00ednh": 514,
    "\u2581t\u1eebng": 515,
    "\u2581b\u1edfi": 516,
    "\u2581b\u1ed1": 517,
    "\u2581For": 518,
    "\u2581L\u00e0m": 519,
    "\u2581v\u1eadt": 520,
    "\u2581\u0110\u1eebng": 521,
    "\u2581gi\u1eef": 522,
    "\u2581v\u1ea5n": 523,
    "\u2581b\u00ean": 524,
    "\u2581t\u1ed9i": 525,
    "\u2581b\u1ed9": 526,
    "\u2581T\u1ea1i": 527,
    "\u2581ngo\u00e0i": 528,
    "\u2581When": 529,
    "\u2581nh\u1edb": 530,
    "\u2581ch\u1ecb": 531,
    "\u2581mean": 532,
    "\u2581ngh\u0129a": 533,
    "\u2581\u0111\u1ed5i": 534,
    "\u2581g\u00e1i": 535,
    "\u2581Ph\u1ea3i": 536,
    "\u2581Th\u1eadt": 537,
    "\u2581tr\u1ea3": 538,
    "\u2581many": 539,
    "\u2581trai": 540,
    "\u2581s\u00e1ng": 541,
    "\u2581C\u00e1i": 542,
    "\u2581gi\u1ed1ng": 543,
    "\u2581why": 544,
    "\u2581name": 545,
    "\u2581v\u00f4": 546,
    "\u2581d\u1ee5ng": 547,
    "\u2581must": 548,
    "\u2581t\u01b0\u1edfng": 549,
    "\u2581gi\u00e1o": 550,
    "\u2581does": 551,
    "\u2581ch\u00e1u": 552,
    "\u2581Trong": 553,
    "\u2581b\u00e1o": 554,
    "\u2581family": 555,
    "\u2581\u0111\u00e1ng": 556,
    "\u2581n\u0103ng": 557,
    "\u2581tr\u1ebb": 558,
    "\u2581b\u00e9": 559,
    "\u2581well": 560,
    "\u2581th\u1ea7n": 561,
    "\u2581m\u00e1y": 562,
    "\u2581trung": 563,
    "\u2581chi\u1ebfn": 564,
    "\u2581away": 565,
    "\u2581\u1ea3nh": 566,
    "\u2581tr\u01b0\u1eddng": 567,
    "\u2581Y": 568,
    "\u2581s\u00e1t": 569,
    "\u2581;": 570,
    "\u2581after": 571,
    "\u2581still": 572,
    "\u2581ph\u00f2ng": 573,
    "\u2581bi\u1ec7t": 574,
    "\u2581s\u0129": 575,
    "u": 576,
    "\u2581\u0111\u00e1nh": 577,
    "\u2581vi\u00ean": 578,
    "\u2581put": 579,
    "\u2581c\u1ea3nh": 580,
    "\u2581men": 581,
    "\u2581v\u00e0i": 582,
    "\u2581quy\u1ec1n": 583,
    "I": 584,
    "\u2581quy\u1ebft": 585,
    "\u2581again": 586,
    "\u2581s\u00e1ch": 587,
    "er": 588,
    "\u2581'": 589,
    "\u2581d\u1eabn": 590,
    "\u2581g\u1ea7n": 591,
    "\u2581\u0111\u1ea1o": 592,
    "\u2581came": 593,
    "\u2581ph\u00e1t": 594,
    "\u2581ho\u00e0n": 595,
    "\u2581\u0110\u1ec3": 596,
    "\u2581h\u1ea3": 597,
    "\u2581tao": 598,
    "\u2581ch\u1ecdn": 599,
    "\u2581t\u00edn": 600,
    "\u2581ch\u00fat": 601,
    "\u2581th\u1ee9c": 602,
    "\u2581kia": 603,
    "\u2581t\u1ea1o": 604,
    "\u2581th\u00eam": 605,
    "\u2581nh\u00e9": 606,
    "\u2581t\u1ebf": 607,
    "\u2581\u0111i\u1ec3m": 608,
    "\u2581great": 609,
    "\u2581s\u1ee3": 610,
    "\u2581Where": 611,
    "\u2581through": 612,
    "\u2581tr\u1eddi": 613,
    "\u2581ban": 614,
    "\u2581ch\u1ed7": 615,
    "\u2581?": 616,
    "\u2581\u0111\u00ecnh": 617,
    "\u2581Just": 618,
    "\u2581being": 619,
    "\u2581long": 620,
    "\u2581place": 621,
    "\u2581\u0110i": 622,
    "\u2581\u0110\u00fang": 623,
    "\u2581vua": 624,
    "\u2581B\u1ea1n": 625,
    "\u2581okay": 626,
    "\u2581th\u00e2n": 627,
    "ly": 628,
    "\u2581\u00ca": 629,
    "\u2581tr\u1ecb": 630,
    "\u2581\u2018": 631,
    "\u2581lo\u1ea1i": 632,
    "\u2581own": 633,
    "\u2581nh\u1ecf": 634,
    "\u2581Th\u1ebf": 635,
    "\u2581x\u00e1c": 636,
    "\u2581such": 637,
    "\u2581ch\u01a1i": 638,
    "\u2581sai": 639,
    "\u2581b\u1ecdn": 640,
    "\u2581cao": 641,
    "\u2581Ch\u1ec9": 642,
    "\u2581li\u00ean": 643,
    "\u2581new": 644,
    "\u2581\u0111\u1eb7t": 645,
    "\u2581Are": 646,
    "\u2581son": 647,
    "\u2581lo": 648,
    "\u2581Can": 649,
    "\u2581ba": 650,
    "\u2581r\u00f5": 651,
    "\u2581m\u1ea1nh": 652,
    "\u2581ch\u1ecbu": 653,
    "\u2581home": 654,
    "\u2581Then": 655,
    "\u2581Who": 656,
    "\u2581c\u1eeda": 657,
    "\u2581gi\u00e1": 658,
    "\u2581Your": 659,
    "\u2581house": 660,
    "\u2581\u0110\u1ea5ng": 661,
    "\u2581tr\u00ecnh": 662,
    "\u2581kh\u00f3": 663,
    "\u2581ch\u00fa": 664,
    "\u2581trang": 665,
    "\u2581told": 666,
    "ra": 667,
    "\u2581l\u00e2u": 668,
    "\u2581every": 669,
    "\u2581mang": 670,
    "\u2581th\u01b0": 671,
    "\u2581lo\u00e0i": 672,
    "\u2581\u266a": 673,
    "\u2581t\u1eadp": 674,
    "\u2581h\u1ec7": 675,
    "\u2581l\u1ef1c": 676,
    "\u2581\u0111\u1ed9": 677,
    "\u2581ph\u1ee5": 678,
    "\u2581vi\u1ebft": 679,
    "\u2581\u0111\u1ea1i": 680,
    "\u2581\u0110i\u1ec1u": 681,
    "\u2581V\u00e2ng": 682,
    "\u2581children": 683,
    "\u2581C\u00f2n": 684,
    "\u2581\u0111\u1eb9p": 685,
    "\u2581d\u1ea1y": 686,
    "\u2581qu\u1ea3": 687,
    "\u2581Get": 688,
    "\u2581b\u1ec7nh": 689,
    "\u2581tr\u01b0\u1edfng": 690,
    "\u2581keep": 691,
    "\u2581cu\u1ed1i": 692,
    "\u2581Not": 693,
    "\u0309": 694,
    "\u2581might": 695,
    "\u2581thought": 696,
    "\u2581khi\u1ebfn": 697,
    "\u2581Mr": 698,
    "\u2581v\u1ecdng": 699,
    "\u2581t\u1ed1i": 700,
    "\u2581Cha": 701,
    "\u2581M\u1eb9": 702,
    "\u2581!": 703,
    "\u2581sure": 704,
    "--": 705,
    "\u2581sorry": 706,
    "\u2581tuy\u1ec7t": 707,
    "\u2581\u0111\u1ee7": 708,
    "\u2581v\u1eeba": 709,
    "\u2581call": 710,
    "\u2581b\u00e0i": 711,
    "\u2581father": 712,
    "\u2581xa": 713,
    "\u2581another": 714,
    "\u25813": 715,
    "\u2581Thank": 716,
    "\u2581H\u1eafn": 717,
    "\u2581d\u01b0\u1edbi": 718,
    "\u2581around": 719,
    "\u2581last": 720,
    "\u2581anything": 721,
    "\u2581m\u1ea5y": 722,
    "\u2581\u0111\u1eebng": 723,
    "\u2581s\u1ee9c": 724,
    "\u2581better": 725,
    "\u2581Look": 726,
    "\u2581talk": 727,
    "\u2581tr\u00e1i": 728,
    "\u2581done": 729,
    "\u2581l\u1eadp": 730,
    "\u2581T\u1edb": 731,
    "\u2581quay": 732,
    "\u2581To": 733,
    "\u2581n\u1eef": 734,
    "\u2581\u01a1i": 735,
    "\u2581As": 736,
    "\u2581v\u1ebb": 737,
    "\u2581t\u1ee5c": 738,
    "\u2581l\u00f4": 739,
    "\u2581l\u1ec5": 740,
    "\u2581:": 741,
    "\u2581ph\u1ee5c": 742,
    "\u2581ever": 743,
    "\u2581thi\u1ebft": 744,
    "\u2581m\u1eebng": 745,
    "\u2581found": 746,
    "\u2581Ai": 747,
    "\u2581night": 748,
    "\u2581gi\u1eefa": 749,
    "\u2581Sau": 750,
    "\u2581t\u01b0\u1ee3ng": 751,
    "\u2581m\u1ed7i": 752,
    "\u2581chi": 753,
    "\u2581same": 754,
    "\u2581v\u1ee3": 755,
    "\u2581ch\u1ee7": 756,
    "\u2581ph\u00e9p": 757,
    "\u2581ph\u00e1n": 758,
    "\u2581always": 759,
    "\u2581b\u00e2y": 760,
    "\u2581danh": 761,
    "\u2581tu\u1ed5i": 762,
    "\u2581\u0111\u1eb7c": 763,
    "\u2581ch\u1ee9c": 764,
    "\u2581\u0111\u1ea7y": 765,
    "\u2581old": 766,
    "\u2581x\u00e9t": 767,
    "\u2581th\u1edd": 768,
    "e": 769,
    "\u2581k\u1ef3": 770,
    "\u2581th\u1ed1ng": 771,
    "\u2581went": 772,
    "\u2581N\u00e0y": 773,
    "\u2581m\u1eaft": 774,
    "\u2581k\u1ec3": 775,
    "\u2581unto": 776,
    "\u2581--": 777,
    "\u2581feel": 778,
    "\u2581three": 779,
    "\u2581thi\u00ean": 780,
    "\u2581\u1ed5n": 781,
    "\u2581T\u1ea5t": 782,
    "\u2581kinh": 783,
    "\u2581course": 784,
    "\u2581t\u00e0i": 785,
    "\u2581s\u1eed": 786,
    "\u2581says": 787,
    "\u2581th\u01b0a": 788,
    "\u2581left": 789,
    "\u2581Nh\u00e2n": 790,
    "S": 791,
    "\u2581m\u1ee5c": 792,
    "\u2581Sa": 793,
    "\u2581Ch\u00e0o": 794,
    "\u2581against": 795,
    "\u2581th\u1eed": 796,
    "\u2581kind": 797,
    "\u2581Go": 798,
    "\u2581heart": 799,
    "\u2581ti\u00eau": 800,
    "\u2581won": 801,
    "\u2581tra": 802,
    "\u2581ph\u1ea1m": 803,
    "\u2581hand": 804,
    "\u2581%": 805,
    "\u2581ph\u00e1p": 806,
    "\u2581nothing": 807,
    "\u2581today": 808,
    "\u2581Paul": 809,
    "\u2581\u0111\u1ee9c": 810,
    "\u2581\u0111\u1ee9a": 811,
    "\u2581chuy\u1ec3n": 812,
    "\u2581earth": 813,
    "\u2581t\u1eed": 814,
    "\u2581Good": 815,
    "\u2581tr\u00ed": 816,
    "\u2581its": 817,
    "\u2581most": 818,
    "o": 819,
    "\u2581believe": 820,
    "\u2581One": 821,
    "\u2581Israel": 822,
    "\u2581ch\u1ea1y": 823,
    "\u2581qu\u00e2n": 824,
    "\u2581thu\u1ed9c": 825,
    "\u2581dead": 826,
    "\u2581use": 827,
    "\u2581truy\u1ec1n": 828,
    "\u2581gi\u1ea3": 829,
    "\u2581C\u1ea3m": 830,
    "\u2581lu\u1eadt": 831,
    "\u2581t\u1ee9c": 832,
    "\u2581\u0111i\u1ec7n": 833,
    "\u201c": 834,
    "\u2581money": 835,
    "\u2581Gi\u1edd": 836,
    "\u2581John": 837,
    "\u2581\u0111\u00e0n": 838,
    "\u2581\u0111au": 839,
    "\u2581called": 840,
    "\u2581th\u00e1ng": 841,
    "\u2581s\u01a1": 842,
    "\u2581days": 843,
    "\u2581s\u1eafp": 844,
    "\u2581C": 845,
    "\u2581c\u00e2y": 846,
    "\u2581Cho": 847,
    "\u2581ch\u1eafn": 848,
    "\u2581\u0111\u1ecba": 849,
    "\u2581d\u00f9": 850,
    "\u2581li\u1ec7u": 851,
    "\u2581h\u01b0\u1edbng": 852,
    "\u2581t\u01b0\u01a1ng": 853,
    "\u2581saying": 854,
    "\u2581th\u1eb1ng": 855,
    "\u2581please": 856,
    "\u2581t\u01b0": 857,
    "\u2581M\u00e0y": 858,
    "h\u00f4": 859,
    "\u2581bi\u1ebfn": 860,
    "\u2581b": 861,
    "\u2581kh\u00ed": 862,
    "\u2581nguy\u1ec7n": 863,
    "\u2581lot": 864,
    "\u2581\u0111\u1ee9ng": 865,
    "\u2581ch\u00ed": 866,
    "\u2581nhi\u1ec7m": 867,
    "\u2581c\u00e1nh": 868,
    "\u2581ma": 869,
    "\u2581\u00edt": 870,
    "\u2581understand": 871,
    "\u2581ki\u1ebfm": 872,
    "\u2581guy": 873,
    "\u2581show": 874,
    "\u2581kill": 875,
    "\u2581Please": 876,
    "\u2581t\u00f4n": 877,
    "\u2581nhanh": 878,
    "\u2581m\u1edf": 879,
    "\u2581hear": 880,
    "\u2581doesn": 881,
    "\u2581Ma": 882,
    "\u2581coming": 883,
    "in": 884,
    "\u258110": 885,
    "\u2581sir": 886,
    "\u2581took": 887,
    "\u2581k\u1ebf": 888,
    "\u2581v\u1ec7": 889,
    "\u2581bu\u1ed5i": 890,
    "\u2581\u0111\u1ecdc": 891,
    "\u2581tham": 892,
    "\u2581thu\u1eadt": 893,
    "\u2581c\u1ed5": 894,
    "\u2581giao": 895,
    "\u2581d\u1ec5": 896,
    "\u2581c\u1ea5p": 897,
    "\u2581end": 898,
    "\u2581ph\u00eda": 899,
    "\u2581nghi\u1ec7m": 900,
    "\u2581g\u00e2y": 901,
    "\u2581h\u00f4n": 902,
    "\u2581death": 903,
    "\u2581xu\u1ea5t": 904,
    "\u2581th\u00fa": 905,
    "\u2581together": 906,
    "p": 907,
    "\u2581ng\u1ee7": 908,
    "\u2581hi\u1ec7u": 909,
    "\u2581\u1eea": 910,
    "\u2581bay": 911,
    "\u2581s\u1eb5n": 912,
    "\u2581Tuy": 913,
    "\u2581L\u00e0": 914,
    "\u2581d\u1ef1": 915,
    "\u2581wrong": 916,
    "\u2581chi\u1ebfc": 917,
    "\u2581king": 918,
    "\u2581saw": 919,
    "\u2581true": 920,
    "\u2581everything": 921,
    "\u2581n\u1ed5i": 922,
    "\u2581t\u00e1c": 923,
    "\u2581tinh": 924,
    "\u2581gi\u1ea3ng": 925,
    "\u00ean": 926,
    "\u2581happened": 927,
    "\u2581tranh": 928,
    "\u2581leave": 929,
    "\u2581Nh\u01b0": 930,
    "\u2581Because": 931,
    "\u2581ch\u00e2n": 932,
    "\u2581di\u1ec5n": 933,
    "\u2581live": 934,
    "\u2581b\u00e0n": 935,
    "\u2581Ba": 936,
    "\u2581part": 937,
    "\u2581Did": 938,
    "\u2581minh": 939,
    "\u2581bad": 940,
    "\u2581\u0111\u00eam": 941,
    "\u2581&": 942,
    "\u2581c\u00e1": 943,
    "\u2581linh": 944,
    "\u2581wanted": 945,
    "\u2581S\u1ef1": 946,
    "\u2581stop": 947,
    "\u2581mind": 948,
    "\u2581\u1ee9ng": 949,
    "\u2581m\u1ea1ng": 950,
    "\u2581used": 951,
    "\u2581h\u01b0\u1edfng": 952,
    "\u2581someone": 953,
    "\u2581M\u1ecdi": 954,
    "\u2581\u1ede": 955,
    "\u2581l\u1ee3i": 956,
    "\u2581ko": 957,
    "\u2581tr\u00f2": 958,
    "\u2581ph\u01b0\u01a1ng": 959,
    "\u2581without": 960,
    "\u2581suy": 961,
    "\u2581Phao": 962,
    "\u2581guys": 963,
    "\u2581\u0111\u1ea5ng": 964,
    "\u2581ki\u1ec3m": 965,
    "\u2581wife": 966,
    "\u2581care": 967,
    "\u2581year": 968,
    "\u25815": 969,
    "\u2581word": 970,
    "\u2581h\u00f4m": 971,
    "\u2581Ch\u1eafc": 972,
    "\u2581s\u01b0": 973,
    "\u2581Phi": 974,
    "\u2581B\u1ed1": 975,
    "\u2581l\u1ea1c": 976,
    "the": 977,
    "\u2581\u0111\u01a1n": 978,
    "\u2581B": 979,
    "\u2581ti\u1ebfn": 980,
    "\u2581R\u1ed3i": 981,
    "\u2581B\u00e0": 982,
    "\u2581u\u1ed1ng": 983,
    "\u2581ng\u1ed3i": 984,
    "\u2581\u0111em": 985,
    "\u2581enough": 986,
    "\u2581Here": 987,
    "\u2581under": 988,
    "\u2581t\u1ecf": 989,
    "\u2581ask": 990,
    "\u2581\u00ean": 991,
    "\u2581ph\u00e1": 992,
    "\u2581New": 993,
    "\u2581fine": 994,
    "\u2581n\u1ea7y": 995,
    "\u2581m\u00f4n": 996,
    "\u2581each": 997,
    "\u2581Yahweh": 998,
    "\u2581times": 999,
    "\u2581x\u1eed": 1000,
    "\u2581heard": 1001,
    "\u2581words": 1002,
    "\u2581\u00dd": 1003,
    "\u2581ch\u1edd": 1004,
    "\u2581s\u1ee9": 1005,
    "\u2581person": 1006,
    "\u2581\u00edch": 1007,
    "\u2581Witnesses": 1008,
    "\u2581th\u1ecb": 1009,
    "\u2581upon": 1010,
    "\u2581ch\u1ea5t": 1011,
    "\u2581Tao": 1012,
    "\u2581\u0111\u1ed9i": 1013,
    "\u2581yourself": 1014,
    "\u2581\u00e1c": 1015,
    "\u2581others": 1016,
    "\u2581ph\u1ea3n": 1017,
    "\u2581Nghe": 1018,
    "\u2581mother": 1019,
    "\u2581m\u00f4": 1020,
    "\u2581N\u00f3i": 1021,
    "\u2581s\u00e0ng": 1022,
    "\u2581LORD": 1023,
    "\u2581real": 1024,
    "\u2581N\u01b0\u1edbc": 1025,
    "\u2581t\u1ed5": 1026,
    "\u2581set": 1027,
    "\u2581nguy\u00ean": 1028,
    "A": 1029,
    "\u2581else": 1030,
    "\u2581yet": 1031,
    "\u2581c\u00e0ng": 1032,
    "\u2581bring": 1033,
    "\u2581next": 1034,
    "\u2581big": 1035,
    "\u2581th\u00fac": 1036,
    "\u2581nh\u00f3m": 1037,
    "\u2581head": 1038,
    "\u2581Chuy\u1ec7n": 1039,
    "\u2581David": 1040,
    "\u2581b\u00e1c": 1041,
    "\u2581hy": 1042,
    "\u2581means": 1043,
    "\u258115": 1044,
    "\u2581actually": 1045,
    "\u2581d\u1ecbch": 1046,
    "\u2581Christian": 1047,
    "\u2581l\u01b0\u1ee3ng": 1048,
    "\u2581looking": 1049,
    "\u2581x\u1ee9": 1050,
    "\u2581ghi": 1051,
    "\u2581\u0111\u1ee3i": 1052,
    "\u2581woman": 1053,
    "\u2581best": 1054,
    "\u2581kho\u1ea3ng": 1055,
    "\u2581tr\u00f4ng": 1056,
    "\u2581T": 1057,
    "\u2581seen": 1058,
    "\u2581ph\u1ed1": 1059,
    "\u2581duy": 1060,
    "\u2581\u00d4i": 1061,
    "\u2581both": 1062,
    "\u2581ch\u1ed3ng": 1063,
    "\u2581become": 1064,
    "\u2581ph\u00e2n": 1065,
    "\u2581girl": 1066,
    "\u2581h\u00f3a": 1067,
    "\u2581tri": 1068,
    "\u2581m\u1eb7c": 1069,
    "\u2581whole": 1070,
    "r": 1071,
    "\u2581thu\u1ed1c": 1072,
    "\u2581l\u1ea1": 1073,
    "\u2581h\u1ea1n": 1074,
    "Gi\u00ea": 1075,
    "\u25814": 1076,
    "\u2581\u1ea1": 1077,
    "\u2581/": 1078,
    "E": 1079,
    "\u2581face": 1080,
    "\u2581h\u1ee9a": 1081,
    "\u2581land": 1082,
    "\u2581S": 1083,
    "\u258120": 1084,
    "Ch\u00faa": 1085,
    "\u2581B\u00e2y": 1086,
    "\u2581th\u1ea7y": 1087,
    "\u2581brother": 1088,
    "\u2581qu\u00fd": 1089,
    "\u2581spirit": 1090,
    "\u2581remember": 1091,
    "\u2581talking": 1092,
    "\u2581kh\u1ea3": 1093,
    "\u2581g\u1eafng": 1094,
    "th": 1095,
    "\u2581v\u0103n": 1096,
    "\u2581l\u1ec7": 1097,
    "\u2581nh\u1ec9": 1098,
    "\u2581gave": 1099,
    "\u2581city": 1100,
    "\u2581mua": 1101,
    "\u2581b\u1eafn": 1102,
    "\u2581while": 1103,
    "al": 1104,
    "\u2581die": 1105,
    "\u2581x\u1ea5u": 1106,
    "\u2581faith": 1107,
    "\u2581rao": 1108,
    "\u2581h\u1ea1nh": 1109,
    "\u2581h\u1ea7u": 1110,
    "\u2581h\u1ea1i": 1111,
    "\u2581D\u00f9": 1112,
    "\u2581Th\u00f4i": 1113,
    "\u2581lu\u1eadn": 1114,
    "\u2581trying": 1115,
    "\u2581hope": 1116,
    "\u2581hell": 1117,
    "\u2581ri\u00eang": 1118,
    "\u2581friend": 1119,
    "\u2581getting": 1120,
    "\u2581tu\u1ea7n": 1121,
    "\u2581already": 1122,
    "\u2581\u0111\u1ee1": 1123,
    "\u2581truth": 1124,
    "\u2581thanh": 1125,
    "\u2581\u0111\u1ea5u": 1126,
    "\u2581few": 1127,
    "ta": 1128,
    "\u2581k\u00ednh": 1129,
    "\u2581k\u1ef7": 1130,
    "\u2581page": 1131,
    "\u2581kh\u00e1ch": 1132,
    "\u2581\u0111o\u00e1n": 1133,
    "\u2581water": 1134,
    "\u2581himself": 1135,
    "\u2581Ch\u00e1u": 1136,
    "\u2581v\u00f2ng": 1137,
    "\u2581y": 1138,
    "\u2581stay": 1139,
    "\u2581move": 1140,
    "\u2581ch\u00e0o": 1141,
    "\u2581kh\u00f4n": 1142,
    "\u2581*": 1143,
    "\u2581young": 1144,
    "\u2581d\u00e0i": 1145,
    "\u2581ho\u1ea1t": 1146,
    "\u2581knew": 1147,
    "\u2581d\u1ea5u": 1148,
    "\u2581Of": 1149,
    "\u2581chu\u1ea9n": 1150,
    "\u2581fucking": 1151,
    "\u2581\u00e1o": 1152,
    "\u2581nghi\u1ec7p": 1153,
    "\u2581kh\u00e1": 1154,
    "\u2581Lord": 1155,
    "\u2581until": 1156,
    "\u2581try": 1157,
    "\u2581ph\u00fat": 1158,
    "\u2581n\u1ea1n": 1159,
    "\u2581wait": 1160,
    "\u2581bi\u1ec3u": 1161,
    "\u2581\u0111\u00f3ng": 1162,
    "\u2581Kingdom": 1163,
    "\u2581example": 1164,
    "\u2581hard": 1165,
    "\u2581l\u00e0nh": 1166,
    "\u2581eyes": 1167,
    "\u2581chung": 1168,
    "\u2581v\u0169": 1169,
    "\u2581C\u00e1m": 1170,
    "\u2581matter": 1171,
    "\u2581hi\u1ec3m": 1172,
    "\u2581car": 1173,
    "\u2581Maybe": 1174,
    "\u2581O": 1175,
    "\u2581ca": 1176,
    "\u2581thi": 1177,
    "\u2581Christians": 1178,
    "\u2581d\u00e0nh": 1179,
    "\u2581different": 1180,
    "\u2581Uh": 1181,
    "\u2581Right": 1182,
    "s\u01a1": 1183,
    "\u2581Ch\u1ecb": 1184,
    "l": 1185,
    "\u2581At": 1186,
    "\u25816": 1187,
    "\u2581\u0111\u00f4": 1188,
    "\u2581human": 1189,
    "\u2581job": 1190,
    "\u2581shit": 1191,
    "\u2581qu\u00ean": 1192,
    "\u2581isn": 1193,
    "em": 1194,
    "\u2581\u0111\u00f4i": 1195,
    "\u2581Ch\u1eb3ng": 1196,
    "\u2581m\u00e1u": 1197,
    "\u2581nh\u1edd": 1198,
    "\u2581power": 1199,
    "\u2581b\u01b0\u1edbc": 1200,
    "\u2581s\u00fang": 1201,
    "\u2581\u0111i\u00ean": 1202,
    "\u2581xong": 1203,
    "\u2581open": 1204,
    "\u2581sa": 1205,
    "\u2581killed": 1206,
    "\u2581ones": 1207,
    "\u2581vi": 1208,
    "?\"": 1209,
    "\u2581B\u1ecdn": 1210,
    "\u2581close": 1211,
    "\u2581idea": 1212,
    "\u2581tr\u00e1ch": 1213,
    "\u2581h\u01a1i": 1214,
    "\u2581uh": 1215,
    "\u2581important": 1216,
    "\u2581chia": 1217,
    "\u2581\u0111\u00e1": 1218,
    "\u2581quanh": 1219,
    "\u2581\u00e1n": 1220,
    "\u2581y\u1ebfu": 1221,
    "\u2581y\u00ean": 1222,
    "\u2581ago": 1223,
    "\u2581Ch\u1ee9ng": 1224,
    "\u2581thi\u00eang": 1225,
    "\u2581khuy\u00ean": 1226,
    "\u2581s\u1ea3n": 1227,
    "\u2581start": 1228,
    "\u2581problem": 1229,
    "\u2581L\u1eddi": 1230,
    "\u2581b\u00e1n": 1231,
    "\u2581x\u00e2y": 1232,
    "\u2581Ng\u01b0\u01a1i": 1233,
    "es": 1234,
    "\u2581Gi\u00f4": 1235,
    "\u2581ngoan": 1236,
    "\u2581D": 1237,
    "\u2581th\u1ee7": 1238,
    "\u2581qu\u1ed1c": 1239,
    "\u2581nhi\u00eau": 1240,
    "C": 1241,
    "\u2581th\u00f9": 1242,
    "\u2581His": 1243,
    "\u2581C\u00f4ng": 1244,
    "\u2581di": 1245,
    "\u2581brought": 1246,
    "\u2581Hello": 1247,
    "\u2581e": 1248,
    "\u2581far": 1249,
    "\u2581Nh\u00ecn": 1250,
    "\u2581blood": 1251,
    "\u2581tho\u1ea1i": 1252,
    "\u2581t\u00f4": 1253,
    "\u2581c\u1ee9ng": 1254,
    "\u2581li\u00eang": 1255,
    "\u2581boy": 1256,
    "\u0303": 1257,
    "\u2581m\u00e0u": 1258,
    "\u2581able": 1259,
    "\u2581h\u1ec1": 1260,
    "\u2581number": 1261,
    "\u2581tho\u00e1t": 1262,
    "\u2581Wait": 1263,
    "\u2581ch\u1ed1ng": 1264,
    "\u2581th\u1eafng": 1265,
    "\u2581thou": 1266,
    "\u2581khu": 1267,
    "\u2581B\u1edfi": 1268,
    "\u2581Or": 1269,
    "\u2581yeah": 1270,
    "\u2581m\u1eadt": 1271,
    "\u2581t\u1ec7": 1272,
    "\u2581ch\u1ea5p": 1273,
    "\u2581tan": 1274,
    "\u2581t\u00e0u": 1275,
    "\u258112": 1276,
    "\u2581Ng\u00e0y": 1277,
    "\u2581between": 1278,
    "\u2581m\u1ed1i": 1279,
    "\u2581room": 1280,
    "\u2581Peter": 1281,
    "\u2581d\u1ed1i": 1282,
    "\u2581though": 1283,
    "\u2581Take": 1284,
    "\u258130": 1285,
    "\u2581read": 1286,
    "\u2581\u0111\u00f4ng": 1287,
    "\u2581di\u1ec7n": 1288,
    "\u2581run": 1289,
    "\u2581book": 1290,
    "\u2581having": 1291,
    "\u2581\u201d,": 1292,
    "\u2581T\u1ed1t": 1293,
    "\u2581\u0111\u1ed9c": 1294,
    "\u2581l\u1ecbch": 1295,
    "h": 1296,
    "\u2581turn": 1297,
    "\u2581n\u1eb1m": 1298,
    "\u2581\u0111\u00e1p": 1299,
    "\u2581h\u1ea1": 1300,
    "\u2581coi": 1301,
    "\u2581h\u1ee7y": 1302,
    "\u2581ngo\u1ea1i": 1303,
    "\u2581c\u00e1o": 1304,
    "\u2581v\u1eddi": 1305,
    "\u2581h\u1ed9": 1306,
    "\u2581t\u00f9": 1307,
    "\u2581\u01b0\u1edbc": 1308,
    "\u2581\u00e2m": 1309,
    "\u2581R\u1ea5t": 1310,
    "\u2581later": 1311,
    "\u2581\u00e1p": 1312,
    "\u2581tai": 1313,
    "\u2581thi\u1ebfu": 1314,
    "\u2581V\u00e0o": 1315,
    "\u2581r\u00e0ng": 1316,
    "\u2581wasn": 1317,
    "\u2581gi\u00e1c": 1318,
    "\u2581tri\u1ec7u": 1319,
    "\u2581c\u0103n": 1320,
    "\u2581d\u1ee5": 1321,
    "\u2581l\u1ec7nh": 1322,
    "\u2581th\u00ea": 1323,
    "\u2581once": 1324,
    "\u2581ph\u1ea9m": 1325,
    "\u2581second": 1326,
    "\u2581nguy": 1327,
    "\u2581ki\u1ebfn": 1328,
    "\u2581asked": 1329,
    "\u2581cung": 1330,
    "\u2581tr\u00e1nh": 1331,
    "\u2581ch\u1ebf": 1332,
    "\u2581change": 1333,
    "\u2581point": 1334,
    "\u2581meet": 1335,
    "\u2581mong": 1336,
    "\u2581friends": 1337,
    "\u2581d\u1eef": 1338,
    "\u2581morning": 1339,
    "\u2581With": 1340,
    "\u2581la": 1341,
    "\u2581bu\u1ed3n": 1342,
    "\u2581making": 1343,
    "\u2581c\u01b0\u1eddi": 1344,
    "\u2581kh\u1ed1n": 1345,
    "\u2581hands": 1346,
    "\u2581since": 1347,
    "\u2581given": 1348,
    "\u2581T\u1eeb": 1349,
    "\u2581myself": 1350,
    "\u2581tr\u1ee3": 1351,
    "\u25817": 1352,
    "\u2581l\u1eafng": 1353,
    "\u2581qu\u00e1i": 1354,
    "\u2581case": 1355,
    "\u2581thy": 1356,
    "\u2581side": 1357,
    "\u2581bi\u1ec3n": 1358,
    "\u2581These": 1359,
    "\u2581r\u01a1": 1360,
    "\u2581lost": 1361,
    "\u2581gone": 1362,
    "\u2581On": 1363,
    "\u2581b\u00e1nh": 1364,
    "\u2581ph\u00fac": 1365,
    "\u2581h\u00f2a": 1366,
    "\u2581parents": 1367,
    "\u2581l\u1ed1i": 1368,
    "\u2581among": 1369,
    "\u2581school": 1370,
    "\u2581ready": 1371,
    "\u2581h\u1eefu": 1372,
    "\u2581l\u00e3o": 1373,
    "\u2581alone": 1374,
    "\u2581reason": 1375,
    "\u2581b\u00f3ng": 1376,
    "\u2581Have": 1377,
    "\u2581full": 1378,
    "\u2581d\u1ef1ng": 1379,
    "\u2581news": 1380,
    "\u2581\u0111o\u1ea1n": 1381,
    "\u2581r\u01b0\u1ee3u": 1382,
    "\u2581thu": 1383,
    "\u2581baby": 1384,
    "\u2581congregation": 1385,
    "\u2581eat": 1386,
    "\u2581kh\u1eafp": 1387,
    "\u2581l\u1eeda": 1388,
    "\u2581wanna": 1389,
    "\u2581body": 1390,
    "\u2581s\u1ea1ch": 1391,
    "\u2581d\u1ea7u": 1392,
    "\u2581m\u1eddi": 1393,
    "\u2581th\u1eb3ng": 1394,
    "\u2581high": 1395,
    "\u2581gotta": 1396,
    "\u2581sent": 1397,
    "\u2581mai": 1398,
    "\u2581C\u0169ng": 1399,
    "\u2581\u0110\u1ea1i": 1400,
    "\u2581speak": 1401,
    "\u2581anyone": 1402,
    "\u2581M\u1ef9": 1403,
    "\u2581four": 1404,
    "\u2581fact": 1405,
    "\u2581Stop": 1406,
    "\u2581ki\u1ec7n": 1407,
    "D": 1408,
    "\u2581happy": 1409,
    "\u2581\u0111\u1ed5": 1410,
    "\u2581lai": 1411,
    "\u2581Father": 1412,
    "\u2581fire": 1413,
    "\u2581kh\u0103n": 1414,
    "\u2581k\u00eca": 1415,
    "\u2581v\u00f9ng": 1416,
    "\u2581t\u0103ng": 1417,
    "\u2581soon": 1418,
    "\u2581fuck": 1419,
    "\u2581d\u1eady": 1420,
    "\u2581C\u1ee9": 1421,
    "\u2581t\u00edch": 1422,
    "\u2581Some": 1423,
    "\u2581s\u1eeda": 1424,
    "\u2581spiritual": 1425,
    "\u2581s\u00e2u": 1426,
    "\u2581thinking": 1427,
    "\u2581maybe": 1428,
    "\u2581b\u00e8n": 1429,
    "\u2581learn": 1430,
    "\u2581Ha": 1431,
    "\u2581Hai": 1432,
    "\u2581See": 1433,
    "\u2581Ch\u00fa": 1434,
    "\u2581After": 1435,
    "\u2581species": 1436,
    "\u2581ti\u1ebft": 1437,
    "na": 1438,
    "\u25813:": 1439,
    "\u2581Like": 1440,
    "\u2581wouldn": 1441,
    "\u2581bit": 1442,
    "\u2581nghi": 1443,
    "\u2581An": 1444,
    "\u2581sang": 1445,
    "\u2581r\u1eddi": 1446,
    "\u2581child": 1447,
    "\u2581l\u01b0u": 1448,
    "\u2581war": 1449,
    "\u2581five": 1450,
    "\u2581T\u00ean": 1451,
    "\u2581Our": 1452,
    "\u2581ngh\u1ecb": 1453,
    "\u2581door": 1454,
    "\u2581tri\u1ec3n": 1455,
    "\u2581th\u00e1i": 1456,
    "\u2581\u0111\u1ea3m": 1457,
    "\u2581tha": 1458,
    "\u2581light": 1459,
    "\u2581H\u00ecnh": 1460,
    "\u2581t\u1ea5n": 1461,
    "\u2581living": 1462,
    "\u2581tr\u1eadn": 1463,
    "\u25818": 1464,
    "\u2581kh\u1ecfe": 1465,
    "\u2581nice": 1466,
    "\u2581th\u0103m": 1467,
    "\u2581\u0111\u00e1m": 1468,
    "\u2581m\u00e3i": 1469,
    "\u2581nh\u1eadp": 1470,
    "\u2581t": 1471,
    "\u2581La": 1472,
    "\u2581vi\u1ec7n": 1473,
    "\u2581\u00c0": 1474,
    "\u2581G\u00ec": 1475,
    "\u2581Ra": 1476,
    "\u2581makes": 1477,
    "\u2581\u00e2n": 1478,
    "\u2581da": 1479,
    "\u2581ngh\u1ec9": 1480,
    "\u2581kh\u1ed5": 1481,
    "\u2581v\u00e0ng": 1482,
    "\u2581s\u1edf": 1483,
    "\u2581\u0111u\u1ed5i": 1484,
    "\u2581peace": 1485,
    "\u2581food": 1486,
    "\u2581pretty": 1487,
    "\u2581M\u00ecnh": 1488,
    "\u2581rest": 1489,
    "\u2581Theo": 1490,
    "\u2581d\u00e2ng": 1491,
    "\u2581Trung": 1492,
    "\u2581Vi\u1ec7c": 1493,
    "\u2581g\u1eedi": 1494,
    "\u2581gi\u1eadn": 1495,
    "\u2581working": 1496,
    "g": 1497,
    "\u2581question": 1498,
    "\u2581Ch\u00ednh": 1499,
    "\u2581di\u1ec7t": 1500,
    "\u2581comes": 1501,
    "man": 1502,
    "/": 1503,
    "\u2581d\u1ed7": 1504,
    "Tr\u1eddi": 1505,
    "\u2581order": 1506,
    "\u2581V\u1edbi": 1507,
    "\u2581Thanks": 1508,
    "\u2581\u0110\u00e3": 1509,
    "T\u00f4i": 1510,
    "\u2581play": 1511,
    "\u2581happen": 1512,
    "\u2581l\u1ea7m": 1513,
    "\u2581ch\u0103m": 1514,
    "\u25812:": 1515,
    "\u2581b\u1ee9c": 1516,
    "\u2581s\u1edbm": 1517,
    "\u2581ng\u00f4i": 1518,
    "\u2581\u01b0": 1519,
    "\u2581wants": 1520,
    "\u2581tr\u1ea1ng": 1521,
    "\u2581c\u1ef1c": 1522,
    "\u2581th\u1eadn": 1523,
    "\u2581ng\u1eef": 1524,
    "\u2581r\u1ed1i": 1525,
    "\u2581By": 1526,
    "\u2581su\u1ed1t": 1527,
    "\u2581\u1ed2": 1528,
    "\u2581h\u1eb3n": 1529,
    "\u2581Sorry": 1530,
    "\u2581thee": 1531,
    "\u2581th\u1ea5t": 1532,
    "\u2581m\u1ee9c": 1533,
    "\u2581g\u00e3": 1534,
    "\u2581b\u0103ng": 1535,
    "\u2581h\u1ecdp": 1536,
    "\u2581hold": 1537,
    "\u2581ng\u00f4n": 1538,
    "\u2581taking": 1539,
    "ri": 1540,
    "\u2581free": 1541,
    "\u2581fight": 1542,
    "\u2581v\u00e2ng": 1543,
    "\u2581gi\u00e0": 1544,
    "\u2581n\u00e0ng": 1545,
    "\u2581\u00f4": 1546,
    "se": 1547,
    "sa": 1548,
    "\u2581listen": 1549,
    "The": 1550,
    "\u2581\u0111\u1ec1n": 1551,
    "\u2581ho\u1ea1ch": 1552,
    "\u2581gh\u00e9t": 1553,
    "\u2581brothers": 1554,
    "\u2581v\u00edt": 1555,
    "\u2581ye": 1556,
    "\u2581ch\u00e0ng": 1557,
    "\u2581message": 1558,
    "\u2581answer": 1559,
    "\u2581Be": 1560,
    "\u2581Give": 1561,
    "T": 1562,
    "\u2581tr\u1ed1n": 1563,
    "\u2581g\u01b0\u01a1ng": 1564,
    "\u2581l\u1ed9": 1565,
    "\u2581ki\u1ec3u": 1566,
    "\u2581ph\u01b0\u1edbc": 1567,
    "\u2581h\u1ed3": 1568,
    "\u2581ph\u1ee7": 1569,
    "\u2581phim": 1570,
    "\u2581k\u00e9o": 1571,
    "\u2581lives": 1572,
    "\u2581thuy\u1ebft": 1573,
    "\u2581Tell": 1574,
    "\u2581system": 1575,
    "\u2581c": 1576,
    "\u2581Will": 1577,
    "\u2581Hay": 1578,
    "\u2581quen": 1579,
    "\u2581b\u1ecd": 1580,
    "\u2581E": 1581,
    "\u2581trust": 1582,
    "us": 1583,
    "\u2581n\u00fai": 1584,
    "\u2581themselves": 1585,
    "\u2581cu\u1ed1n": 1586,
    "\u2581died": 1587,
    "\u2581King": 1588,
    "\u2581c\u1ea7m": 1589,
    "\u2581ng\u1edd": 1590,
    "\u2581Gia": 1591,
    "\u2581husband": 1592,
    "\u2581Ngay": 1593,
    "\u2581tr\u1eeb": 1594,
    "\u2581everyone": 1595,
    "\u2581cannot": 1596,
    "\u2581ch\u01b0\u01a1ng": 1597,
    "\u2581m\u00f3n": 1598,
    "\u2581k\u00fd": 1599,
    "la": 1600,
    "\u2581ch\u1edb": 1601,
    "\u2581ch\u00f3": 1602,
    "\u2581whom": 1603,
    "\u2581v\u1ef1c": 1604,
    "\u2581nh\u1eafc": 1605,
    "\u2581l\u00e3nh": 1606,
    "\u2581women": 1607,
    "\u2581Giu": 1608,
    "\u2581Even": 1609,
    "\u2581c\u1ed9ng": 1610,
    "\u2581c\u1eady": 1611,
    "\u2581th\u1ecbt": 1612,
    "\u2581started": 1613,
    "\u2581x\u00fac": 1614,
    "\u2581khoa": 1615,
    "\u2581deal": 1616,
    "\u2581vinh": 1617,
    "\u2581\u0110a": 1618,
    "\u2581daughter": 1619,
    "\u2581K": 1620,
    "\u2581c\u1ea1nh": 1621,
    "\u2581\u0111\u00ea": 1622,
    "\u2581study": 1623,
    "\u2581\u25a1": 1624,
    "\u2581ni\u1ec1m": 1625,
    "\u2581phong": 1626,
    "\u2581business": 1627,
    "\u2581h\u1ed3i": 1628,
    "\u25819": 1629,
    "\u2581M\u00f4i": 1630,
    "\u2581nh\u1ea1c": 1631,
    "\u2581knows": 1632,
    "\u2581ho\u00e0ng": 1633,
    "\u2581ch\u00faa": 1634,
    "\u2581r\u1ed9ng": 1635,
    "\u2581L\u00fac": 1636,
    "\u2581future": 1637,
    "\u2581b\u1ea1i": 1638,
    "\u2581h\u00e1t": 1639,
    "\u2581t\u01b0\u1eddng": 1640,
    "\u2581d\u00f2ng": 1641,
    "\u2581minutes": 1642,
    "\u2581inside": 1643,
    "\u2581save": 1644,
    "\u2581guess": 1645,
    "\u2581Qu\u1ed1c": 1646,
    "\u2581law": 1647,
    "\u2581taken": 1648,
    "\u2581b\u1ea1c": 1649,
    "\u2581d\u1ee5c": 1650,
    "\u25811:": 1651,
    "\u25814:": 1652,
    "\u2581became": 1653,
    "\u2581gi\u1ea3n": 1654,
    "\u2581Moses": 1655,
    "Name": 1656,
    "\u2581m\u01a1": 1657,
    "\u2581tim": 1658,
    "\u2581Cer": 1659,
    "\u2581S\u1ebd": 1660,
    "\u2581stand": 1661,
    "\u2581walk": 1662,
    "\u2581ti\u1ec7t": 1663,
    "\u2581country": 1664,
    "\u2581cai": 1665,
    "\u2581haven": 1666,
    "\u2581b\u00ed": 1667,
    "\u2581n\u1eb7ng": 1668,
    "\u2581sons": 1669,
    "\u2581Nhanh": 1670,
    "\u2581needs": 1671,
    "\u2581\u0111\u1eb7ng": 1672,
    "\u2581Jerusalem": 1673,
    "\u2581c\u01b0": 1674,
    "\u2581ph\u1ee5ng": 1675,
    "\u2581t\u0129nh": 1676,
    "\u2581yes": 1677,
    "ers": 1678,
    "\u2581ngu": 1679,
    "\u2581G": 1680,
    "\u2581b\u1ed1n": 1681,
    "\u2581possible": 1682,
    "\u2581\u01a1": 1683,
    "\u2581M": 1684,
    "\u2581Hi": 1685,
    "\u2581s\u00f3c": 1686,
    "\u2581story": 1687,
    "\u2581beetle": 1688,
    "\u2581\u0111en": 1689,
    "to": 1690,
    "\u2581tr\u1ea1i": 1691,
    "\u2581holy": 1692,
    "\u2581ch\u1eefa": 1693,
    "x": 1694,
    "\u2581t\u1ea3": 1695,
    "\u2581t\u1eadn": 1696,
    "\u2581Th\u00e1i": 1697,
    "\u2581d\u1eebng": 1698,
    "\u2581m\u1eafc": 1699,
    "\u2581\u0110\u01b0a": 1700,
    "b": 1701,
    "\u2581hours": 1702,
    "\u2581half": 1703,
    "\u2581kh\u1ee7ng": 1704,
    "\u2581ph\u01b0\u1ee3ng": 1705,
    "\u2581drink": 1706,
    "\u2581b\u00e0y": 1707,
    "\u2581n\u1ed7i": 1708,
    "\u2581fear": 1709,
    "k": 1710,
    "\u2581wrote": 1711,
    "\u2581Dad": 1712,
    "\u2581known": 1713,
    "\u2581tr\u0103m": 1714,
    "\u2581l\u1ef1a": 1715,
    "\u2581hurt": 1716,
    "\u2581Jack": 1717,
    "\u2581ch\u1eebng": 1718,
    "\u2581cut": 1719,
    "\u2581ch\u1eef": 1720,
    "\u2581l\u1edbp": 1721,
    "\u2581ph\u00f9": 1722,
    "amby": 1723,
    "\u2581kh\u00edch": 1724,
    "\u2581ways": 1725,
    "\u2581couldn": 1726,
    "\u2581mine": 1727,
    "am": 1728,
    "cidae": 1729,
    "\u2581c\u1eaft": 1730,
    "\u2581ngon": 1731,
    "\u2581Cerambycidae": 1732,
    "\u2581ngh\u1ecbch": 1733,
    "\u2581\u0110\u1ebfn": 1734,
    "\u2581line": 1735,
    "\u2581least": 1736,
    "P": 1737,
    "\u2581pay": 1738,
    "\u2581alive": 1739,
    "\u2581beautiful": 1740,
    "\u2581ng\u00e0n": 1741,
    "\u2581Vua": 1742,
    "\u2581service": 1743,
    "\u2581ng\u0103n": 1744,
    "\u2581ngu\u1ed3n": 1745,
    "\u2581mi\u1ec7ng": 1746,
    "\u2581c\u1ee5": 1747,
    ",\"": 1748,
    "\u2581small": 1749,
    "\u2581OK": 1750,
    "\u2581t\u1ed9c": 1751,
    "\u2581From": 1752,
    "ma": 1753,
    "\u2581sense": 1754,
    "\u2581k\u1ef9": 1755,
    "\u2581th\u00e1ch": 1756,
    "\u2581phone": 1757,
    "\u2581Tr\u01b0\u1edbc": 1758,
    "\u2581York": 1759,
    "\u2581game": 1760,
    "\u2581nghi\u00ean": 1761,
    "\u2581V\u1ec1": 1762,
    "\u2581N": 1763,
    "\u2581afraid": 1764,
    "\u2581c\u0169": 1765,
    "\u2581Dr": 1766,
    "\u2581Really": 1767,
    "\u2581kid": 1768,
    "\u2581behind": 1769,
    "\u2581k\u00eau": 1770,
    "\u2581c\u01b0\u1edbi": 1771,
    "\u25815:": 1772,
    "\u2581C\u1ea3": 1773,
    "\u2581c\u01a1n": 1774,
    "\u2581\u00e1nh": 1775,
    "\u2581nor": 1776,
    "\u2581binh": 1777,
    "\u2581v\u01b0\u1ee3t": 1778,
    "\u2581worry": 1779,
    "\u2581gi\u1ecfi": 1780,
    "or": 1781,
    "M": 1782,
    "\u2581x\u01b0a": 1783,
    "\u2581\u0111a": 1784,
    "\u2581probably": 1785,
    "\u2581Frank": 1786,
    "\u2581\u0111\u00f2i": 1787,
    "\u2581th\u1eadm": 1788,
    "\u2581clear": 1789,
    "\u2581song": 1790,
    "\u2581H\u1ed9i": 1791,
    "\u2581H\u1ee1i": 1792,
    "\u258111": 1793,
    "\u2581bu\u1ed9c": 1794,
    "\u2581Son": 1795,
    "\u2581Hy": 1796,
    "\u2581s\u1eafc": 1797,
    "\u2581huh": 1798,
    "\u2581along": 1799,
    "\u2581kh\u00f3a": 1800,
    "\u2581often": 1801,
    "\u2581h\u1eadu": 1802,
    "\u2581questions": 1803,
    "\u2581easy": 1804,
    "\u2581Word": 1805,
    "n\u00f3": 1806,
    "\u2581nghi\u00eam": 1807,
    "\u2581stuff": 1808,
    "\u2581un": 1809,
    "\u2581m\u1eabu": 1810,
    "\u258118": 1811,
    "\u2581s\u00f3t": 1812,
    "\u2581s": 1813,
    "\u2581v\u1eefng": 1814,
    "\u2581control": 1815,
    "\u2581sister": 1816,
    "\u2581Nhi\u1ec1u": 1817,
    "\u2581t\u1eafc": 1818,
    "li": 1819,
    "\u2581chi\u00ean": 1820,
    "\u2581late": 1821,
    "\u2581during": 1822,
    "\u2581Satan": 1823,
    "\u2581h\u1ed3n": 1824,
    "\u2581d\u00e2y": 1825,
    "\u2581l\u00e1i": 1826,
    "\u2581L\u1ea1i": 1827,
    "\u2581d\u00f5i": 1828,
    "\u2581s\u1ed5": 1829,
    "\u2581Xem": 1830,
    "\u2581works": 1831,
    "on": 1832,
    "\u2581l\u00ednh": 1833,
    "\u2581thu\u1eadn": 1834,
    "\u2581watch": 1835,
    "\u2581exactly": 1836,
    "\u2581t\u00f2a": 1837,
    "\u2581moment": 1838,
    "\u2581months": 1839,
    "\u2581tonight": 1840,
    "\u2581chance": 1841,
    "\u2581Listen": 1842,
    "\u2581nam": 1843,
    "\u2581past": 1844,
    "\u2581ph\u00ed": 1845,
    "\u2581goes": 1846,
    "\u2581sleep": 1847,
    "\u2581Th\u01b0a": 1848,
    "\u2581thank": 1849,
    "an": 1850,
    "\u2581\u1ea5n": 1851,
    "\u2581qu\u1ea3n": 1852,
    "\u2581k\u00edch": 1853,
    "ic": 1854,
    "\u2581information": 1855,
    "\u2581six": 1856,
    "\u2581h\u1ecda": 1857,
    "\u2581tr\u1ecdn": 1858,
    "\u25816:": 1859,
    "\u2581ch\u0103ng": 1860,
    "\u2581l": 1861,
    "\u2581li": 1862,
    "\u2581nh\u1ea3y": 1863,
    "\u2581N\u00ean": 1864,
    "\u2581hoa": 1865,
    "\u2581ngh\u1ec7": 1866,
    "\u2581hit": 1867,
    "\u2581Thi": 1868,
    "\".": 1869,
    "\u2581\u0111\u01b0\u01a1ng": 1870,
    "\u2581kids": 1871,
    "\u2581l\u00e1": 1872,
    "\u2581safe": 1873,
    "\u2581Could": 1874,
    "\u2581khai": 1875,
    "\u2581knowledge": 1876,
    "able": 1877,
    "\u258150": 1878,
    "\u2581luy\u1ec7n": 1879,
    "\u2581James": 1880,
    "\u2581serve": 1881,
    "\u2581looks": 1882,
    "\u2581view": 1883,
    "\u2581c\u1eed": 1884,
    "\u2581tried": 1885,
    "\u2581However": 1886,
    "\u2581n\u00f3ng": 1887,
    "\u2581n\u1ec1n": 1888,
    "\u2581Nh\u00e0": 1889,
    "\u2581Would": 1890,
    "\u2581b\u1eefa": 1891,
    "\u2581sin": 1892,
    "\u2581ti\u1ebfc": 1893,
    "\u2581heaven": 1894,
    "\u2581needed": 1895,
    "\u2581married": 1896,
    "\u2581th\u1ecfa": 1897,
    "\u2581return": 1898,
    "\u2581crazy": 1899,
    "\u2581\u0111\u1ea1t": 1900,
    "\u2581ng\u1ef1a": 1901,
    "\u2581ng\u1ed1c": 1902,
    "B": 1903,
    "\u2581Ah": 1904,
    "\u2581met": 1905,
    "\u2581began": 1906,
    "\u2581tr\u1ea3i": 1907,
    "\u2581\u0111\u00edch": 1908,
    "\u2581folder": 1909,
    "\u2581tr\u1ee5": 1910,
    "\u2581H\u00ea": 1911,
    "\u2581servants": 1912,
    "\u2581tomorrow": 1913,
    "\u2581c\u1ea5t": 1914,
    "\u2581t\u00f9y": 1915,
    "\u2581ng\u1ea1c": 1916,
    "\u2581qu\u1ea7n": 1917,
    "\u2581t\u1ea1p": 1918,
    "\u2581d\u1ea1ng": 1919,
    "\u2581Picture": 1920,
    "\u2581couple": 1921,
    "en": 1922,
    "\u2581apostle": 1923,
    "\u2581\u0111\u1ea9y": 1924,
    "\u2581U": 1925,
    "\u2581Sir": 1926,
    "\u2581n\u1eeda": 1927,
    "\u2581promise": 1928,
    "\u2581\u0111\u1ea3o": 1929,
    "\u2581F": 1930,
    "\u2581t\u1ee5": 1931,
    "\u0111a": 1932,
    "\u2581cause": 1933,
    "\u2581supposed": 1934,
    "le": 1935,
    "\u2581Sam": 1936,
    "\u2581gi\u1ea3m": 1937,
    "\u2581feet": 1938,
    "\u2581x\u00e3": 1939,
    "\u2581gi\u1ea5y": 1940,
    "\u2581l\u01b0\u01a1ng": 1941,
    "\u2581chim": 1942,
    "\u2581strong": 1943,
    "l\u00e0": 1944,
    "\u2581ly": 1945,
    "\u2581follow": 1946,
    "\u2581May": 1947,
    "\u2581\u0111\u00f9a": 1948,
    "\u2581nu\u00f4i": 1949,
    "\u2581r\u01a1i": 1950,
    "\u2581Man": 1951,
    "\u2581almost": 1952,
    "\u2581Nothing": 1953,
    "\u2581quite": 1954,
    "\u2581thi\u1ec7n": 1955,
    "\u2581sanh": 1956,
    "\u2581shot": 1957,
    "\u2581ri": 1958,
    "\u2581se": 1959,
    "\u2581c\u01b0\u1edbp": 1960,
    "\u2581k\u00ec": 1961,
    "L": 1962,
    "\u2581\u00c1p": 1963,
    "You": 1964,
    "\u2581break": 1965,
    "H": 1966,
    "\u258116": 1967,
    "\u2581Keep": 1968,
    "\u2581Matthew": 1969,
    "\u2581n\u1ed5": 1970,
    "\u2581l\u1eeba": 1971,
    "\u2581Those": 1972,
    "\u2581nh\u00f3c": 1973,
    "ba": 1974,
    "\u2581Ch\u1ebft": 1975,
    "\u2581week": 1976,
    "\u2581lo\u1ea1n": 1977,
    "\u2581m\u01b0\u1eddi": 1978,
    "\u2581c\u1eadp": 1979,
    "\u2581\u0111o\u00e0n": 1980,
    "\u2581minute": 1981,
    "\u2581m\u1eafn": 1982,
    "\u2581ph\u00f3": 1983,
    "\u2581according": 1984,
    "\u2581worship": 1985,
    "\u2581million": 1986,
    "\u2581s\u1ebfp": 1987,
    "\u2581wish": 1988,
    "\u2581outside": 1989,
    "\u2581b\u00f2": 1990,
    "\u2581n\u00e3o": 1991,
    "\u2581felt": 1992,
    "\u2581P": 1993,
    "\u2581chuy\u00ean": 1994,
    "\u2581gets": 1995,
    "Y": 1996,
    "\u2581t\u1ec9nh": 1997,
    "\u2581Tuy\u1ec7t": 1998,
    "\u2581Wow": 1999,
    "t\u00f4i": 2000,
    "\u2581Gi\u0103ng": 2001,
    "\u2581Me": 2002,
    "\u2581personal": 2003,
    "\u2581phi": 2004,
    "\u2581t\u1ed3n": 2005,
    "\u2581\u1ea9n": 2006,
    "\u2581Si": 2007,
    "\u2581chi\u1ec1u": 2008,
    "\u2581L": 2009,
    "\u2581so\u00e1t": 2010,
    "\u2581Th\u1ee9": 2011,
    "\u2581Great": 2012,
    "\u2581hi\u1ec3n": 2013,
    "\u2581whatever": 2014,
    "\u2581ain": 2015,
    "\u2581voice": 2016,
    "\u2581early": 2017,
    "\u2581che": 2018,
    "\u2581m\u00f9a": 2019,
    "\u2581special": 2020,
    "\u2581ty": 2021,
    "\u2581gun": 2022,
    "\u2581d\u1ef1a": 2023,
    "\u2581c\u00e1m": 2024,
    "\u2581soul": 2025,
    "\u2581gi\u00e1m": 2026,
    "\u2581h\u1eb9n": 2027,
    "\u2581Does": 2028,
    "\u2581H": 2029,
    "\u2581front": 2030,
    "\u2581certain": 2031,
    "\u2581g\u1ed3m": 2032,
    "\u2581anymore": 2033,
    "\u258140": 2034,
    "\u2581evil": 2035,
    "\u2581100": 2036,
    "\u2581using": 2037,
    "%": 2038,
    "\u2581b\u1ea3y": 2039,
    "\u2581send": 2040,
    "\u2581dad": 2041,
    "nh": 2042,
    "\u2581n\u1ed9i": 2043,
    "ru": 2044,
    "\u2581either": 2045,
    "\u2581Ch\u1edd": 2046,
    "\u2581office": 2047,
    "\u2581sort": 2048,
    "\u2581t\u1ea1m": 2049,
    "\u2581longer": 2050,
    "\u2581forth": 2051,
    "\u2581thuy\u1ec1n": 2052,
    "\u2581share": 2053,
    "\u2581t\u00e0n": 2054,
    "\u2581police": 2055,
    "\u2581waiting": 2056,
    "\u2581m\u00e1i": 2057,
    "\u2581therefore": 2058,
    "\u2581century": 2059,
    "\u2581kh\u00f3c": 2060,
    "\u2581neither": 2061,
    "\u2581present": 2062,
    "\u2581nations": 2063,
    "\u2581toward": 2064,
    "\u2581near": 2065,
    "\u2581t\u1ea5m": 2066,
    "\u2581perfect": 2067,
    "\u2581giving": 2068,
    "\u2581plan": 2069,
    "\u2581kh\u1edfi": 2070,
    "\u2581c\u1ea3i": 2071,
    "\u2581l\u1eabn": 2072,
    "\u2581check": 2073,
    "\u2581forget": 2074,
    "\u2581r\u00f4": 2075,
    "\u2581dung": 2076,
    "\u2581Hoa": 2077,
    "\u2581Ch\u00fac": 2078,
    "\u2581turned": 2079,
    "\u2581sound": 2080,
    "\u2581pass": 2081,
    "\u2581ti\u1ec7c": 2082,
    "\u2581faithful": 2083,
    "\u2581ni\u00ean": 2084,
    "\u2581\u1ed5ng": 2085,
    "\u2581ph\u1ea1t": 2086,
    "\u2581following": 2087,
    "\u2581re": 2088,
    "\u2581ass": 2089,
    "\u2581h\u01b0": 2090,
    "\u2581trouble": 2091,
    "\u2581T\u00e2y": 2092,
    "\u2581seven": 2093,
    "\u2581Excuse": 2094,
    "\u2581H\u00f4m": 2095,
    "\u2581t\u1ed5ng": 2096,
    "\u2581sit": 2097,
    "\u2581ki\u1ebfp": 2098,
    "\u2581n\u1ed1i": 2099,
    "\u2581town": 2100,
    "\u2581lead": 2101,
    "\u2581less": 2102,
    "\u2581ahead": 2103,
    "\u2581Mary": 2104,
    "\u2581c\u1ea9n": 2105,
    "ch": 2106,
    "\u2581gi\u00e0u": 2107,
    "\u2581hundred": 2108,
    "eth": 2109,
    "\u2581Na": 2110,
    "\u2581vai": 2111,
    "\u2581Tin": 2112,
    "\u2581disciples": 2113,
    "ness": 2114,
    "\u2581phi\u1ec1n": 2115,
    "\u2581mouth": 2116,
    "\u2581Th\u00ec": 2117,
    "\u2581khi\u1ec3n": 2118,
    "\u2581\u0111\u00f3i": 2119,
    "\u2581Fuck": 2120,
    "\u2581to\u00e1n": 2121,
    "\u2581R": 2122,
    "\u2581ham": 2123,
    "Laughter": 2124,
    "\u258117": 2125,
    "\u2581x": 2126,
    "\u2581telling": 2127,
    "\u2581tr\u1ef1c": 2128,
    "\u2581experience": 2129,
    "\u2581Ben": 2130,
    "\u2581t\u1ed1": 2131,
    "\u2581B\u00e1c": 2132,
    "\u2581\u00d0a": 2133,
    "\u2581\u0111i\u1ec7p": 2134,
    "\u258114": 2135,
    "\u2581problems": 2136,
    "\u2581b\u1ea1o": 2137,
    "\u2581mau": 2138,
    "\u2581Hold": 2139,
    "\u2581ph\u00ea": 2140,
    "\u2581within": 2141,
    "\u2581field": 2142,
    "\u2581clean": 2143,
    "\u2581x\u1ebfp": 2144,
    "\u2581h\u00fat": 2145,
    "\u2581Help": 2146,
    ").": 2147,
    "\u2581fun": 2148,
    "\u2581nh\u1eadt": 2149,
    "\u2581tr\u1eafng": 2150,
    "\u2581t\u00e1": 2151,
    "\u2581m\u1ebfn": 2152,
    "\u2581c\u1edb": 2153,
    "\u258125": 2154,
    "\u2581l\u0169": 2155,
    "\u2581xung": 2156,
    "\u2581W": 2157,
    "\u2581team": 2158,
    "\u2581M\u1ea5y": 2159,
    "\u2581learned": 2160,
    "\u2581v\u1ebft": 2161,
    "\u258113": 2162,
    "\u2581chuy\u1ebfn": 2163,
    "\u2581kh\u1eafc": 2164,
    "\u2581Which": 2165,
    "\u2581N\u0103m": 2166,
    "\u2581s\u00f4ng": 2167,
    "\u2581fall": 2168,
    "\u2581Ph\u00e1p": 2169,
    "\u2581ten": 2170,
    "\u2581serious": 2171,
    "G": 2172,
    "\u2581t\u1ea7m": 2173,
    "\u2581rather": 2174,
    "\u2581lose": 2175,
    "\u2581M\u00e0": 2176,
    "\u2581\u0111\u00f3n": 2177,
    "\u2581purpose": 2178,
    "\u2581\u0111\u1ecf": 2179,
    "\u2581age": 2180,
    "\u2581C\u00e2u": 2181,
    "\u2581seems": 2182,
    "\u2581ki\u00ean": 2183,
    "\"?": 2184,
    "\u2581d\u00e1m": 2185,
    "\u2581hate": 2186,
    "\u2581buy": 2187,
    "\u2581r\u00fat": 2188,
    "\u2581X": 2189,
    "\u2581Gi\u00e1o": 2190,
    "\u2581#": 2191,
    "\u2581\u0111\u01b0\u01a1": 2192,
    "\u2581V": 2193,
    "\u2581hour": 2194,
    "\u2581self": 2195,
    "\u2581l\u1ea1nh": 2196,
    "\u2581situation": 2197,
    "\u2581seem": 2198,
    "\u2581L\u1ea7n": 2199,
    "\u2581d\u00e0ng": 2200,
    "\u2581kept": 2201,
    "\u2581sea": 2202,
    "N": 2203,
    "\u2581\u0111\u1ed9t": 2204,
    "\u2581D\u1eebng": 2205,
    "\u2581ourselves": 2206,
    "\u2581M\u1ed7i": 2207,
    "\u2581ground": 2208,
    "\u2581sick": 2209,
    "\u2581B\u1ed9": 2210,
    "\u2581v\u00ed": 2211,
    "\u2581whether": 2212,
    "\u2581choice": 2213,
    "\u2581Miss": 2214,
    "\u2581\u0111\u1ef1ng": 2215,
    "\u2581top": 2216,
    "\u2581changed": 2217,
    "\u2581loved": 2218,
    "\u2581Whoa": 2219,
    "\u2581ng\u01b0\u1ee3c": 2220,
    "trai": 2221,
    "\u2581marriage": 2222,
    "\u2581video": 2223,
    "\u2581chu\u1ed9c": 2224,
    "\u2581consider": 2225,
    "\u2581th\u1ec1": 2226,
    "\u2581ch\u1ed1i": 2227,
    "\u2581t\u1edd": 2228,
    "\u258124": 2229,
    "\u2581B\u1ecf": 2230,
    "\u2581building": 2231,
    "\u2581d\u1ea7n": 2232,
    "\u2581th\u01b0\u1edfng": 2233,
    "\u2581Mom": 2234,
    "\u2581Yet": 2235,
    "\u2581happens": 2236,
    "\u2581hung": 2237,
    "\u2581write": 2238,
    "\u2581gi\u00e2y": 2239,
    "\u2581m\u00e0n": 2240,
    "\u2581First": 2241,
    "\u2581m\u00ea": 2242,
    "\u2581th\u1eeba": 2243,
    "\u2581forever": 2244,
    "\u2581respect": 2245,
    "\u2581s\u00e1u": 2246,
    "\u2581ph\u1eadn": 2247,
    "ion": 2248,
    "\u2581running": 2249,
    "\u2581tr\u1ed9m": 2250,
    "\u2581\u0110ang": 2251,
    "\u2581joy": 2252,
    "\u2581Michael": 2253,
    "\u2581d\u01b0\u1eddng": 2254,
    "\u2581history": 2255,
    "\u2581h\u1ed9p": 2256,
    ">": 2257,
    "\u2581looked": 2258,
    "\u2581fast": 2259,
    "\u2581Two": 2260,
    "\u2581kho\u1ea3n": 2261,
    "\u2581offer": 2262,
    "\u2581bed": 2263,
    "\u2581language": 2264,
    "\u2581K\u1ebb": 2265,
    "\u2581th\u1ea3o": 2266,
    "\u2581J": 2267,
    "\u2581born": 2268,
    "\u2581Nam": 2269,
    "\u2581Put": 2270,
    "\u2581m\u00e3": 2271,
    "\u2581ti\u1ec7n": 2272,
    "\u2581Ch\u01b0a": 2273,
    "\u2581b\u00e1p": 2274,
    "R": 2275,
    "\u2581\u0111\u1ea1n": 2276,
    "\u2581Judah": 2277,
    "is": 2278,
    "\u2581hath": 2279,
    "\u2581xanh": 2280,
    "\u2581h\u1ea1t": 2281,
    "\u2581Only": 2282,
    "\u2581fellow": 2283,
    "\u2581People": 2284,
    "\u2581B\u1eb1ng": 2285,
    "\u2581act": 2286,
    "\u2581aren": 2287,
    "\u2581s\u1ebb": 2288,
    "\u2581Ga": 2289,
    "\u2581N\u00e0o": 2290,
    "\u2581thousand": 2291,
    "\u2581Th\u1ef1c": 2292,
    "\u2581Th\u1eb1ng": 2293,
    "\u2581humans": 2294,
    "\u2581ph\u00f3ng": 2295,
    "\u2581ru": 2296,
    "\u2581t\u1eaft": 2297,
    "\u2581khen": 2298,
    "\u2581gold": 2299,
    "\u2581takes": 2300,
    "\u2581Psalm": 2301,
    "\u2581ph\u00e1i": 2302,
    "\u2581wicked": 2303,
    "\u2581\u266b": 2304,
    "\u2581eye": 2305,
    "\u2581nh\u1eabn": 2306,
    "\u2581huy": 2307,
    "\u2581teach": 2308,
    "\u2581gi\u1ea5u": 2309,
    "\u2581feeling": 2310,
    "\u2581group": 2311,
    "\u2581Coi": 2312,
    "\u2581poor": 2313,
    "\u2581attention": 2314,
    "\u2581company": 2315,
    "\u2581s\u0103n": 2316,
    "\u2581mom": 2317,
    "\u2581th\u1eadp": 2318,
    "\u2581continue": 2319,
    "\u2581support": 2320,
    "\u2581meeting": 2321,
    "ie": 2322,
    "\u2581ministry": 2323,
    "\u2581month": 2324,
    "\u2581party": 2325,
    "\u2581b\u1eadn": 2326,
    "\u2581file": 2327,
    "\u2581asking": 2328,
    "\u2581th\u1ea3": 2329,
    "\u2581T\u1ea1m": 2330,
    "\u2581relationship": 2331,
    "\u2581bitch": 2332,
    "\u2581quy": 2333,
    "\u2581moved": 2334,
    "\u2581h\u1ea3o": 2335,
    "\u2581mi": 2336,
    "\u2581b\u00e8": 2337,
    "\u2581girls": 2338,
    "\u2581loving": 2339,
    "\u2581\u00d0\u1ea5ng": 2340,
    "\u2581qu\u00e0": 2341,
    "\u2581Sure": 2342,
    "\u25814.": 2343,
    "\u2581Ch\u00e2u": 2344,
    "\u2581B\u00ecnh": 2345,
    "\u2581Adam": 2346,
    "\u2581preaching": 2347,
    "\u2581result": 2348,
    "\u2581ni\u1ec7m": 2349,
    "\u2581m\u1ebd": 2350,
    "\u2581pick": 2351,
    "\u2581R\u00f5": 2352,
    "\u2581lie": 2353,
    "\u2581t\u00f3c": 2354,
    "\u2581ch\u1ee9a": 2355,
    "\u2581offering": 2356,
    "\u2581Abraham": 2357,
    "\u2581wisdom": 2358,
    "\u2581Ho\u1eb7c": 2359,
    "\u2581t\u00eam": 2360,
    "\u2581Ca": 2361,
    "O": 2362,
    "\u2581b\u01a1": 2363,
    "\u2581hoang": 2364,
    "\u2581Qua": 2365,
    "\u2581b\u1eadt": 2366,
    "!\"": 2367,
    "\u2581Tr\u00e1i": 2368,
    "\u2581kh\u1ea9u": 2369,
    "\u2581ng\u1ee3i": 2370,
    "\u2581ng\u01b0\u01a1": 2371,
    "\u2581Thay": 2372,
    "\u2581sign": 2373,
    "\u2581Gi\u1ed1ng": 2374,
    "\u2581Thus": 2375,
    "\u2581Daniel": 2376,
    "\u2581entire": 2377,
    "\u2581\u0111\u1eb1ng": 2378,
    "\u2581however": 2379,
    "\u2581th\u00ed": 2380,
    "\u2581b\u1ed9i": 2381,
    "\u2581somebody": 2382,
    "\u2581ngh\u00e8o": 2383,
    "\u2581Since": 2384,
    "\u2581D\u0129": 2385,
    "\u2581Am": 2386,
    "\u25813.": 2387,
    "\u2581Shit": 2388,
    "\u2581g": 2389,
    "\u2581lived": 2390,
    "\u2581c\u00e0": 2391,
    "\u2581kh\u00e1m": 2392,
    "\u2581hot": 2393,
    "\u2581th\u01a1": 2394,
    "\u2581protect": 2395,
    "\u2581ch\u1ea3": 2396,
    "\u2581v\u1eadn": 2397,
    "\u2581x\u1ee9c": 2398,
    "\u2581r\u1eafc": 2399,
    "\u2581th\u1edf": 2400,
    "\u2581worked": 2401,
    "\u2581Stay": 2402,
    "\u2581g\u00f3p": 2403,
    "\u2581th\u1ea3y": 2404,
    "\u2581d\u1ecdn": 2405,
    "\u2581du": 2406,
    "\u2581nhu": 2407,
    "F": 2408,
    "\u2581l\u1eb7ng": 2409,
    "\u2581ni": 2410,
    "\u2581t\u00fai": 2411,
    "ha": 2412,
    "\u2581l\u00ed": 2413,
    "\u2581Make": 2414,
    "\u2581Ngo\u00e0i": 2415,
    "\u2581ngang": 2416,
    "\u2581pain": 2417,
    "\u2581c\u1eadn": 2418,
    "\u2581x\u1ee9ng": 2419,
    "\u2581Ban": 2420,
    "\u2581counsel": 2421,
    "it": 2422,
    "\u2581air": 2423,
    "\u2581written": 2424,
    "\u2581enjoy": 2425,
    "\u2581brain": 2426,
    "\u2581Scriptures": 2427,
    "\u2581huy\u1ebft": 2428,
    "\u2581h\u00e3i": 2429,
    "\u2581v\u1ebd": 2430,
    "\u2581m\u00f4i": 2431,
    "\u2581Lu\u1eadt": 2432,
    "\u2581hey": 2433,
    "\u2581touch": 2434,
    "\u2581mankind": 2435,
    "\u2581Ki": 2436,
    "\u2581boys": 2437,
    "3": 2438,
    "\u2581Move": 2439,
    "vi": 2440,
    "\u2581Egypt": 2441,
    "\u2581\u0110\u1ed3": 2442,
    "\u2581tr\u1ea5n": 2443,
    "\u2581lao": 2444,
    "\u2581Hmm": 2445,
    "\u2581Mark": 2446,
    "\u2581everybody": 2447,
    "\u2581B\u1eaft": 2448,
    "\u2581h\u00f9ng": 2449,
    "\u2581moving": 2450,
    "\u2581bi": 2451,
    "\u2581difficult": 2452,
    "\u2581d\u1ecb": 2453,
    "\u2581elders": 2454,
    "\u2581Her": 2455,
    "\u2581c\u1eb7p": 2456,
    "\u2581Many": 2457,
    "\u2581si": 2458,
    "\u2581helped": 2459,
    "ca": 2460,
    "\u2581single": 2461,
    "\u2581bang": 2462,
    "\u2581leaving": 2463,
    "\u2581House": 2464,
    "\u2581World": 2465,
    "\u2581th\u1ee7y": 2466,
    "s\u1ef1": 2467,
    "\u2581nh\u1ee5c": 2468,
    "\u2581doctor": 2469,
    "\u2581strength": 2470,
    "\u2581h\u00e0i": 2471,
    "\u2581government": 2472,
    "\u2581kingdom": 2473,
    "\u2581sword": 2474,
    "and": 2475,
    "\u2581certainly": 2476,
    "up": 2477,
    "\u2581r\u1eebng": 2478,
    "\u2581evidence": 2479,
    "\u2581bi\u00ea": 2480,
    "\u2581de": 2481,
    "\u2581George": 2482,
    "\u2581build": 2483,
    "\u2581n\u1eafm": 2484,
    "\u2581shoot": 2485,
    "no": 2486,
    "\u2581miss": 2487,
    "\u2581H\u01a1n": 2488,
    "\u2581ch\u1ea3y": 2489,
    "\u2581simple": 2490,
    "\u2581position": 2491,
    "\u2581spoke": 2492,
    "\u2581figure": 2493,
    "\u2581gives": 2494,
    "\u2581short": 2495,
    "\u2581s\u00e2n": 2496,
    "\u2581places": 2497,
    "\u2581white": 2498,
    "\u2581Watch": 2499,
    "\u2581Captain": 2500,
    "\u2581ch\u00e9p": 2501,
    "\u2581secret": 2502,
    "H\u00e3y": 2503,
    "\u2581d\u00e2m": 2504,
    "\u2581Ni": 2505,
    "\u2581m\u01b0\u01a1i": 2506,
    "K": 2507,
    "\u2581T\u1ed5ng": 2508,
    "\u2581Lu": 2509,
    "\u2581sex": 2510,
    "\u2581n\u1ee3": 2511,
    "\u2581ch\u1eb7t": 2512,
    "\u2581xuy\u00ean": 2513,
    "\u2581khuy\u1ebfn": 2514,
    "\u2581deep": 2515,
    "\u2581\u0111\u1eadp": 2516,
    "\u2581cool": 2517,
    "\u2581ch\u1ee5p": 2518,
    "\u2581d\u1ecda": 2519,
    "\u2581\u0111\u00e0o": 2520,
    "\u2581gi\u00f3": 2521,
    "\u2581test": 2522,
    "\u2581prayer": 2523,
    "\u2581ch\u1ea1m": 2524,
    "\u2581hi": 2525,
    "\u2581na": 2526,
    "\u2581black": 2527,
    "\u2581honor": 2528,
    "\u2581righteous": 2529,
    "\u2581b\u1ea7u": 2530,
    "\u2581v\u00e2": 2531,
    "\u2581Jews": 2532,
    "\u2581s\u1ed1t": 2533,
    "\u2581taught": 2534,
    "\u2581area": 2535,
    "\u2581\u0111\u00e0ng": 2536,
    "\u2581\u0111\u00e8n": 2537,
    "\u2581pray": 2538,
    "\u2581Earth": 2539,
    "\u2581b\u1ed5": 2540,
    "\u2581K\u1ef3": 2541,
    "\u258112:": 2542,
    "\u2581M\u1eb7c": 2543,
    "\u2581hang": 2544,
    "\u2581temple": 2545,
    "\u2581Jim": 2546,
    "\u2581wonderful": 2547,
    "\u2581Tr\u00ean": 2548,
    "\u2581\u1ee7ng": 2549,
    "\u2581chi\u1ebfu": 2550,
    "\u2581t\u1ed3i": 2551,
    "\u2581Re": 2552,
    "\u2581T\u1ed1i": 2553,
    "\u2581c\u00e2": 2554,
    "\u2581sun": 2555,
    "\u2581key": 2556,
    "est": 2557,
    "\u2581Huh": 2558,
    "\u2581Mu\u1ed1n": 2559,
    "\u2581seeing": 2560,
    "\u2581th\u00e2": 2561,
    "z": 2562,
    "\u2581tr\u00ec": 2563,
    "2": 2564,
    "\u2581wise": 2565,
    "\u2581Every": 2566,
    "\u2581class": 2567,
    "\u2581h\u1ed5": 2568,
    "\u2581public": 2569,
    "\u2581saved": 2570,
    "\u2581weeks": 2571,
    "be": 2572,
    "\u2581security": 2573,
    "\u2581Cu\u1ed9c": 2574,
    "\u2581B\u1ea5t": 2575,
    "\u2581received": 2576,
    "\u2581gi\u01b0\u1eddng": 2577,
    "\u258110.": 2578,
    "\u2581form": 2579,
    "\u2581m": 2580,
    "\u2581tuy\u00ean": 2581,
    "\u2581Tom": 2582,
    "\u2581T\u00ecm": 2583,
    "\u2581b\u00e0o": 2584,
    "\u2581im": 2585,
    "\u2581piece": 2586,
    "\u2581whose": 2587,
    "\u2581nhi\u1ec7t": 2588,
    "\u2581picture": 2589,
    "\u2581THE": 2590,
    "\u2581above": 2591,
    "\u2581value": 2592,
    "\u2581T\u00ecnh": 2593,
    "\u2581Isaiah": 2594,
    "\u2581account": 2595,
    "\u2581drive": 2596,
    "\u2581Ko": 2597,
    "\u2581state": 2598,
    "\u2581v\u01a1": 2599,
    "\u2581Cu\u1ed1i": 2600,
    "\u2581Joseph": 2601,
    "\u2581ng\u1eebng": 2602,
    "\u2581stupid": 2603,
    "\u2581\u00e1m": 2604,
    "\u2581\u0111\u00e2": 2605,
    "\u2581Canh": 2606,
    "\u2581happening": 2607,
    "\u2581Very": 2608,
    "\u2581th\u01b0\u1ee3ng": 2609,
    "\u2581Mrs": 2610,
    "\u2581finally": 2611,
    "\u2581flesh": 2612,
    "\u2581damn": 2613,
    "\u2581Luke": 2614,
    "\u2581Th\u1ea5y": 2615,
    "\u2581Tr\u00f4ng": 2616,
    "\u2581involved": 2617,
    "\u2581B\u1ea3n": 2618,
    "\u2581ancient": 2619,
    "\u2581hi\u1ec7p": 2620,
    "\u25811,": 2621,
    "\u2581gift": 2622,
    "\u2581qu\u1ec9": 2623,
    "\u2581C\u1ea3nh": 2624,
    "\u2581prison": 2625,
    "\u2581built": 2626,
    "\u2581religious": 2627,
    "\u2581worth": 2628,
    "\u2581win": 2629,
    "\u2581n\u00e8": 2630,
    "What": 2631,
    "\u2581Everything": 2632,
    "\u2581Mi": 2633,
    "\u2581desire": 2634,
    "\u2581qu\u1ef7": 2635,
    "de": 2636,
    "\u2581g\u1ed1c": 2637,
    "\u2581um": 2638,
    "\u2581Was": 2639,
    "\u2581Th\u1ea7n": 2640,
    "\u2581thus": 2641,
    "\u2581t\u1ed5n": 2642,
    "\u2581qu\u00e1n": 2643,
    "\u2581D\u00e2n": 2644,
    "\u2581United": 2645,
    "\u2581priest": 2646,
    "\u2581Got": 2647,
    "\u2581nation": 2648,
    "\u2581cold": 2649,
    "\u25815.": 2650,
    "\u2581glory": 2651,
    "\u2581sacrifice": 2652,
    "ne": 2653,
    "\u2581shut": 2654,
    "#244;": 2655,
    "\u2581\u1ee7i": 2656,
    "\u2581Remember": 2657,
    "\u2581Ti": 2658,
    "\u2581h\u1ee9ng": 2659,
    "\u2581m\u1ec7t": 2660,
    "\u2581step": 2661,
    "\u2581ch\u1ec9nh": 2662,
    "\u2581ha": 2663,
    "\u2581t\u1ed1c": 2664,
    "\u2581Ph\u00f2ng": 2665,
    "\u2581percent": 2666,
    "\u2581list": 2667,
    "\u2581sheep": 2668,
    "\u2581completely": 2669,
    "\u2581m\u01b0u": 2670,
    "\u2581ng\u00e3": 2671,
    "\u2581accept": 2672,
    "\u2581Never": 2673,
    "\u2581thu\u00ea": 2674,
    "\u2581d\u00ednh": 2675,
    "ton": 2676,
    "\u2581sight": 2677,
    "\u2581d\u1ee9t": 2678,
    "\u2581servant": 2679,
    "\u2581Mike": 2680,
    "\u2581gi\u1ea5c": 2681,
    "\u2581third": 2682,
    "\u2581c\u00e2n": 2683,
    "\u2581T\u1ea1o": 2684,
    "\u2581further": 2685,
    "\u2581khi\u00eam": 2686,
    "\u2581sometimes": 2687,
    "\u2581Pha": 2688,
    "\u2581explain": 2689,
    "ah": 2690,
    "\u258110:": 2691,
    "\u2581reading": 2692,
    "\u2581report": 2693,
    "\u2581n\u00e9m": 2694,
    "\u2581Today": 2695,
    "\u2581h\u01b0\u01a1ng": 2696,
    "\u2581Rachel": 2697,
    "\u2581expect": 2698,
    "\u2581anointed": 2699,
    "\u2581h\u00e0o": 2700,
    "\u2581perhaps": 2701,
    "\u2581itself": 2702,
    "\u2581l\u01b0ng": 2703,
    "\u2581c\u1ea3n": 2704,
    "\u2581truy": 2705,
    "\u2581across": 2706,
    "\u2581\u0110\u1ecdc": 2707,
    "\u2581large": 2708,
    "\u258121": 2709,
    "\u2581ch\u00e1n": 2710,
    "\u2581Saul": 2711,
    "\u2581Nice": 2712,
    "\u2581meant": 2713,
    "\u2581ship": 2714,
    "\u25813,": 2715,
    "\u2581tr\u01b0ng": 2716,
    "\u2581n": 2717,
    "\u2581tree": 2718,
    "\u2581hair": 2719,
    "\u2581lady": 2720,
    "\u2581v\u1ee1": 2721,
    "ni": 2722,
    "\u2581Read": 2723,
    "da": 2724,
    "\u2581_": 2725,
    "ro": 2726,
    "\u2581m\u00f9i": 2727,
    "Anh": 2728,
    "\u2581funny": 2729,
    "\u2581ch\u1eadm": 2730,
    "\u2581Ho\u00e0ng": 2731,
    "\u2581\u0110\u1ee3i": 2732,
    "\u2581ch\u00fac": 2733,
    "\u2581Name": 2734,
    "\u2581dog": 2735,
    "el": 2736,
    "\u2581bar": 2737,
    "\u2581h\u1ea5p": 2738,
    "\u2581k\u00ea": 2739,
    "\u2581t\u1ea7ng": 2740,
    "\u2581Therefore": 2741,
    "\u2581mi\u1ec5n": 2742,
    "\u2581ti\u1ec3u": 2743,
    "\u2581teaching": 2744,
    "\u2581decided": 2745,
    "\u2581\u0111\u1ed1ng": 2746,
    "\u2581L\u1ea1p": 2747,
    "\u2581h\u1ecfng": 2748,
    "\u2581Song": 2749,
    "\u2581M\u00e3": 2750,
    "\u2581Um": 2751,
    "\u2581n\u00eau": 2752,
    "\u2581ch\u1ea5m": 2753,
    "\u2581army": 2754,
    "\u2581Over": 2755,
    "\u2581\u0110\u1ee9ng": 2756,
    "\u2581local": 2757,
    "\u2581Khoan": 2758,
    "\u2581<": 2759,
    "),": 2760,
    "\u258111:": 2761,
    "\u2581Something": 2762,
    "\u2581chi\u1ebfm": 2763,
    "\u2581M\u00ea": 2764,
    "\u2581especially": 2765,
    "\u2581x\u01b0ng": 2766,
    "\u2581tr\u1ed3ng": 2767,
    "\u2581h\u1eb1ng": 2768,
    "\u25817.": 2769,
    "\u2581St": 2770,
    "\u2581image": 2771,
    "\u2581i": 2772,
    "\u2581t\u1eafm": 2773,
    "\u2581\u0111e": 2774,
    "\u2581imagine": 2775,
    "\u2581\u0111\u1ed1t": 2776,
    "\u2581K\u00fd": 2777,
    "\u2581remain": 2778,
    "\u2581ch\u1edf": 2779,
    "\u2581dream": 2780,
    "\u2581huy\u1ec1n": 2781,
    "gia": 2782,
    "\u2581thanks": 2783,
    "\u2581Master": 2784,
    "\u2581B\u1eafc": 2785,
    "\u2581none": 2786,
    "1": 2787,
    "\u2581b\u1ea3ng": 2788,
    "\u2581health": 2789,
    "\u2581force": 2790,
    "\u2581Holy": 2791,
    "\u2581miles": 2792,
    "\u2581rule": 2793,
    "ation": 2794,
    "\u2581receive": 2795,
    "\u25818.": 2796,
    "\u2581attack": 2797,
    "\u2581l\u01a1": 2798,
    "\u2581beginning": 2799,
    "\u2581lem": 2800,
    "\u2581righteousness": 2801,
    "\u2581Solomon": 2802,
    "\u2581letter": 2803,
    "\u2581Bye": 2804,
    "\u2581destroy": 2805,
    "\u2581gi\u01a1": 2806,
    "\u2581named": 2807,
    "\u2581nh\u01b0\u1eddng": 2808,
    "by": 2809,
    "\u2581m\u1ec7nh": 2810,
    "\u2581dear": 2811,
    "ia": 2812,
    "ment": 2813,
    "\u2581members": 2814,
    "\u2581li\u1ec7t": 2815,
    "co": 2816,
    "\u2581Tr\u00e1nh": 2817,
    "\u2581B\u00ean": 2818,
    "\u2581s\u00e1nh": 2819,
    "\u2581th\u1ea3m": 2820,
    "\u2581C\u00e1ch": 2821,
    "\u2581bom": 2822,
    "\u2581t\u1ea3i": 2823,
    "lem": 2824,
    "\u2581nh\u1eafn": 2825,
    "\u2581x\u00f3t": 2826,
    "\u2581l\u1ed7": 2827,
    "\u2581B\u1ea3o": 2828,
    "\u2581Li\u00ean": 2829,
    "\u2581J\u00easus": 2830,
    "\u2581h\u1ed7": 2831,
    "\u2581ng\u1eafn": 2832,
    "ga": 2833,
    "\u2581shows": 2834,
    "\u2581ch\u00e1y": 2835,
    "\u2581cover": 2836,
    "\u2581matters": 2837,
    "\u2581Th\u00e1p": 2838,
    "\u2581choose": 2839,
    "\u2581powerful": 2840,
    "\u25817:": 2841,
    "\u2581Shut": 2842,
    "\u2581fell": 2843,
    "\u2581doubt": 2844,
    "\u2581v": 2845,
    "\u2581lay": 2846,
    "\u2581C\u1ee9u": 2847,
    "\u2581speaking": 2848,
    "\u2581article": 2849,
    "\u2581trao": 2850,
    "si": 2851,
    "\u2581Charlie": 2852,
    "\u2581likely": 2853,
    "il": 2854,
    "\u258112.": 2855,
    "\u2581Jacob": 2856,
    "\u2581ng\u1ee5c": 2857,
    "\u2581c\u00e3i": 2858,
    "\u2581si\u00eau": 2859,
    "\u25812,": 2860,
    "\u2581scared": 2861,
    "\u2581s\u00f4": 2862,
    "\u2581road": 2863,
    "\u2581calling": 2864,
    "\u2581nh\u1eb9": 2865,
    "\u2581Alex": 2866,
    "\u2581showed": 2867,
    "\u2581v\u01b0\u1eddn": 2868,
    "\u2581c\u01b0ng": 2869,
    "\u2581San": 2870,
    "\u2581xinh": 2871,
    "\u2581Th\u1eddi": 2872,
    "\u2581\u0111i\u1ec3n": 2873,
    "\u2581v\u0129": 2874,
    "\u2581Their": 2875,
    "\u2581kim": 2876,
    "\u2581rich": 2877,
    "\u2581interest": 2878,
    "\u2581t\u1eb7ng": 2879,
    "\u2581\u2022": 2880,
    "\u2581th\u1ea5p": 2881,
    "\u2581forward": 2882,
    "\u2581worse": 2883,
    "\u2581playing": 2884,
    "\u2581Job": 2885,
    "\u2581V\u1ea3": 2886,
    "\u2581red": 2887,
    "\u2581gh\u00ea": 2888,
    "Ti\u1ebfng": 2889,
    "\u2581l\u00e0ng": 2890,
    "\u2581ng\u00e2n": 2891,
    "\u2581About": 2892,
    "\u2581American": 2893,
    "\u2581\u2019.": 2894,
    "\u2581English": 2895,
    "\u2581N\u01a1i": 2896,
    "\u2581nhi\u1ec5m": 2897,
    "\u2581n\u00f4": 2898,
    "\u2581ch\u00f3ng": 2899,
    "\u2581simply": 2900,
    "\u2581wonder": 2901,
    "do": 2902,
    "\u2581bear": 2903,
    "con": 2904,
    "\u2581shalt": 2905,
    "\u2581Any": 2906,
    "\u2581spend": 2907,
    "\u2581Bi\u1ebft": 2908,
    "\u2581straight": 2909,
    "\u2581ch\u0103n": 2910,
    "\u2581Jo": 2911,
    "\u2581quickly": 2912,
    "\u2581carry": 2913,
    "ity": 2914,
    "\u2581co": 2915,
    "\u2581shouldn": 2916,
    "\u2581truly": 2917,
    "\u2581feelings": 2918,
    "\u2581grow": 2919,
    "\u2581S\u00e1ng": 2920,
    "\u2581h\u00e0m": 2921,
    "\u2581space": 2922,
    "\u2581common": 2923,
    "\u2581hospital": 2924,
    "\u2022": 2925,
    "\u2581Thi\u00ean": 2926,
    "\u2581prove": 2927,
    "\u2581evening": 2928,
    "\u2581ng\u1ea1i": 2929,
    "\u2581box": 2930,
    "\u2581meetings": 2931,
    "\u2581De": 2932,
    "\u2581Al": 2933,
    "\u2581T\u1edbi": 2934,
    "\u2581instead": 2935,
    "\u2581L\u1ea5y": 2936,
    "\u2581b\u1ec1": 2937,
    "\u2581canh": 2938,
    "\u25816.": 2939,
    "\u2581Claire": 2940,
    "\u2581anyway": 2941,
    "\u2581b\u1edd": 2942,
    "\u2581music": 2943,
    "\u2581\u0111am": 2944,
    "\u2581understanding": 2945,
    "\u258119": 2946,
    "\u2581thang": 2947,
    "\u2581prophet": 2948,
    "\u2581t\u01b0\u1edbng": 2949,
    "t\u00f4": 2950,
    "\u2581standing": 2951,
    "\u2581Show": 2952,
    "\u2581witness": 2953,
    "\u2581Still": 2954,
    "\u2581wall": 2955,
    "\u2581V\u1eabn": 2956,
    "\u2581t\u00fac": 2957,
    "\u2581Ti\u1ebfp": 2958,
    "\u2581luck": 2959,
    "\u2581avoid": 2960,
    "\u2581phi\u00ean": 2961,
    "\u2581answered": 2962,
    "\u2581m\u01b0a": 2963,
    "\u2581catch": 2964,
    "\u2581S\u1ed1": 2965,
    "\u2581heavenly": 2966,
    "\u2581command": 2967,
    "\u2581passed": 2968,
    "\u2581suffering": 2969,
    "\u2581date": 2970,
    "\u2581ngh\u1ec1": 2971,
    "\u25819.": 2972,
    "\u2581t\u00ed": 2973,
    "\u2581allow": 2974,
    "\u258160": 2975,
    "\u2581th\u1ee3": 2976,
    "\u2581window": 2977,
    "\u258113:": 2978,
    "\u2581Greek": 2979,
    "\u2581More": 2980,
    "\u2581realize": 2981,
    "\u2581t\u00e2y": 2982,
    "ter": 2983,
    "\u2581glad": 2984,
    "ry": 2985,
    "\u2581ch\u1eb7n": 2986,
    "\u2581anybody": 2987,
    "\u2581reach": 2988,
    "\u2581thi\u00eau": 2989,
    "\u2581boss": 2990,
    "\u2581dinner": 2991,
    "#224;": 2992,
    "\u2581B\u00ea": 2993,
    "\u2581S\u1ee9": 2994,
    "\u2581thai": 2995,
    "\u2581Joe": 2996,
    "\u2581khi\u1ebfp": 2997,
    "\u2581wine": 2998,
    "\u2581Fine": 2999,
    "\u2581di\u1ec7u": 3000,
    "\u2581Perhaps": 3001,
    "\u2581dangerous": 3002,
    "\u2581kh\u1ee9": 3003,
    "\u0110\u1ee9c": 3004,
    "\u258111.": 3005,
    "lo": 3006,
    "\u2581n\u1ed7": 3007,
    "\u2581kho": 3008,
    "\u2581\u0110\u1ed1i": 3009,
    "\u2581C\u1ed1": 3010,
    "\u2581M\u1edf": 3011,
    "\u2581c\u1ea5u": 3012,
    "\u2581kindness": 3013,
    "im": 3014,
    "\u2581type": 3015,
    "\u2581\u1ea4y": 3016,
    "\u2581interested": 3017,
    "\u2581visit": 3018,
    "\u2581K\u1ebft": 3019,
    "\u2581\u0110\u1ed3ng": 3020,
    "\u2581promised": 3021,
    "bi": 3022,
    "\u2581pull": 3023,
    "\u2581TV": 3024,
    "kh\u00f4ng": 3025,
    "\u2581careful": 3026,
    "\u2581Open": 3027,
    "\u2581c\u1edd": 3028,
    "\u2581k\u1ecbch": 3029,
    "\u2581mu\u1ed9n": 3030,
    "\u2581t\u00e1n": 3031,
    "\u258114.": 3032,
    "son": 3033,
    "\u2581Oliver": 3034,
    "\u2581created": 3035,
    "\u2581ph\u1ed1i": 3036,
    "\u2581judgment": 3037,
    "\u2581qu\u00ed": 3038,
    "\u2581cities": 3039,
    "\u2581Israelites": 3040,
    "\u2581c\u1ee5c": 3041,
    "\u2581Th\u00e0nh": 3042,
    "U": 3043,
    "\u2581Joey": 3044,
    "\u2581g\u1ea5p": 3045,
    "\u2581bread": 3046,
    "\u2581tr\u00f9ng": 3047,
    "\u2581welcome": 3048,
    "\u2581B\u00e0i": 3049,
    "\u2581spent": 3050,
    "\u2581false": 3051,
    "\u2581\u00d4": 3052,
    "\u2581Kim": 3053,
    "\u2581till": 3054,
    "\u2581Whatever": 3055,
    "\u2581C\u01a1": 3056,
    "\u2581Ross": 3057,
    "\u2581enemies": 3058,
    "\u2581\u0110\u00f4i": 3059,
    "\u2581States": 3060,
    "\u2581Damn": 3061,
    "\u2581o": 3062,
    "\u2581v\u1ed1n": 3063,
    "W": 3064,
    "\u2581t\u01a1": 3065,
    "\u2581Mm": 3066,
    "\u2581While": 3067,
    "f": 3068,
    "\u2581n\u00e1t": 3069,
    "\u2581Un": 3070,
    "\u2581battle": 3071,
    "\u2581train": 3072,
    "\u258113.": 3073,
    "\u2581eight": 3074,
    "\u2581T\u1ef1": 3075,
    "\u2581giam": 3076,
    "\u2581\u0111\u1ed1c": 3077,
    "\u2581gods": 3078,
    "\u2581Hi\u1ec7n": 3079,
    "\u2581fault": 3080,
    "\u2581k\u00e9m": 3081,
    "\u2581Mau": 3082,
    "\u2581Nh\u1eadt": 3083,
    "\u2581Harry": 3084,
    "\u2581ng\u1ecdn": 3085,
    "\u2581religion": 3086,
    "\u2581nh\u1eb1m": 3087,
    "\u2581willing": 3088,
    "\u2581action": 3089,
    "l\u00f4": 3090,
    "ling": 3091,
    "\u2581sweet": 3092,
    "\u2581broken": 3093,
    "\u2581master": 3094,
    "\u2581table": 3095,
    "\u2581n\u00e2ng": 3096,
    "\u2581hu\u1ea5n": 3097,
    "\u2581Qu\u1ea3": 3098,
    "\u2581c\u1ee1": 3099,
    "\u2581h\u00e1": 3100,
    "\u2581\u1ed1ng": 3101,
    "v": 3102,
    "\u2581\u0111\u00e0i": 3103,
    "\u2581appreciate": 3104,
    "\u2581Paris": 3105,
    "\u2581street": 3106,
    "\u2581tr\u1ec5": 3107,
    "\u2581draw": 3108,
    "\u258123": 3109,
    "\u2581Ph\u1ea7n": 3110,
    "\u2581m\u1ec1m": 3111,
    "\u2581books": 3112,
    "ur": 3113,
    "\u2581Red": 3114,
    "\u2581\u0111\u0103ng": 3115,
    "\u2581Most": 3116,
    "\u2581dark": 3117,
    "\u2581decision": 3118,
    "\u2581honey": 3119,
    "\u2581walking": 3120,
    "\u2581art": 3121,
    "\u2581Bill": 3122,
    "\u2581Gi\u1eef": 3123,
    "\u2581m\u0169i": 3124,
    "\u2581Sarah": 3125,
    "\u2581seek": 3126,
    "\u2581caught": 3127,
    "\u2581god": 3128,
    "\u2581tr\u1ed1ng": 3129,
    "\u2581ride": 3130,
    "\u2581including": 3131,
    "\u2581ph\u1ee9c": 3132,
    "\u2581text": 3133,
    "\u2581based": 3134,
    "\u2581handle": 3135,
    "\u2581thi\u1ec7u": 3136,
    "go": 3137,
    "\u2581America": 3138,
    "\u2581d\u01b0\u01a1ng": 3139,
    "\u2581provide": 3140,
    "\u2581Law": 3141,
    "\u2581create": 3142,
    "\u2581families": 3143,
    "\u2581R\u00f4": 3144,
    "\u2581held": 3145,
    "\u2581ho\u1ea1i": 3146,
    "\u2581li\u1ec1n": 3147,
    "\u2581complete": 3148,
    "\u2581doanh": 3149,
    "\u2581x\u01b0\u01a1ng": 3150,
    "\u2581Although": 3151,
    "\u2581s\u00f3ng": 3152,
    "ar": 3153,
    "\u2581h\u1ea7m": 3154,
    "\u2581lying": 3155,
    "J": 3156,
    "\u2581favor": 3157,
    "\u2581record": 3158,
    "ng\u01b0\u1eddi": 3159,
    "\u258116.": 3160,
    "\u2581Quan": 3161,
    "\u2581somewhere": 3162,
    "\u2581Time": 3163,
    "\u2581Ti\u1ebfn": 3164,
    "\u2581d\u00edp": 3165,
    "\u258127": 3166,
    "\u2581program": 3167,
    "\u2581g\u01b0\u01a1m": 3168,
    "\u2581behold": 3169,
    "\u2581Everyone": 3170,
    "\u2581opportunity": 3171,
    "\u2581\u0111\u1ed3n": 3172,
    "\u2581benefit": 3173,
    "\u2581beyond": 3174,
    "\u2581Rome": 3175,
    "\u2581thua": 3176,
    "\u2581Ch\u1ea1y": 3177,
    "\u2581m\u1ed9": 3178,
    "\u2581Nga": 3179,
    "\u2581chu\u1ed9t": 3180,
    "\u2581interesting": 3181,
    "\u258115.": 3182,
    "\u2581Long": 3183,
    "\u2581c\u1ea5m": 3184,
    "It": 3185,
    "\u2581\u0110\u1ea7u": 3186,
    "\u2581g\u00f3c": 3187,
    "\u2581non": 3188,
    "\u2581b\u1eadc": 3189,
    "\u2581hearts": 3190,
    "\u2581g\u1eafn": 3191,
    "\u2581oil": 3192,
    "\u2581watching": 3193,
    "\u2581l\u1ee5c": 3194,
    "\u2581normal": 3195,
    "\u2581c\u0103ng": 3196,
    "\u2581N\u00ea": 3197,
    "\u2581\u0111\u1edbn": 3198,
    "\u2581\u0110\u00f4ng": 3199,
    "\u2581energy": 3200,
    "\u2581\u00e9p": 3201,
    "\u2581\u1ea5m": 3202,
    "\u2581Revelation": 3203,
    "\u2581n\u00f4ng": 3204,
    "4": 3205,
    "\u2581Think": 3206,
    "\u2581L\u1ec5": 3207,
    "\u2581l\u0129nh": 3208,
    "\u2581tu": 3209,
    "\u2581Such": 3210,
    "\u2581t\u00e1i": 3211,
    "\u2581h\u1ed1i": 3212,
    "\u2581m\u00f9": 3213,
    "\u2581ch\u00ea": 3214,
    "\u2581dao": 3215,
    "\u2581Timothy": 3216,
    "\u2581Call": 3217,
    "\u258133": 3218,
    "\u2581Before": 3219,
    "\u2581Qu\u00e1": 3220,
    "\u2581animals": 3221,
    "ies": 3222,
    "\u2581happiness": 3223,
    "\u258117.": 3224,
    "\u2581contact": 3225,
    "\u2581middle": 3226,
    "\u2581temporary": 3227,
    "\u2581throw": 3228,
    "ist": 3229,
    "\u2581nh\u1ea7m": 3230,
    "\u2581L\u00ea": 3231,
    "\u2581M\u1eb7t": 3232,
    "\u2581\u00cdt": 3233,
    "\u2581m\u1ea1ch": 3234,
    "\u2581Quay": 3235,
    "\u2581KDE": 3236,
    "\u2581led": 3237,
    "\u2581mi\u1ec1n": 3238,
    "\u2581Max": 3239,
    "\u2581amazing": 3240,
    "\u2581b\u1ea7y": 3241,
    "\u2581covenant": 3242,
    "mi": 3243,
    "\u2581President": 3244,
    "\u2581S\u00ea": 3245,
    "\u2581Aaron": 3246,
    "\u2581giai": 3247,
    "\u2581gh\u1ebf": 3248,
    "\u2581m\u00ec": 3249,
    "\u2581killing": 3250,
    "\u2581greater": 3251,
    "ul": 3252,
    "\u2581b\u1ee5ng": 3253,
    "\u2581Proverbs": 3254,
    "\u25815,": 3255,
    "\u2581conduct": 3256,
    "\u2581wedding": 3257,
    "\u2581Corinthians": 3258,
    "\u2581Say": 3259,
    "\u2581\u0111ua": 3260,
    "\u2581\u1ea4n": 3261,
    "\u2581Th\u1ea7y": 3262,
    "\u2581fathers": 3263,
    "\u2581fish": 3264,
    "\u2581\u00ea": 3265,
    "\u2581City": 3266,
    "\u2581C\u1ed5": 3267,
    "\u2581gi\u1ecdng": 3268,
    "\u2581lan": 3269,
    "Ch\u00fang": 3270,
    "w": 3271,
    "\u2581floor": 3272,
    "\u2581\u0110\u00e1ng": 3273,
    "We": 3274,
    "as": 3275,
    "\u2581g\u00e1nh": 3276,
    "\u2581v\u1eafng": 3277,
    "\u2581Nh\u1edd": 3278,
    "\u2581beat": 3279,
    "\u2581th\u1ea9m": 3280,
    "\u2581states": 3281,
    "\u2581weren": 3282,
    "\u2581enemy": 3283,
    "\u2581indeed": 3284,
    "\u2581priests": 3285,
    "\u2581material": 3286,
    "\u2581\u00ab": 3287,
    "\u2581r\u1eeda": 3288,
    "\u2581Welcome": 3289,
    "\u2581bi\u00ean": 3290,
    "\u2581m\u00e3n": 3291,
    "\u2581ran": 3292,
    "\u2581returned": 3293,
    "ka": 3294,
    "\u2581available": 3295,
    "\u2581anger": 3296,
    "5": 3297,
    "\u2581Bob": 3298,
    "\u2581computer": 3299,
    "\u2581church": 3300,
    "\u2581Mmm": 3301,
    "\u2581Nha": 3302,
    "Kh\u00f4ng": 3303,
    "\u2581boat": 3304,
    "\u2581effect": 3305,
    "\u2581Organiser": 3306,
    "\u2581thi\u1ec7t": 3307,
    "\u2581c\u1eafp": 3308,
    "\u2581tung": 3309,
    "\u2581Babylon": 3310,
    "\u2581\u0110\u1ed9": 3311,
    "\u2581calls": 3312,
    "\u2581d\u1eb7m": 3313,
    "\u2581H\u1ebft": 3314,
    "\u2581baptized": 3315,
    "Other": 3316,
    "\u2581mistake": 3317,
    "\u2581join": 3318,
    "\u2581missing": 3319,
    "\u2581tho\u1ea3i": 3320,
    "\u2581g\u00f3i": 3321,
    "\u2581mu\u00f4n": 3322,
    "\u2581begin": 3323,
    "\u2581meaning": 3324,
    "\u2581mi\u00eau": 3325,
    "\u2581clothes": 3326,
    "\u2581K\u1ec3": 3327,
    "\u2581Someone": 3328,
    "\u2581mi\u1ebfng": 3329,
    "\u2581nobody": 3330,
    "\u2581camera": 3331,
    "one": 3332,
    "ting": 3333,
    "\u2581commanded": 3334,
    "\u2581nh\u01a1n": 3335,
    "\u2581busy": 3336,
    "\u2581b\u1eafc": 3337,
    "\u2581soi": 3338,
    "\u2581sitting": 3339,
    "\u2581thousands": 3340,
    "Comment": 3341,
    "\u2581c\u1ecf": 3342,
    "V": 3343,
    "\u2581Three": 3344,
    "\u2581kh\u00f4": 3345,
    "\u2581m\u1ea3nh": 3346,
    "\u2581similar": 3347,
    "\u2581v\u01b0\u01a1ng": 3348,
    "\u258122": 3349,
    "\u2581cell": 3350,
    "\u2581Once": 3351,
    "\u25818:": 3352,
    "\u2581th\u0103ng": 3353,
    "\u2581\u0111eo": 3354,
    "\u2581Chi\u1ebfn": 3355,
    "\u2581hide": 3356,
    "\u2581court": 3357,
    "\u2581level": 3358,
    "\u2581C\u1ee7a": 3359,
    "\u2581d\u01b0": 3360,
    "\u2581names": 3361,
    "\u2581\u0111\u1ebf": 3362,
    "\u2581G\u1ecdi": 3363,
    "te": 3364,
    "\u2581drop": 3365,
    "\u2581nh\u1ea5n": 3366,
    "gi\u1edd": 3367,
    "\u2581attitude": 3368,
    "ine": 3369,
    "\u2581Gi\u00f3p": 3370,
    "\u2581destroyed": 3371,
    "\u2581students": 3372,
    "\u2581Another": 3373,
    "\u2581Internet": 3374,
    "\u2581v\u1eb9n": 3375,
    "\u2581broke": 3376,
    "\u2581\u00e2": 3377,
    "\u2581k\u00edn": 3378,
    "\u2581l\u01b0\u1ee1i": 3379,
    "\u2581Nobody": 3380,
    "\u2581yourselves": 3381,
    "\u2581allowed": 3382,
    "ian": 3383,
    "\u2581200": 3384,
    "men": 3385,
    "\u2581sins": 3386,
    "\u2581Ch\u1ee7": 3387,
    "\u2581r\u0103n": 3388,
    "\u2581Roman": 3389,
    "\u2581authority": 3390,
    "\u2581serving": 3391,
    "\u2581t\u1ec9": 3392,
    "\u2581organization": 3393,
    "\u2581stopped": 3394,
    "\u2581difference": 3395,
    "\u2581final": 3396,
    "un": 3397,
    "\u2581changes": 3398,
    "\u2581th\u1ebb": 3399,
    "\u2581failed": 3400,
    "\u2581kh\u1ea9n": 3401,
    "\u2581helping": 3402,
    "\u2581spoken": 3403,
    "\u2581v\u1ea1n": 3404,
    "\u2581FBI": 3405,
    "\u2581M\u00f4": 3406,
    "\u2581r\u00e1c": 3407,
    "\u2581gi\u00e0y": 3408,
    "\u2581wind": 3409,
    "\u2581\u0111\u1ecbch": 3410,
    "\u2581Noah": 3411,
    "\u2581Daddy": 3412,
    "less": 3413,
    "\u2581sounds": 3414,
    "\u2581Ch\u00e2m": 3415,
    "\u25814,": 3416,
    "\u2581heavens": 3417,
    "\u2581search": 3418,
    "\u2581Robert": 3419,
    "\u2581angel": 3420,
    "\u2581g\u00e0": 3421,
    "\u2581physical": 3422,
    "\u2581pleasure": 3423,
    "\u2581\u0111\u00e2m": 3424,
    "\u2581foot": 3425,
    "\u2581ninh": 3426,
    "\u2581justice": 3427,
    "\u2581stood": 3428,
    "\u2581N\u1ea7y": 3429,
    "\u2581Love": 3430,
    "\u2581ch\u00f4n": 3431,
    "\u2581]": 3432,
    "\u2581Di": 3433,
    "\u2581murder": 3434,
    "ty": 3435,
    "\u2581risk": 3436,
    "\u2581low": 3437,
    "\u2581Back": 3438,
    "\u2581slave": 3439,
    "\u2581machine": 3440,
    "\u2581agree": 3441,
    "\u2581cast": 3442,
    "\u2581\u0110\u1ea5t": 3443,
    "\u2581address": 3444,
    "\u2581dance": 3445,
    "\u00f4n": 3446,
    "\u2581London": 3447,
    "\u2581deliver": 3448,
    "\u2581mercy": 3449,
    "\u2581Th\u00f4ng": 3450,
    "\u2581data": 3451,
    "\u2581B\u1ea5y": 3452,
    "\u2581chief": 3453,
    "\u2581issue": 3454,
    "\u2581fully": 3455,
    "\u2581per": 3456,
    "\u2581lucky": 3457,
    "\u2581quick": 3458,
    "\u2581freedom": 3459,
    "\u2581Th\u01b0\u1ee3ng": 3460,
    "\u2581Should": 3461,
    "\u2581training": 3462,
    "ous": 3463,
    "rs": 3464,
    "\u2581finish": 3465,
    "\u2581\u00fay": 3466,
    "\u2581mentioned": 3467,
    "\u2581cry": 3468,
    "\u2581natural": 3469,
    "\u2581nho": 3470,
    "\u2581paid": 3471,
    "\u2581ch\u00eca": 3472,
    "\u2581escape": 3473,
    "\u2581m\u1ed3": 3474,
    "\u2581everlasting": 3475,
    "\u2581forgive": 3476,
    "\u2581YOU": 3477,
    "\u2581unit": 3478,
    "\u2581Danny": 3479,
    "\u2581immediately": 3480,
    "\u2581nature": 3481,
    "\u258170": 3482,
    "\u2581l\u00e3ng": 3483,
    "\u2581Mother": 3484,
    "\u2581Tr\u00ecnh": 3485,
    "\u2581older": 3486,
    "\u2581followed": 3487,
    "\u2581enter": 3488,
    "\u25819,": 3489,
    "\u2581silver": 3490,
    "\u2581sake": 3491,
    "\u2581ho\u1ea1n": 3492,
    "\u2581Lan": 3493,
    "\u2581kings": 3494,
    "\u2581rinh": 3495,
    "m\u00f4n": 3496,
    "Applause": 3497,
    "\u2581ch\u00e2u": 3498,
    "\u2581parts": 3499,
    "\u2581lord": 3500,
    "\u2581patient": 3501,
    "\u2581bag": 3502,
    "\u2581Hi\u1ec3u": 3503,
    "\u2581fighting": 3504,
    "\u2581h\u00f2n": 3505,
    "\u2581tells": 3506,
    "\u2581d\u1ecbp": 3507,
    "tin": 3508,
    "\u2581weird": 3509,
    "\u2581charge": 3510,
    "\u2581talked": 3511,
    "\u2581round": 3512,
    "\u2581Jimmy": 3513,
    "mo": 3514,
    "\u2581ph\u1ecfng": 3515,
    "\u2581\u0110\u1ecba": 3516,
    "\u258115:": 3517,
    "\u2581t\u1ed1n": 3518,
    "\u258128": 3519,
    "\u2581r\u0103ng": 3520,
    "\u2581fly": 3521,
    "\u25816,": 3522,
    "\u2581horse": 3523,
    "\u2581kidding": 3524,
    "\u2581Mexico": 3525,
    "\u2581terrible": 3526,
    "ce": 3527,
    "\u2581M\u00e1y": 3528,
    "\u2581quy\u1ec3n": 3529,
    "\u2581V\u1ea5n": 3530,
    "\u2581offered": 3531,
    "\u2581Queen": 3532,
    "\u2581phu": 3533,
    "\u2581saith": 3534,
    "\u2581b\u1eaby": 3535,
    "\u25aa": 3536,
    "\u2581Consider": 3537,
    "\u2581Hall": 3538,
    "\u2581t\u1eadt": 3539,
    "\u2581Romans": 3540,
    "\u2581T\u1eadp": 3541,
    "\u2581judge": 3542,
    "\u2581kh\u1ed1i": 3543,
    "\u2581b\u1ee5i": 3544,
    "\u2581South": 3545,
    "\u2581Im": 3546,
    "\u2581mail": 3547,
    "\u2581countries": 3548,
    "\u2581earlier": 3549,
    "\u2581quiet": 3550,
    "\u2581t\u00e1ch": 3551,
    "h\u1eafc": 3552,
    "\u2581Leave": 3553,
    "cause": 3554,
    "\u2581Th\u01b0": 3555,
    "\u2581Acts": 3556,
    "\u2581coffee": 3557,
    "\u2581raised": 3558,
    "\u2581rules": 3559,
    "\u2581t\u00e1m": 3560,
    "\u2581Actually": 3561,
    "\u2581H\u00f3a": 3562,
    "\u258124:": 3563,
    "\u2581Samuel": 3564,
    "\u2581served": 3565,
    "\u2581\u1ed4ng": 3566,
    "\u2581filled": 3567,
    "\u2581%1": 3568,
    "\u2581b\u1ec1n": 3569,
    "\u2581Joshua": 3570,
    "\u2581clearly": 3571,
    "\u2581keeping": 3572,
    "\u2581several": 3573,
    "\u2581\u00c2u": 3574,
    "\u2581\u0111\u00e3i": 3575,
    "\u258115,": 3576,
    "\u2581stick": 3577,
    "\u2581mountain": 3578,
    "\u2581noi": 3579,
    "\u2581Matt": 3580,
    "\u2581planet": 3581,
    "\u2581size": 3582,
    "\u2581M\u1ee5c": 3583,
    "\u2581Ok": 3584,
    "\u2581direction": 3585,
    "\u2581blue": 3586,
    "\u2581gain": 3587,
    "\u2581ice": 3588,
    "\u2581greatest": 3589,
    "\u2581khoan": 3590,
    "\u2581ph\u1eabu": 3591,
    "\u2581\u0111\u1ee5ng": 3592,
    "l\u00e0m": 3593,
    "\u2581th\u1ed5i": 3594,
    "\u25819:": 3595,
    "\u2581tr\u00e0n": 3596,
    "\u2581necessary": 3597,
    "\u2581divine": 3598,
    "\u2581thoughts": 3599,
    "\u2581Dan": 3600,
    "\u2581count": 3601,
    "ive": 3602,
    "\u2581ho": 3603,
    "\u2581oh": 3604,
    "\u2581ability": 3605,
    "\u2581Henry": 3606,
    "\u2581phi\u1ebfu": 3607,
    "cha": 3608,
    "he": 3609,
    "\u2581process": 3610,
    "\u2581Watchtower": 3611,
    "\u2581paper": 3612,
    "\u2581sell": 3613,
    "\u2581\u0111\u1ec9nh": 3614,
    "\u2581Everybody": 3615,
    "all": 3616,
    "um": 3617,
    "\u2581Th\u00eam": 3618,
    "\u2581arm": 3619,
    "\u2581crime": 3620,
    "\u2581tired": 3621,
    "\u2581finished": 3622,
    "\u2581\u0111\u1ef1c": 3623,
    "\u2581learning": 3624,
    "\u2581caused": 3625,
    "\u2581s\u1ea1n": 3626,
    "\u2581kh\u00e1t": 3627,
    "\u2581xu": 3628,
    "\u2581According": 3629,
    "\u2581\u1ea3o": 3630,
    "\u2581General": 3631,
    "\u2581War": 3632,
    "\u2581advice": 3633,
    "\u2581plane": 3634,
    "\u2581r\u1eafn": 3635,
    "\u2581t\u1ef7": 3636,
    "\u2581prepared": 3637,
    "\u2581seconds": 3638,
    "\u2581mad": 3639,
    "\u2581v\u00ea": 3640,
    "\",": 3641,
    "\u2581White": 3642,
    "\u2581followers": 3643,
    "\u2581Hurry": 3644,
    "\u2581Kh\u1ea3i": 3645,
    "\u2581Big": 3646,
    "\u2581putting": 3647,
    "\u25812.": 3648,
    "\u2581universe": 3649,
    "\u2581dollars": 3650,
    "\u2581source": 3651,
    "\u2581spread": 3652,
    "\u2581tuy\u1ebfn": 3653,
    "\u2581river": 3654,
    "\u2581wear": 3655,
    "\u2581blow": 3656,
    "\u2581proud": 3657,
    "\u2581birth": 3658,
    "\u2581Ch\u00e0": 3659,
    "\u2581guard": 3660,
    "\u2581m\u1ea1c": 3661,
    "ate": 3662,
    "\u2581G\u1eb7p": 3663,
    "\u2581\u00d0o\u1ea1n": 3664,
    "\u2581Isn": 3665,
    "\u2581Nh\u1edb": 3666,
    "\u2581swear": 3667,
    "\u258114:": 3668,
    "\u2581Lee": 3669,
    "\u2581L\u1ea1y": 3670,
    "\u2581slow": 3671,
    "\u2581dying": 3672,
    "\u2581Ng\u1ed3i": 3673,
    "\u2581calm": 3674,
    "\u2581d\u01b0\u1ee1ng": 3675,
    "\u2581nh\u00e1nh": 3676,
    "\u2581worried": 3677,
    "\u2581ti": 3678,
    "\u2581Life": 3679,
    "\u2581ho\u1ea3ng": 3680,
    "\u2581anywhere": 3681,
    "\u2581opened": 3682,
    "\u2581marry": 3683,
    "He": 3684,
    "\u2581modern": 3685,
    "hi": 3686,
    "\u2581h": 3687,
    "\u2581mission": 3688,
    "\u2581h\u00f2": 3689,
    "\u2581t\u00e0": 3690,
    "\u2581comfort": 3691,
    "\u2581t\u00f3m": 3692,
    "\u258129": 3693,
    "\u2581B\u1ecb": 3694,
    "\u2581period": 3695,
    "r\u01a1": 3696,
    "\u2581fruit": 3697,
    "\u2581Devil": 3698,
    "\u2581sisters": 3699,
    "ism": 3700,
    "\u2581individuals": 3701,
    "\u2581b\u00e3i": 3702,
    "\u2581m\u1ecfi": 3703,
    "\u2581Brother": 3704,
    "\u2581Bao": 3705,
    "\u2581Hebrew": 3706,
    "ham": 3707,
    "\u2581answers": 3708,
    "\u2581memory": 3709,
    "\u2581b\u00f4ng": 3710,
    "\u2581resurrection": 3711,
    "\u2581ex": 3712,
    "\u2581Creator": 3713,
    "\u2581cam": 3714,
    "\u2581fix": 3715,
    "\u2581general": 3716,
    "\u2581president": 3717,
    "\u25810": 3718,
    "\u2581l\u00f9ng": 3719,
    "\u2581rock": 3720,
    "\u2581principles": 3721,
    "\u2581v\u1ea7y": 3722,
    "\u2581\u00bb": 3723,
    "\u258137": 3724,
    "\u2581huynh": 3725,
    "\u2581l\u00f4i": 3726,
    "\u2581Behold": 3727,
    "\u2581code": 3728,
    "\u2581usually": 3729,
    "\u2581Out": 3730,
    "\u2581ph\u1ed5": 3731,
    "\u2581Charles": 3732,
    "\u2581L\u00ean": 3733,
    "\u2581m\u00e1t": 3734,
    "\u2581\u00f4n": 3735,
    "\u2581events": 3736,
    "\u2581Evolution": 3737,
    "\u2581animal": 3738,
    "\u2581pressure": 3739,
    "\u2581x\u00e2m": 3740,
    "\u2581Bring": 3741,
    "\u2581tr\u01b0a": 3742,
    "\u2581survive": 3743,
    "\u2581d": 3744,
    "\u2581K\u1ebf": 3745,
    "\u2581north": 3746,
    "\u2581p": 3747,
    "\u2581Gi\u00fap": 3748,
    "\u2581Linh": 3749,
    "\u2581circumstances": 3750,
    "\u2581th": 3751,
    "\u2581mate": 3752,
    "\u2581science": 3753,
    "\u2581effort": 3754,
    "\u2581knowing": 3755,
    "\u2581responsibility": 3756,
    "\u2581H\u1ea3": 3757,
    "\u2581strange": 3758,
    "\u2581\u01b0u": 3759,
    "\u2581treo": 3760,
    "\u2581k\u1ecbp": 3761,
    "ish": 3762,
    "\u2581cost": 3763,
    "\u2581prophecy": 3764,
    "\u2581Anna": 3765,
    "\u2581Has": 3766,
    "\u2581N\u00f4": 3767,
    "\u2581writing": 3768,
    "\u2581social": 3769,
    "out": 3770,
    "\u2581Tr\u01b0\u1eddng": 3771,
    "\u2581angry": 3772,
    "\u2581camp": 3773,
    "\u2581skin": 3774,
    "\u2581teacher": 3775,
    "\u2581card": 3776,
    "\u2581ch\u01b0": 3777,
    "\u2581bu\u00f4n": 3778,
    "\u2581speech": 3779,
    "\u2581throughout": 3780,
    "\u2581Black": 3781,
    "\u2581closer": 3782,
    "\u258131": 3783,
    "\u2581Barry": 3784,
    "\u258118.": 3785,
    "\u2581hu\u1ed1ng": 3786,
    "et": 3787,
    "\u2581gate": 3788,
    "\u2581Ray": 3789,
    "\u2581ga": 3790,
    "\u2581l\u00ea": 3791,
    "\u2581blind": 3792,
    "\u2581l\u00f4n": 3793,
    "\u2581ng\u00f3n": 3794,
    "\u2581price": 3795,
    "\u2581T\u01b0\u01a1ng": 3796,
    "\u2581danger": 3797,
    "\u2581ki\u00eau": 3798,
    "\u2581race": 3799,
    "\u2581x\u00f3a": 3800,
    "\u2581condition": 3801,
    "\u2581listening": 3802,
    "J\u00easus": 3803,
    "v\u00edt": 3804,
    "\u2581H\u00e0ng": 3805,
    "\u2581presence": 3806,
    "\u2581Da": 3807,
    "\u2581believed": 3808,
    "\u2581\u0110\u01b0\u1eddng": 3809,
    "\u2581wake": 3810,
    "\u2581Jewish": 3811,
    "\u2581El": 3812,
    "\u2581practice": 3813,
    "\u2581Emily": 3814,
    "\u2581H\u1ecdc": 3815,
    "\u2581suppose": 3816,
    "\u2581\u01b0a": 3817,
    "\u2581Try": 3818,
    "\u2581Sometimes": 3819,
    "\u2581seat": 3820,
    "\u2581Run": 3821,
    "\u2581r\u1ed7i": 3822,
    "\u2581l\u00e1t": 3823,
    "\u2581equal": 3824,
    "\u2581millions": 3825,
    "\u2581tr\u00edch": 3826,
    "\u2581inspired": 3827,
    "\u2581n\u00fat": 3828,
    "\u2581ung": 3829,
    "\u2581mu\u00f4": 3830,
    "\u2581Africa": 3831,
    "\u2581Next": 3832,
    "\u2581totally": 3833,
    "\u258117:": 3834,
    "\u2581Yo": 3835,
    "\u2581\u0111\u1ea1p": 3836,
    "\u2581reasons": 3837,
    "\u2581t\u00fay": 3838,
    "\u2581notice": 3839,
    "\u2581path": 3840,
    "\u2581seed": 3841,
    "\u2581confidence": 3842,
    "\u2581impossible": 3843,
    "\u2581violence": 3844,
    "\u2581\u0110\u1ed9i": 3845,
    "\u2581apostles": 3846,
    "\u2581G\u1ea7n": 3847,
    "\u2581ch\u1ee7ng": 3848,
    "\u25818,": 3849,
    "\u258110,": 3850,
    "\u2581numbers": 3851,
    "\u2581qu\u00ea": 3852,
    "\u2581Jordan": 3853,
    "hmm": 3854,
    "\u2581Th\u1ead": 3855,
    "\u2581bank": 3856,
    "\u2581ideas": 3857,
    "\u2581\u00e1": 3858,
    "\u2581praise": 3859,
    "\u2581C\u1ea9n": 3860,
    "\u2581web": 3861,
    "\u2581g\u00ecn": 3862,
    "\u2581stone": 3863,
    "\u2581\u1ea3": 3864,
    "\u2581lang": 3865,
    "\u2581recognize": 3866,
    "\u2581V\u1ee3": 3867,
    "\u2581radio": 3868,
    "\u2581provided": 3869,
    "ke": 3870,
    "\u2581Martin": 3871,
    "\u2581ch\u00edn": 3872,
    "\u2581l\u1ed3": 3873,
    "\u2581subject": 3874,
    "\u2581Bo": 3875,
    "\u2581B\u1eafn": 3876,
    "\u2581holding": 3877,
    "\u2581tr\u1ea7n": 3878,
    "\u2581crowd": 3879,
    "\u2581fair": 3880,
    "\u258120.": 3881,
    "\u258126": 3882,
    "\u2581major": 3883,
    "\u2581eating": 3884,
    "\u2581huge": 3885,
    "\u2581m\u1ea7y": 3886,
    "\u2581l\u1ed9n": 3887,
    "\u2581precious": 3888,
    "\u2581smart": 3889,
    "\u2581vision": 3890,
    "\u2581feels": 3891,
    "\u2581Monica": 3892,
    "\u2581blessing": 3893,
    "\u2581Li": 3894,
    "\u2581seemed": 3895,
    "\u2581D\u00f9ng": 3896,
    "\u2581store": 3897,
    "No": 3898,
    "\u2581trees": 3899,
    "\u2581V\u00e0i": 3900,
    "\u2581kh\u1ec9": 3901,
    "\u2581laid": 3902,
    "\u2581considered": 3903,
    "\u2581\u0111\u1eddn": 3904,
    "\u2581b\u00e3o": 3905,
    "\u2581Alice": 3906,
    "\u2581birthday": 3907,
    "\u2581honest": 3908,
    "ler": 3909,
    "we": 3910,
    "\u2581weapons": 3911,
    "of": 3912,
    "\u2581d\u0129": 3913,
    "\u2581angels": 3914,
    "\u2581lies": 3915,
    "\u2581research": 3916,
    "\u25817,": 3917,
    "\u2581green": 3918,
    "\u2581walked": 3919,
    "\u2581\u0111i\u00ea": 3920,
    "\u2581pages": 3921,
    "\u2581salvation": 3922,
    "\u2581destruction": 3923,
    "\u2581model": 3924,
    "\u2581300": 3925,
    "\u2581To\u00e0n": 3926,
    "\u2581fat": 3927,
    "\u2581showing": 3928,
    "\u2581access": 3929,
    "\u2581apply": 3930,
    "\u2581tr\u0103ng": 3931,
    "\u2581arrived": 3932,
    "\u2581blessed": 3933,
    "\u2581r\u1ed3": 3934,
    "\u2581dwell": 3935,
    "\u2581realized": 3936,
    "\u2581military": 3937,
    "\u2581burn": 3938,
    "Cause": 3939,
    "bu": 3940,
    "\u2581m\u00f3c": 3941,
    "\u2581Ngu\u1ed3n": 3942,
    "\u2581North": 3943,
    "\u2581c\u1ee7": 3944,
    "\u2581delivered": 3945,
    "\u2581th\u1ee5": 3946,
    "\u2581l\u1ea1y": 3947,
    "\u2581s\u1eafng": 3948,
    "age": 3949,
    "\u2581b\u1ea9n": 3950,
    "\u2581whoa": 3951,
    "\u2581appointed": 3952,
    "\u2581ng\u00e0nh": 3953,
    "\u258180": 3954,
    "\u2581buddy": 3955,
    "\u2581missed": 3956,
    "r\u00f4n": 3957,
    "\u2581T\u1ee5": 3958,
    "\u2581TO": 3959,
    "\u2581medical": 3960,
    "\u2581chosen": 3961,
    "\u2581ring": 3962,
    "\u2581trip": 3963,
    "\u2581shown": 3964,
    "\u258132": 3965,
    "\u2581th\u00f3i": 3966,
    "\u2581tr\u00f2n": 3967,
    "\u2581Carl": 3968,
    "\u2581gentlemen": 3969,
    "\u2581k": 3970,
    "\u2581cop": 3971,
    "\u2581n\u0103n": 3972,
    "\u2581c\u00fa": 3973,
    "\u2581disease": 3974,
    "\u2581tr\u00fac": 3975,
    "\u2581waste": 3976,
    "\u2581\u0111\u1eadu": 3977,
    "ted": 3978,
    "old": 3979,
    "\u2581loves": 3980,
    "\u2581n\u1ea5u": 3981,
    "\u2581pha": 3982,
    "\u2581thu\u1ebf": 3983,
    "\u2581th\u00f9ng": 3984,
    "\u2581unless": 3985,
    "\u2581mighty": 3986,
    "\u2581Genesis": 3987,
    "\u2581bought": 3988,
    "\u2581m\u00f4ng": 3989,
    "\u2581nha": 3990,
    "\u2581nh\u1ecbn": 3991,
    "\u2581Ch\u1edb": 3992,
    "\u2581b\u01a1i": 3993,
    "\u2581500": 3994,
    "\u2581sad": 3995,
    "\u2581\u0111\u1ed3i": 3996,
    "\u2581khu\u00f4n": 3997,
    "\u2581hast": 3998,
    "anh": 3999,
    "me": 4000,
    "\u2581Looks": 4001,
    "\u2581v\u0129nh": 4002,
    "\u2581tongue": 4003,
    "\u2581Last": 4004,
    "\u2581except": 4005,
    "\u2581fool": 4006,
    "\u2581helps": 4007,
    "\u2581ch\u01a1n": 4008,
    "\u2581c\u1ed5ng": 4009,
    "\u2581C\u00f9ng": 4010,
    "\u2581Instead": 4011,
    "\u2581Rather": 4012,
    "\u2581French": 4013,
    "\u2581copy": 4014,
    "\u2581midst": 4015,
    "\u2581regular": 4016,
    "\u2581Chu\u1ea9n": 4017,
    "\u2581Dave": 4018,
    "\u2581hungry": 4019,
    "\u2581\u0110\u1ee7": 4020,
    "\u2581Jane": 4021,
    "\u2581Ru": 4022,
    "\u2581sky": 4023,
    "l\u01a1": 4024,
    "\u00b7": 4025,
    "\u2581bringing": 4026,
    "\u258145": 4027,
    "\u2581Th\u00ed": 4028,
    "\u2581b\u00f4": 4029,
    "\u2581loyal": 4030,
    "\u2581m\u1ea1o": 4031,
    "\u2581r\u00ea": 4032,
    "\u2581brings": 4033,
    "\u2581s\u1eaft": 4034,
    "\u2581u": 4035,
    "\u2581f": 4036,
    "\u2581quang": 4037,
    "\u2581t\u01b0\u01a1i": 4038,
    "\u2581focus": 4039,
    "\u2581g\u1ee3i": 4040,
    "\u2581Nick": 4041,
    "\u2581ghen": 4042,
    "\u2581Eve": 4043,
    "\u2581positive": 4044,
    "\u2581south": 4045,
    "\u2581x\u00ea": 4046,
    "\u2581\u0110\u1eb7c": 4047,
    "If": 4048,
    "\u2581Check": 4049,
    "\u2581empty": 4050,
    "\u2581Chandler": 4051,
    "\u2581surely": 4052,
    "Do": 4053,
    "\u2581starting": 4054,
    "\u2581k\u00ed": 4055,
    "\u2581\u0102n": 4056,
    ":%": 4057,
    "chi": 4058,
    "th\u1ea3y": 4059,
    "\u2581ch": 4060,
    "\u2581kiss": 4061,
    "\u2581v\u1ed9i": 4062,
    "\u2581Chi": 4063,
    "\u2581village": 4064,
    "\u2581Tr\u1ea3": 4065,
    "\u2581results": 4066,
    "ko": 4067,
    "\u2581island": 4068,
    "\u2581raise": 4069,
    "\u2581tr\u00f4i": 4070,
    "\u2581v\u00e2y": 4071,
    "\u2581waters": 4072,
    "\u2581m\u1ea1i": 4073,
    "m\u1ed9t": 4074,
    "\u2581S\u1eb5n": 4075,
    "\u2581accident": 4076,
    "\u2581C\u1ea7n": 4077,
    "\u2581examples": 4078,
    "\u2581Gi\u1ebft": 4079,
    "\u2581aware": 4080,
    "\u2581sung": 4081,
    "\u2581Indeed": 4082,
    "\u2581stories": 4083,
    "\u2581proper": 4084,
    "\u2581kh\u1ed5ng": 4085,
    "\u2581m\u00e8o": 4086,
    "\u2581r\u1ed1t": 4087,
    "\u2581During": 4088,
    "\u2581True": 4089,
    "\u2581concern": 4090,
    "min": 4091,
    "you": 4092,
    "\u2581Christmas": 4093,
    "\u2581decide": 4094,
    "\u2581chai": 4095,
    "\u2581altar": 4096,
    "\u2581l\u00f4ng": 4097,
    "\u2581suffer": 4098,
    "\u2581N\u00e8": 4099,
    "\u2581Ooh": 4100,
    "\u2581wild": 4101,
    "\u2581display": 4102,
    "\u2581due": 4103,
    "\u2581Jeremiah": 4104,
    "so": 4105,
    "\u2581prayers": 4106,
    "\u2581private": 4107,
    "ir": 4108,
    "\u2581education": 4109,
    "ING": 4110,
    "\u2581heads": 4111,
    "\u2581partner": 4112,
    "\u2581station": 4113,
    "\u2581Synchronis": 4114,
    "\u0111\u1ebfn": 4115,
    "\u2581smell": 4116,
    "\u2581treat": 4117,
    "C\u01b0\u1eddi": 4118,
    "ci": 4119,
    "\u2581ok": 4120,
    "\u2581k\u1eb9t": 4121,
    "\u2581\u0111\u1ebfm": 4122,
    "\u2581darkness": 4123,
    "\u2581b\u00e1u": 4124,
    "\u2581g\u1ed7": 4125,
    "\u2581ng\u01a1i": 4126,
    "\u2581Kho\u1ea3ng": 4127,
    "\u2581Li\u1ec7u": 4128,
    "\u2581g\u1ee1": 4129,
    "\u2581surprise": 4130,
    "\u2581laws": 4131,
    "\u2581n\u1ecd": 4132,
    "\u2581ya": 4133,
    "\u2581mu": 4134,
    "\u2581points": 4135,
    "\u2581political": 4136,
    "\u2581role": 4137,
    "\u2581cancer": 4138,
    "\u2581th\u00e8m": 4139,
    "\u2581II": 4140,
    "\u2581wearing": 4141,
    "l\u1ec5": 4142,
    "at": 4143,
    "\u2581Hebrews": 4144,
    "\u2581original": 4145,
    "Con": 4146,
    "tic": 4147,
    "\u2581Thanh": 4148,
    "r\u00ea": 4149,
    "\u2581c\u01b0\u01a1ng": 4150,
    "\u258119.": 4151,
    "\u2581gi\u00e1ng": 4152,
    "\u2581hearing": 4153,
    "ner": 4154,
    "\u2581activity": 4155,
    "\u2581pure": 4156,
    "\u2581hasn": 4157,
    "\u2581l\u01b0\u1edbi": 4158,
    "\u2581b\u1ed1i": 4159,
    "\u2581challenge": 4160,
    "\u2581pieces": 4161,
    "ial": 4162,
    "\u2581sat": 4163,
    "\u2581lui": 4164,
    "\u2581n\u1ed9p": 4165,
    "ki": 4166,
    "\u2581instance": 4167,
    "\u2581\u0111o": 4168,
    "\u2581\u1ed4n": 4169,
    "\u2581invited": 4170,
    "\u2581r\u1ee7a": 4171,
    "\u2581b\u00ea": 4172,
    "\u2581b\u1ea5y": 4173,
    "\u2581nine": 4174,
    "\u2581particular": 4175,
    "\u2581Sit": 4176,
    "\u2581cross": 4177,
    "\u2581d\u1eb7n": 4178,
    "\u2581th\u00e1m": 4179,
    "\u2581turns": 4180,
    "C\u00f3": 4181,
    "\u2581d\u00f2": 4182,
    "\u2581concerning": 4183,
    "\u2581speed": 4184,
    "\u2581\u0111i\u1ec7u": 4185,
    "\u2581c\u1ed9t": 4186,
    "\u2581Young": 4187,
    "\u2581conversation": 4188,
    "\u2581herself": 4189,
    "\u2581scene": 4190,
    "\u2581bodies": 4191,
    "\u2581fit": 4192,
    "\u2581qualities": 4193,
    "\u2581rain": 4194,
    "time": 4195,
    "\u2581\u0110\u00e1nh": 4196,
    "\u2581decisions": 4197,
    "\u2581apart": 4198,
    "\u2581d\u1ea1i": 4199,
    "\u2581lack": 4200,
    "bo": 4201,
    "\u2581Su": 4202,
    "\u2581technology": 4203,
    "\u2581c\u00e0i": 4204,
    "\u2581bi\u1ec7n": 4205,
    "\u2581li\u1ec1u": 4206,
    "\u2581t\u01b0\u1edbc": 4207,
    "\u2581bus": 4208,
    "\u2581\u0111u\u1ed1i": 4209,
    "\u2581Nathan": 4210,
    "\u2581ah": 4211,
    "Ta": 4212,
    "\u2581Chinese": 4213,
    "\u2581spiritually": 4214,
    "\u2581amount": 4215,
    "ent": 4216,
    "\u2581ball": 4217,
    "\u2581gathered": 4218,
    "c\u00f3": 4219,
    "\u2581b\u1ebfp": 4220,
    "\u258135": 4221,
    "\u2581\u00f3c": 4222,
    "\u2581Sara": 4223,
    "\u2581warning": 4224,
    "\u2581Kh\u00e1": 4225,
    "\u2581kh\u00e1ng": 4226,
    "ful": 4227,
    "\u2581m\u00e2y": 4228,
    "\u2581accepted": 4229,
    "\u2581press": 4230,
    "\u2581apartment": 4231,
    "\u2581h\u00e0": 4232,
    "\u2581ng\u1ef1c": 4233,
    "\u2581tho\u1ea3ng": 4234,
    "\u2581chu": 4235,
    "\u2581daughters": 4236,
    "ad": 4237,
    "\u2581gan": 4238,
    "\u2581negative": 4239,
    "\u2581th\u00e1c": 4240,
    "\u2581fail": 4241,
    "\u2581th\u01b0\u1edbc": 4242,
    "\u2581warm": 4243,
    "\u2581Anything": 4244,
    "\u2581Thomas": 4245,
    "\u2581grew": 4246,
    "\u2581pre": 4247,
    "\u2581Richard": 4248,
    "\u2581society": 4249,
    "\u2581individual": 4250,
    "\u2581meat": 4251,
    "ti": 4252,
    "\u2581Sy": 4253,
    "\u2581t\u1ea1": 4254,
    "\u2581Didn": 4255,
    "\u2581M\u1edbi": 4256,
    "\u2581innocent": 4257,
    "\u2581mess": 4258,
    "line": 4259,
    "\u2581Ch\u1ecdn": 4260,
    "\u2581journey": 4261,
    "\u2581throne": 4262,
    "\u2581dress": 4263,
    "\u2581minister": 4264,
    "\u2581Pharaoh": 4265,
    "\u2581carried": 4266,
    "\u2581\u1ea2nh": 4267,
    "\u2581S\u00e1ch": 4268,
    "\u2581h\u1ecfa": 4269,
    "\u2581arms": 4270,
    "\u2581responsible": 4271,
    "\u2581m\u1ecdc": 4272,
    "\u2581Steve": 4273,
    "\u2581c\u00f3c": 4274,
    "\u2581l\u1ecdc": 4275,
    "\u2581maintain": 4276,
    "\u2581V\u00ed": 4277,
    "\u2581steal": 4278,
    "ite": 4279,
    "lu": 4280,
    "\u2581khi\u00eau": 4281,
    "\u2581n\u01b0": 4282,
    "*": 4283,
    "\u258121:": 4284,
    "\u2581Eddie": 4285,
    "\u2581Tony": 4286,
    "...\"": 4287,
    "\u2581Find": 4288,
    "\u2581Jake": 4289,
    "\u2581Little": 4290,
    "\u2581Organisation": 4291,
    "\u2581former": 4292,
    "\u2581gas": 4293,
    "\u2581nh\u1eafm": 4294,
    "\u2581respond": 4295,
    "\u2581sing": 4296,
    "\u2581Tommy": 4297,
    "\u2581g\u00e1c": 4298,
    "\u2581lands": 4299,
    "\u2581Sinh": 4300,
    "\u2581l\u1eb7p": 4301,
    "\u258190": 4302,
    "\u2581everywhere": 4303,
    "\u2581h\u1ed3ng": 4304,
    "\u2581movie": 4305,
    "\u2581ng\u1ecdt": 4306,
    "\u00e9": 4307,
    "\u2581Vui": 4308,
    "\u2581base": 4309,
    "\u2581g\u1edbm": 4310,
    "\u2581bia": 4311,
    "\u2581owe": 4312,
    "\u2581exist": 4313,
    "\u2581Spirit": 4314,
    "\u2581creation": 4315,
    "\u2581Though": 4316,
    "\u2581West": 4317,
    "\u2581color": 4318,
    "\u2581hero": 4319,
    "\u2581h\u1ea3i": 4320,
    "\u2581tu\u00e2n": 4321,
    "\u2581khinh": 4322,
    "\u2581Tim": 4323,
    "\u2581main": 4324,
    "\u2581various": 4325,
    "\u2581Also": 4326,
    "\u2581weapon": 4327,
    "\u2581\u0111\u0129a": 4328,
    "\u2581drinking": 4329,
    "\u2581tr\u00e1": 4330,
    "\u2581van": 4331,
    "\u2581qu\u1ea3ng": 4332,
    "\u258116:": 4333,
    "\u2581drunk": 4334,
    "N\u1ebfu": 4335,
    "ating": 4336,
    "t\u1edb": 4337,
    "\u2581heavy": 4338,
    "X": 4339,
    "\u258111,": 4340,
    "\u2581add": 4341,
    "\u2581\u1edc": 4342,
    "\u2581Agent": 4343,
    "\u2581High": 4344,
    "\u2581Simon": 4345,
    "\u2581n\u01b0\u01a1ng": 4346,
    "\u2581yesterday": 4347,
    "\u2581\u0111\u1ebb": 4348,
    "\u2581Th\u1eed": 4349,
    "\u2581ng\u1eabm": 4350,
    "\u2581officer": 4351,
    "ron": 4352,
    "\u2581Ask": 4353,
    "\u2581student": 4354,
    "\u2581appear": 4355,
    "\u2581th\u1ea3i": 4356,
    "\u2581Fire": 4357,
    "\u2581regarding": 4358,
    "\u2581h\u00e8": 4359,
    "b\u00ecnh": 4360,
    "\u2581steps": 4361,
    "\u2581thine": 4362,
    "\u2581bigger": 4363,
    "\u2581continued": 4364,
    "\u2581cops": 4365,
    "\u2581kh\u1ea3o": 4366,
    "\u2581killer": 4367,
    "\u2581Moreover": 4368,
    "\u2581N\u00e0ng": 4369,
    "\u2581vital": 4370,
    "\u2581influence": 4371,
    "\u2581..": 4372,
    "\u258121.": 4373,
    "\u2581\u1ee9c": 4374,
    "\u2581stuck": 4375,
    "per": 4376,
    "\u258112,": 4377,
    "\u2581privilege": 4378,
    "\u2581l\u00faa": 4379,
    "\u2581correct": 4380,
    "\u2581h\u1ed7n": 4381,
    "\u2581promises": 4382,
    "\u2581gay": 4383,
    "\u2581sold": 4384,
    "6": 4385,
    "os": 4386,
    "\u2581H\u1ea7u": 4387,
    "\u2581moral": 4388,
    "\u2581nh\u1edf": 4389,
    "\u2581double": 4390,
    "\u2581games": 4391,
    "V\u1ed7": 4392,
    "\u2581mountains": 4393,
    "\u2581prepare": 4394,
    "\u2581option": 4395,
    "\u2581thereof": 4396,
    "\u2581ti\u00ea": 4397,
    "\u2581lu\u00e2n": 4398,
    "ran": 4399,
    "\u2581hole": 4400,
    "\u2581hurry": 4401,
    "\u2581board": 4402,
    "\u2581quit": 4403,
    "ho": 4404,
    "\u2581Ch\u1ed7": 4405,
    "\u2581conscience": 4406,
    "\u2581rise": 4407,
    "\u2581Ho\u00e0n": 4408,
    "\u2581drugs": 4409,
    "\u2581prophets": 4410,
    "This": 4411,
    "\u2581efforts": 4412,
    "\u2581keeps": 4413,
    "\u258114,": 4414,
    "\u2581Vi": 4415,
    "\u2581definitely": 4416,
    "\u2581gi\u00e0nh": 4417,
    "\u2581orders": 4418,
    "\u2581seriously": 4419,
    "\u2581wilderness": 4420,
    "\u2581Ho": 4421,
    "\u2581ch\u00ecm": 4422,
    "\u2581b\u00f3": 4423,
    "\u2581l\u00e2n": 4424,
    "\u2581moon": 4425,
    "\u2581progress": 4426,
    "\u2581quality": 4427,
    "\u2581concerned": 4428,
    "\u2581files": 4429,
    "\u2581success": 4430,
    "di": 4431,
    "\u2581event": 4432,
    "\u2581expression": 4433,
    "\u2581hi\u1ebfn": 4434,
    "\u2581note": 4435,
    "\u2581target": 4436,
    "\u2581wives": 4437,
    "ary": 4438,
    "\u2581chuy\u00ea": 4439,
    "\u2581gi\u00e1p": 4440,
    "\u2581u\u1ebf": 4441,
    "ley": 4442,
    "\u2581b\u1ef1c": 4443,
    "\u2581\u2013": 4444,
    "\u2581Kh\u1ed1n": 4445,
    "\u2581becoming": 4446,
    "\u2581bomb": 4447,
    "\u2581b\u1edb": 4448,
    "\u2581magic": 4449,
    "\u2581nghi\u1ec7n": 4450,
    "\u2581r\u1ebd": 4451,
    "\u2581Lo": 4452,
    "\u2581community": 4453,
    "\u2581k\u0129": 4454,
    "\u2581\u0110\u00e2u": 4455,
    "\u258118:": 4456,
    "\u2581guns": 4457,
    "\u2581soldiers": 4458,
    "\u2581\u0110\u01b0\u01a1": 4459,
    "\u2581V\u1ee5": 4460,
    "\u2581becomes": 4461,
    "\u2581current": 4462,
    "\u2581explained": 4463,
    "\u2581images": 4464,
    "\u2581Turn": 4465,
    "\u2581l\u1ee1": 4466,
    "\u2581t\u1ea3ng": 4467,
    "\u2581favorite": 4468,
    "\u2581feed": 4469,
    "\u2581connection": 4470,
    "\u2581weak": 4471,
    "\u2581Qu\u00e2n": 4472,
    "\u2581d\u00ea": 4473,
    "\u2581finding": 4474,
    "\u2581r\u1ed3ng": 4475,
    "\u2581Dean": 4476,
    "\u2581protection": 4477,
    "\u2581burnt": 4478,
    "\u2581captain": 4479,
    "\u2581nh\u00e2": 4480,
    "ance": 4481,
    "\u258119:": 4482,
    "\u2581neck": 4483,
    "\u2581godly": 4484,
    "\u2581pro": 4485,
    "\u2581drug": 4486,
    "\u2581worst": 4487,
    "\u2581member": 4488,
    "\u2581OF": 4489,
    "\u2581cases": 4490,
    "\u2581l\u01b0\u1ee3t": 4491,
    "\u2581loss": 4492,
    "\u258120:": 4493,
    "\u2581develop": 4494,
    "\u2581tr\u1ee9ng": 4495,
    "\u2581bastard": 4496,
    "\u2581ph\u1ea5n": 4497,
    "\u2581firm": 4498,
    "\u2581grand": 4499,
    "\u2581m\u00f2": 4500,
    "\u2581Up": 4501,
    "\u2581B\u00e1o": 4502,
    "\u2581Cannot": 4503,
    "\u2581H\u1ea1": 4504,
    "\u2581travel": 4505,
    "ge": 4506,
    "\u2581actions": 4507,
    "\u2581l\u00eca": 4508,
    "\u2581Too": 4509,
    "\u2581Xe": 4510,
    "\u2581c\u1eafn": 4511,
    "\u2581hi\u1ebfp": 4512,
    "\u2581d\u1eaft": 4513,
    "sh": 4514,
    "\u258136": 4515,
    "\u2581push": 4516,
    "year": 4517,
    "\u2581Brooklyn": 4518,
    "\u2581suddenly": 4519,
    "\u2581s\u1eefa": 4520,
    "\u2581determined": 4521,
    "\u2581eventually": 4522,
    "\u2581extra": 4523,
    "\u2581project": 4524,
    "\u2581robot": 4525,
    "\u2581ears": 4526,
    "\u2581proved": 4527,
    "\u2581flight": 4528,
    "God": 4529,
    "\u2581d\u1eb9p": 4530,
    "v\u00e0": 4531,
    "\u2581Cao": 4532,
    "\u2581harm": 4533,
    "\u2581\u0111\u1ec7": 4534,
    "\u2581Maria": 4535,
    "\u2581su\u1ea5t": 4536,
    "\u2581truck": 4537,
    "\u2581Aah": 4538,
    "\u2581H\u1ed3i": 4539,
    "\u2581m\u00e9t": 4540,
    "\u2581stars": 4541,
    "\u2581vi\u1ec5n": 4542,
    "\u2581L\u1ed7i": 4543,
    "\u2581covered": 4544,
    "\u2581g\u1eb7t": 4545,
    "\u2581Society": 4546,
    "\u2581terms": 4547,
    "\u2581standards": 4548,
    "\u2581discuss": 4549,
    "\u2581CN": 4550,
    "\u2581nearly": 4551,
    "\u2581n\u1ea3n": 4552,
    "\u2581sexual": 4553,
    "\u2581weight": 4554,
    "(": 4555,
    "\u2581v\u00e9": 4556,
    "\u2581S\u01b0": 4557,
    "\u2581dare": 4558,
    "\u2581Arthur": 4559,
    "\u2581track": 4560,
    "Let": 4561,
    "\u2581hotel": 4562,
    "\u2581Five": 4563,
    "\u2581daily": 4564,
    "\u2581ng\u01b0\u1ee1ng": 4565,
    "\u2581lo\u1ea1t": 4566,
    "\u2581generation": 4567,
    "\u2581forgot": 4568,
    "que": 4569,
    "\u2581Ti\u1ec1n": 4570,
    "\u2581L\u00fd": 4571,
    "\u2581initialise": 4572,
    "\u2581v\u1ea9n": 4573,
    "\u2581Thi\u1ebft": 4574,
    "\u2581Use": 4575,
    "\u2581absolutely": 4576,
    "\u2581Ti\u1ec3u": 4577,
    "land": 4578,
    "\u2581college": 4579,
    "\u2581obey": 4580,
    "\u2581Scott": 4581,
    "\u2581border": 4582,
    "\u2581tr\u00fang": 4583,
    "\u2581L\u1ebd": 4584,
    "\u2581m\u1ef1c": 4585,
    "Ng\u01b0\u1eddi": 4586,
    "\u2581East": 4587,
    "\u2581Honey": 4588,
    "\u2581goal": 4589,
    "\u2581m\u01b0\u1ee3n": 4590,
    "\u2581Kill": 4591,
    "\u2581tr\u00e0": 4592,
    "\u2581Tay": 4593,
    "\u2581s\u00e9p": 4594,
    "\u2581thi\u1ec7p": 4595,
    "\u2581virus": 4596,
    "\u2581rid": 4597,
    "\u2581L\u00f2ng": 4598,
    "\u2581c\u1edfi": 4599,
    "\u2581M\u1eddi": 4600,
    "\u2581b\u1edbt": 4601,
    "\u2581\u00c1": 4602,
    "\u2581smoke": 4603,
    "\u2581thao": 4604,
    "\u2581\u0110\u1eb7t": 4605,
    "\u2581Doctor": 4606,
    "\u2581ng\u1ea1o": 4607,
    "\u2581William": 4608,
    "\u2581tuy\u1ebft": 4609,
    "\u2581Xong": 4610,
    "\u2581described": 4611,
    "\u2581twice": 4612,
    "\u2581Anyway": 4613,
    "\u2581congregations": 4614,
    "\u2581easily": 4615,
    "\u2581walls": 4616,
    "\u2581surprised": 4617,
    "\u258116,": 4618,
    "\u2581Witness": 4619,
    "\u2581east": 4620,
    "\u2581arrest": 4621,
    "\u2581preach": 4622,
    "\u2581t\u0103m": 4623,
    "\u2581Shh": 4624,
    "\u2581blessings": 4625,
    "\u2581flock": 4626,
    "\u2581Park": 4627,
    "\u2581girlfriend": 4628,
    "\u2581recorded": 4629,
    "\u2581cells": 4630,
    "\u2581None": 4631,
    "\u2581China": 4632,
    "\u2581d\u0169ng": 4633,
    "In": 4634,
    "\u2581Tower": 4635,
    "\u2581acts": 4636,
    "\u2581breath": 4637,
    "\u2581\u0111\u1eafn": 4638,
    "\u2581chapter": 4639,
    "\u2581twenty": 4640,
    "\u2581courage": 4641,
    "\u2581g\u1edfi": 4642,
    "\u2581powers": 4643,
    "C\u00e1c": 4644,
    "\u2581beauty": 4645,
    "\u2581environment": 4646,
    "\u2581growing": 4647,
    "\u2581t\u00e1o": 4648,
    "\u2581l\u00f2": 4649,
    "\u2581plans": 4650,
    "\u2581blame": 4651,
    "ster": 4652,
    "\u2581increase": 4653,
    "\u2581t\u1ed1ng": 4654,
    "\u2581\u201d?": 4655,
    "\u2581billion": 4656,
    "\u2581khung": 4657,
    "IN": 4658,
    "\u2581tr\u1ee5c": 4659,
    "\u2581bunch": 4660,
    "\u2581leg": 4661,
    "pe": 4662,
    "\u2581Ghi": 4663,
    "\u2581leaders": 4664,
    "\u2581lesson": 4665,
    "\u2581chose": 4666,
    "\u2581fill": 4667,
    "\u2581g\u00e3y": 4668,
    "\u2581published": 4669,
    "\u2581regard": 4670,
    "\u2581pictures": 4671,
    "\u2581vun": 4672,
    "\u2581c\u00e1t": 4673,
    "\u2581Without": 4674,
    "\u2581v\u1ea3": 4675,
    "lin": 4676,
    "\u2581Chris": 4677,
    "\u2581Europe": 4678,
    "\u2581Tr\u1eeb": 4679,
    "\u2581easier": 4680,
    "\u2581mention": 4681,
    "\u2581Hence": 4682,
    "\u2581approach": 4683,
    "\u2581N\u1eef": 4684,
    "\u2581belong": 4685,
    "\u2581hi\u1ebfm": 4686,
    "\u2581male": 4687,
    "\u2581afternoon": 4688,
    "\u2581higher": 4689,
    "\u2581shame": 4690,
    "\u2581integrity": 4691,
    "\u2581v\u1edb": 4692,
    "\u2581g\u1ea1t": 4693,
    "\u2581rejoice": 4694,
    "\u2581release": 4695,
    "\u2581reward": 4696,
    "for": 4697,
    "\u2581Kate": 4698,
    "\u2581cu": 4699,
    "\u2581surface": 4700,
    "\u2581component": 4701,
    "\u2581gi\u1ee5c": 4702,
    "\u2581m\u0169": 4703,
    "\u2581star": 4704,
    "po": 4705,
    "tri": 4706,
    "\u2581tr\u1eebng": 4707,
    "\u1edf": 4708,
    "\u2581experienced": 4709,
    "mon": 4710,
    "\u2581d\u1ea1o": 4711,
    "\u2581s\u01b0\u1edbng": 4712,
    "\u2581s\u1ef9": 4713,
    "\u2581vi\u1ebfng": 4714,
    "\u2581ng\u0169": 4715,
    "\u2581so\u1ea1n": 4716,
    "\u2581Ngh\u0129a": 4717,
    "\u2581aside": 4718,
    "\u2581attend": 4719,
    "\u2581C\u1eadp": 4720,
    "\u2581Four": 4721,
    "\u2581map": 4722,
    "\u2581spot": 4723,
    "\u2581h\u00e8n": 4724,
    "l\u00f2ng": 4725,
    "\u2581reality": 4726,
    "\u2581taste": 4727,
    "\u2581t\u00f9ng": 4728,
    "\u2581v\u00f5": 4729,
    "\u2581T\u01b0": 4730,
    "\u2581behavior": 4731,
    "\u2581xoay": 4732,
    "\u2581occasion": 4733,
    "\u2581ear": 4734,
    "l\u00f4n": 4735,
    "\u2581Th\u1ea3": 4736,
    "\u2581term": 4737,
    "\u2581dry": 4738,
    "\u2581horses": 4739,
    "\u2581m\u1ed3m": 4740,
    "ant": 4741,
    "\u2581Washington": 4742,
    "\u2581losing": 4743,
    "\u2581goddamn": 4744,
    "ja": 4745,
    "\u2581Scriptural": 4746,
    "\u2581driving": 4747,
    "\u2581k\u1ec9": 4748,
    "\u2581Ti\u1ebfng": 4749,
    "\u2581tr\u1ea7m": 4750,
    "\u2581Isaac": 4751,
    "\u2581appropriate": 4752,
    "\u2581summer": 4753,
    "\u2581understood": 4754,
    "\u2581houses": 4755,
    "\u2581idiot": 4756,
    "\u2581c\u1ed1c": 4757,
    "\u2581location": 4758,
    "\u2581meal": 4759,
    "\u02b9": 4760,
    "\u2581V\u00f4": 4761,
    "\u2581bottom": 4762,
    "\u2581m\u1ed9ng": 4763,
    "\u2581Walter": 4764,
    "\u2581ought": 4765,
    "br": 4766,
    "\u00e1p": 4767,
    "\u2581Stand": 4768,
    "\u2581added": 4769,
    "\u2581ch\u1ecdc": 4770,
    "\u2581th\u00f4": 4771,
    "\u2581Le": 4772,
    "\u2581dude": 4773,
    "like": 4774,
    "\u2581Roger": 4775,
    "\u2581closed": 4776,
    "\u2581required": 4777,
    "\u2581ends": 4778,
    "\u2581nu\u1ed1t": 4779,
    "\u2581pioneer": 4780,
    "\u2581rate": 4781,
    "\u2581Kevin": 4782,
    "\u2581c\u1ef1": 4783,
    "\u2581DNA": 4784,
    "\u2581conditions": 4785,
    "\u25811914": 4786,
    "\u2581t\u00e0ng": 4787,
    "\u2581locked": 4788,
    "\u2581tough": 4789,
    "nh\u1eefng": 4790,
    "\u2581tribe": 4791,
    "\u2581basic": 4792,
    "\u2581jump": 4793,
    "\u2581played": 4794,
    "\u2581suit": 4795,
    "\u2581legs": 4796,
    "\u2581letters": 4797,
    "\u2581cash": 4798,
    "\u2581discovered": 4799,
    "\u2581kh\u00e9o": 4800,
    "\u2581response": 4801,
    "\u2581Se": 4802,
    "\u2581b\u00e1m": 4803,
    "\u2581d\u1ecdc": 4804,
    "\u2581manner": 4805,
    "\u2581tr\u00fa": 4806,
    "\u2581lock": 4807,
    "v\u1eady": 4808,
    "\u2581s\u00e0n": 4809,
    "\u2581Alright": 4810,
    "\u2581personally": 4811,
    "\u2581turning": 4812,
    "\u2581{\\": 4813,
    "\u2581\u1ed5": 4814,
    "\u2581s\u1ee3i": 4815,
    "\u2581tea": 4816,
    "\u2581exercise": 4817,
    "\u2581sacred": 4818,
    "\u2581Catholic": 4819,
    "\u2581G\u00e3": 4820,
    "\u2581super": 4821,
    "\u2581trial": 4822,
    "\u2581centuries": 4823,
    "\u2581match": 4824,
    "\u2581V\u01b0\u01a1ng": 4825,
    "\u2581studying": 4826,
    "\u2581s\u00fac": 4827,
    "Oh": 4828,
    "\u2581Hell": 4829,
    "\u2581center": 4830,
    "\u2581m\u1ed3i": 4831,
    "\u2581leo": 4832,
    "\u2581gi\u00e3n": 4833,
    "\u2581market": 4834,
    "\u2581Somebody": 4835,
    "\u2581bird": 4836,
    "ize": 4837,
    "\u2581Ex": 4838,
    "\u2581Gi\u00e1ng": 4839,
    "\u2581fulfilled": 4840,
    "\u2581Later": 4841,
    "xa": 4842,
    "mp": 4843,
    "\u2581cat": 4844,
    "ized": 4845,
    "\u2581Line": 4846,
    "\u2581hundreds": 4847,
    "\u2581garden": 4848,
    "\u2581basis": 4849,
    "\u2581explains": 4850,
    "\u2581ransom": 4851,
    "\u2581Gi\u00e1": 4852,
    "\u2581earthly": 4853,
    "\u2581Uncle": 4854,
    "der": 4855,
    "za": 4856,
    "\u2581accurate": 4857,
    "\u2581liked": 4858,
    "\u2581treatment": 4859,
    "\u258123.": 4860,
    "\u2581Billy": 4861,
    "\u2581Ten": 4862,
    "\u2581\u00f4m": 4863,
    "\u2581Phoebe": 4864,
    "\u2581ended": 4865,
    "\u2581recently": 4866,
    "ber": 4867,
    "\u2581Soon": 4868,
    "\u2581sleeping": 4869,
    "\u2581S\u1ebfp": 4870,
    "\u2581branch": 4871,
    "\u2581h\u1ea1ng": 4872,
    "\u2581Pictures": 4873,
    "\u2581c\u01b0\u1eddng": 4874,
    "\u2581C\u1ea7u": 4875,
    "\u2581Day": 4876,
    "\u2581h\u00e2": 4877,
    "\u2581German": 4878,
    "\u2581grown": 4879,
    "\u2581r": 4880,
    "\u2581tri\u1ec1u": 4881,
    "7": 4882,
    "\u2581deserve": 4883,
    "\u2581stated": 4884,
    "\u2581\u0110\u1ebf": 4885,
    "\u2581global": 4886,
    "\u2581h\u00e9t": 4887,
    "\u2581jail": 4888,
    "\u2581\u0110\u00eam": 4889,
    "\u2581Gi": 4890,
    "\u2581Gi\u1ea3i": 4891,
    "\u2581error": 4892,
    "\u258113,": 4893,
    "\u2581Happy": 4894,
    "\u2581Thuy\u1ec1n": 4895,
    "\u2581expected": 4896,
    "\u2581hiding": 4897,
    "\u2581roof": 4898,
    "\u2581site": 4899,
    "\u2581activities": 4900,
    "\u2581lab": 4901,
    "ated": 4902,
    "\u2581IN": 4903,
    "\u2581Z": 4904,
    "\u2581ho\u00e1": 4905,
    "\u2581phe": 4906,
    "\u2581Brian": 4907,
    "\u2581familiar": 4908,
    "\u2581kh": 4909,
    "\u2581km": 4910,
    "\u2581Each": 4911,
    "\u2581Ki\u1ec3": 4912,
    "\u2581committed": 4913,
    "\u2581Canada": 4914,
    "\u2581corner": 4915,
    "\u2581gi\u00e1n": 4916,
    "\u2581mental": 4917,
    "\u2581specific": 4918,
    "\u2581carefully": 4919,
    "\u2581struck": 4920,
    "\u2581Bethel": 4921,
    "\u2581gieo": 4922,
    "vi\u1ec7c": 4923,
    "\u2581victim": 4924,
    "\u2581damage": 4925,
    "\u2581leaves": 4926,
    "\u2581lovely": 4927,
    "\u2581worldwide": 4928,
    "\u2581x\u00f3m": 4929,
    "\u2581h\u1eadn": 4930,
    "\u2581ng\u1ef1": 4931,
    "\u2581Trust": 4932,
    "\u2581design": 4933,
    "\u00d0\u1ee9c": 4934,
    "\u2581agent": 4935,
    "\u2581n\u1ed9": 4936,
    "\u2581Hang": 4937,
    "\u2581excuse": 4938,
    "Khi": 4939,
    "cho": 4940,
    "\u2581l\u1ecbnh": 4941,
    "\u258122:": 4942,
    "\u2581famous": 4943,
    "\u2581l\u00e2": 4944,
    "\u2581vi\u00ea": 4945,
    "pha": 4946,
    "ow": 4947,
    "\u2581career": 4948,
    "\u2581ng\u01b0ng": 4949,
    "\u2581Set": 4950,
    "\u2581forces": 4951,
    "\u2581issues": 4952,
    "\u2581direct": 4953,
    "\u2581\u0111\u1eb7n": 4954,
    "\u2581Danh": 4955,
    "\u2581Want": 4956,
    "\u2581gather": 4957,
    "\u2581vu": 4958,
    "nh\u01b0": 4959,
    "\u2581active": 4960,
    "\u2581ch\u01b0\u1edbc": 4961,
    "\u2581gi": 4962,
    "\u2581Stark": 4963,
    "\u2581lunch": 4964,
    "\u2581ng": 4965,
    "\u2581opening": 4966,
    "\u2581remove": 4967,
    "les": 4968,
    "\u2581remains": 4969,
    "\u2581Car": 4970,
    "\u2581kick": 4971,
    "\u2581figured": 4972,
    "\u2581dreams": 4973,
    "\u2581gh\u00e9": 4974,
    "\u2581cup": 4975,
    "\u2581h\u00ea": 4976,
    "\u2581Dude": 4977,
    "\u2581Men": 4978,
    "\u2581entered": 4979,
    "\u2581total": 4980,
    "\u2581tr\u01b0\u1ee3t": 4981,
    "\u2581Tr\u00f2": 4982,
    "\u2581th\u00e1p": 4983,
    "\u2581b\u00ec": 4984,
    "\u2581claim": 4985,
    "\u2581languages": 4986,
    "\u2581behalf": 4987,
    "\u2581proof": 4988,
    "\u2581t\u1ecbch": 4989,
    "ER": 4990,
    "\u2581Mo": 4991,
    "\u2581Rose": 4992,
    "\u2581request": 4993,
    "\u2581Elijah": 4994,
    "\u2581Hannah": 4995,
    "\u2581ng\u1ea7m": 4996,
    "\u2581birds": 4997,
    "\u2581traveling": 4998,
    "\u2581wood": 4999,
    "\u2581r\u1ed9n": 5000,
    "\u2581affect": 5001,
    "\u2581legal": 5002,
    "\u2581measure": 5003,
    "\u2581staying": 5004,
    "\u2581Both": 5005,
    "\u2581s\u1ee5p": 5006,
    "\u2581nguy\u1ec1n": 5007,
    "\u2581reached": 5008,
    "\u2581x\u00f4ng": 5009,
    "\u2581boyfriend": 5010,
    "\u2581California": 5011,
    "\u2581doors": 5012,
    "\u2581m\u1edd": 5013,
    "\u2581obviously": 5014,
    "\u2581dis": 5015,
    "\u2581fuckin": 5016,
    "\u2581\u0111c": 5017,
    "\u2581imitate": 5018,
    "\u2581lines": 5019,
    "\u2581B\u1ec7nh": 5020,
    "\u2581Ready": 5021,
    "\u2581\u0111i\u1ebfm": 5022,
    "\u2581H\u00e0nh": 5023,
    "\u2581appreciation": 5024,
    "\u2581baptism": 5025,
    "\u2581revealed": 5026,
    "\u2581ru\u1ed9t": 5027,
    "ex": 5028,
    "\u2581fresh": 5029,
    "\u2581lots": 5030,
    "\u2581magazine": 5031,
    "\u2581fought": 5032,
    "\u2581queen": 5033,
    "\u2581guilty": 5034,
    "\u2581tr\u1ea1m": 5035,
    "\u2581C\u00e0": 5036,
    "\u2581operation": 5037,
    "\u2581plus": 5038,
    "\u2581film": 5039,
    "\u2581India": 5040,
    "\u2581related": 5041,
    "\u2581Mu": 5042,
    "\u2581Ne": 5043,
    "\u2581joke": 5044,
    "su": 5045,
    "\u2581Hi\u1ec7p": 5046,
    "\u2581picked": 5047,
    "\u2581button": 5048,
    "Jehovah": 5049,
    "\u2581assignment": 5050,
    "\u2581credit": 5051,
    "\u2581possibly": 5052,
    "\u2581reports": 5053,
    "\u2581\u0110\u00e0n": 5054,
    "\u2581D\u1ea1": 5055,
    "\u2581bless": 5056,
    "\u2581buried": 5057,
    "\u2581kinds": 5058,
    "\u2581C\u1ed9ng": 5059,
    "\u2581stage": 5060,
    "\u2581Sea": 5061,
    "\u2581acting": 5062,
    "\u2581beast": 5063,
    "\u2581club": 5064,
    "\u2581harmony": 5065,
    "\u2581bound": 5066,
    "\u2581ladies": 5067,
    "How": 5068,
    "\u2581Grace": 5069,
    "\u2581dust": 5070,
    "\u2581zero": 5071,
    "gen": 5072,
    "\u2581V\u1ecb": 5073,
    "\u2581en": 5074,
    "\u2581inheritance": 5075,
    "\u258119,": 5076,
    "\u2581Mang": 5077,
    "c\u1ed1p": 5078,
    "\u2581Were": 5079,
    "\u2581onto": 5080,
    "off": 5081,
    "\u2581Wilson": 5082,
    "\u2581developed": 5083,
    "\u2581foretold": 5084,
    "\u2581\u00f4i": 5085,
    "NG": 5086,
    "\u2581Francis": 5087,
    "\u2581separate": 5088,
    "\u2581v\u1ecf": 5089,
    "\u2581Professor": 5090,
    "\u2581khuy": 5091,
    "\u2581Po": 5092,
    "\u2581uy": 5093,
    "\u0111i": 5094,
    "\u258134": 5095,
    "\u2581Jesse": 5096,
    "\u2581elder": 5097,
    "\u2581d\u00ec": 5098,
    "\u2581streets": 5099,
    "\u2581believers": 5100,
    "\u2581flying": 5101,
    "\u2581post": 5102,
    "\u2581interests": 5103,
    "\u2581m\u1ea1n": 5104,
    "\u2581prayed": 5105,
    "@": 5106,
    "\u2581established": 5107,
    "\u2581d\u00e1ng": 5108,
    "\u2581Co": 5109,
    "\u2581Through": 5110,
    "\u2581burned": 5111,
    "\u2581hoping": 5112,
    "\u2581paradise": 5113,
    "\u2581duty": 5114,
    "\u2581v\u1edd": 5115,
    "c\u00f9ng": 5116,
    "\u0111\u00ea": 5117,
    "\u2581Seung": 5118,
    "\u2581shoes": 5119,
    "ck": 5120,
    "\u2581l\u1eb7n": 5121,
    "\u2581Ted": 5122,
    "\u2581below": 5123,
    "\u2581d\u00e2u": 5124,
    "\u258122.": 5125,
    "\u2581Baby": 5126,
    "ya": 5127,
    "\u2581Eric": 5128,
    "\u2581stole": 5129,
    "v\u1ec1": 5130,
    "\u2581th\u1ea5u": 5131,
    "\u2581tr\u1eef": 5132,
    "\u2581Street": 5133,
    "\u2581humble": 5134,
    "\u2581faster": 5135,
    "\u2581hidden": 5136,
    "\u2581th\u1ea1nh": 5137,
    "\u2581t\u00e2": 5138,
    "\u2581Better": 5139,
    "\u2581Bu\u1ed5i": 5140,
    "\u2581details": 5141,
    "nd": 5142,
    "\u2581Mount": 5143,
    "\u2581gai": 5144,
    "\u2581areas": 5145,
    "\u2581upset": 5146,
    "\u2581m\u1eadp": 5147,
    "\u2581#273;": 5148,
    "\u2581heat": 5149,
    "ble": 5150,
    "\u2581Under": 5151,
    "\u2581admit": 5152,
    "\u2581plant": 5153,
    "d\u00edp": 5154,
    "ina": 5155,
    "\u2581mark": 5156,
    "\u2581produce": 5157,
    "\u2581T\u1ed5": 5158,
    "\u2581advantage": 5159,
    "\u2581b\u1ecdc": 5160,
    "ten": 5161,
    "\u2581Chief": 5162,
    "\u2581\u1ee7y": 5163,
    "\u2581cares": 5164,
    "\u2581directly": 5165,
    "\u2581hi\u00ea": 5166,
    "\u2581deeply": 5167,
    "\u2581sub": 5168,
    "\u2581\u0111u\u00f4i": 5169,
    "\u2581S\u0129": 5170,
    "\u2581trade": 5171,
    "\u2581France": 5172,
    "dy": 5173,
    "\u2581Guys": 5174,
    "\u2581Pete": 5175,
    "\u2581Roy": 5176,
    "\u2581g\u00f3a": 5177,
    "\u2581lawyer": 5178,
    "\u2581strike": 5179,
    "\u2581fulfillment": 5180,
    "\u2581victims": 5181,
    "\u2581t\u1ee7": 5182,
    "\u2581V\u1eeba": 5183,
    "\u2581qu\u1ef9": 5184,
    "\u258117,": 5185,
    "\u2581T\u00edn": 5186,
    "\u2581Gi\u1edbi": 5187,
    "\u2581addition": 5188,
    "\u258120,": 5189,
    "\u2581Bay": 5190,
    "\u2581inhabitants": 5191,
    "H\u1eb3n": 5192,
    "\u2581minds": 5193,
    "\u2581safety": 5194,
    "\u2581truy\u1ec7n": 5195,
    "/%": 5196,
    "\u2581Bobby": 5197,
    "\u2581endure": 5198,
    "\u2581suffered": 5199,
    "\u2581Du": 5200,
    "\u2581Old": 5201,
    "\u2581parent": 5202,
    "\u2581personality": 5203,
    "\u2581tight": 5204,
    "\u2581uncle": 5205,
    "if": 5206,
    "\u2581Gi\u1ea3": 5207,
    "\u2581basically": 5208,
    "\u2581d\u00e0y": 5209,
    "\u2581include": 5210,
    "\u2581\u0110\u1ea5y": 5211,
    "\u2581Amy": 5212,
    "\u2581N\u1eb1m": 5213,
    "\u2581setting": 5214,
    "\u2581v\u00e2n": 5215,
    "\u2581groups": 5216,
    "\u2581nose": 5217,
    "\u2581Detective": 5218,
    "\u2581noticed": 5219,
    "\u2581s\u00ea": 5220,
    "\u2581Again": 5221,
    "\u2581Andrew": 5222,
    "\u2581Down": 5223,
    "\u2581State": 5224,
    "\u2581neighbor": 5225,
    "\u2581\u0111\u00e1o": 5226,
    "\u2581b\u0103": 5227,
    "\u2581pregnant": 5228,
    "\u2581L\u00e3nh": 5229,
    "\u2581Us": 5230,
    "my": 5231,
    "\u2581Johnny": 5232,
    "\u2581appears": 5233,
    "\u2581grab": 5234,
    "\u2581x\u00e9": 5235,
    "\u2581Church": 5236,
    "\u2581dealing": 5237,
    "\u2581teeth": 5238,
    "\u2581crying": 5239,
    "op": 5240,
    "\u2581asleep": 5241,
    "\u2581discipline": 5242,
    "\u2581fan": 5243,
    "\u2581ph\u00f4": 5244,
    "\u2581Yep": 5245,
    "\u2581secure": 5246,
    "ze": 5247,
    "\u2581Ki\u1ec3u": 5248,
    "\u2581crew": 5249,
    "\u2581n\u00ea": 5250,
    "\u2581pin": 5251,
    "\u2581leading": 5252,
    "\u2581seeking": 5253,
    "\u2581lam": 5254,
    "\u2581planning": 5255,
    "\u2581vang": 5256,
    "gi": 5257,
    "\u2581creatures": 5258,
    "vo": 5259,
    "\u2581Box": 5260,
    "\u2581Shall": 5261,
    "\u2581emotional": 5262,
    "\u2581x\u1ea1": 5263,
    "My": 5264,
    "\u2581screen": 5265,
    "\u2581\u01af\u1edbc": 5266,
    "ut": 5267,
    "\u2581g\u1eady": 5268,
    "\u2581prefer": 5269,
    "\u2581U\u1ed1ng": 5270,
    "\u2581faces": 5271,
    "\u2581grateful": 5272,
    "\u2581stayed": 5273,
    "\u2581Doug": 5274,
    "\u2581Ro": 5275,
    "\u2581medicine": 5276,
    "\u2581towards": 5277,
    "\u2581statement": 5278,
    "\u2581s\u1eafm": 5279,
    "\u2581Morgan": 5280,
    "\u2581prevent": 5281,
    "\u2581x\u00edch": 5282,
    "\u2581M\u00e0u": 5283,
    "\u2581cute": 5284,
    "\u2581n\u00e3y": 5285,
    "\u2581recent": 5286,
    "\u2581ruin": 5287,
    "\u2581Colonel": 5288,
    "\u2581School": 5289,
    "\u2581ark": 5290,
    "\u2581b\u1ea3": 5291,
    "\u2581trials": 5292,
    "\u2581youth": 5293,
    "\u2581Mama": 5294,
    "\u2581Nevertheless": 5295,
    "\u2581offerings": 5296,
    "\u2581Texas": 5297,
    "\u2581Xa": 5298,
    "\u2581\u0111inh": 5299,
    "\u2581dedicated": 5300,
    "\u2581root": 5301,
    "\u2581shooting": 5302,
    "\u2581th\u01a1m": 5303,
    "\u2581Besides": 5304,
    "\u2581Hank": 5305,
    "\u2581strengthen": 5306,
    "\u2581park": 5307,
    "\u2581teachers": 5308,
    "\u2581Lu\u00f4n": 5309,
    "\u2581Forget": 5310,
    "\u2581gotten": 5311,
    "\u2581Lady": 5312,
    "\u2581L\u00e3o": 5313,
    "Nh\u1eefng": 5314,
    "\u2581\u00c2m": 5315,
    "8": 5316,
    "ver": 5317,
    "\u2581Wall": 5318,
    "\u2581glass": 5319,
    "\u2581wide": 5320,
    "\u2581signal": 5321,
    "\u2581practical": 5322,
    "\u2581saving": 5323,
    "\u2581wondering": 5324,
    "\u2581Bruce": 5325,
    "\u2581kh\u00e1i": 5326,
    "\u2581leader": 5327,
    "\u2581lift": 5328,
    "\u2581unique": 5329,
    "\u2581Bi\u1ebfn": 5330,
    "\u2581express": 5331,
    "\u258124.": 5332,
    "\u2581darling": 5333,
    "\u2581m\u1ecf": 5334,
    "\u2581th\u1ecbnh": 5335,
    "\u2581wrath": 5336,
    "#243;": 5337,
    "\u2581C\u1eeda": 5338,
    "\u2581suggest": 5339,
    "\u2581Russian": 5340,
    "\u2581although": 5341,
    "\u2581asshole": 5342,
    "\u2581ch\u0103": 5343,
    "\u2581perform": 5344,
    "\u2581psalmist": 5345,
    "ai": 5346,
    "\u2581Chi\u1ebfc": 5347,
    "\u2581bow": 5348,
    "\u2581provides": 5349,
    "\u2581younger": 5350,
    "\u2581t\u00ea": 5351,
    "\u2581Unless": 5352,
    "\u2581warned": 5353,
    "\u2581England": 5354,
    "\u2581Victor": 5355,
    "\u2581distance": 5356,
    "\u2581foreign": 5357,
    "H\u1ee1i": 5358,
    "pa": 5359,
    "\u2581forced": 5360,
    "\u2581h\u00e3m": 5361,
    "\u2581paying": 5362,
    "\u2581Ed": 5363,
    "\u2581Ka": 5364,
    "\u2581Ph\u01b0\u01a1ng": 5365,
    "\u2581Until": 5366,
    "\u2581Amen": 5367,
    "\u2581Finally": 5368,
    "\u2581guide": 5369,
    "\u2581\u0111\u00e9o": 5370,
    "\u2581existence": 5371,
    "\u2581Benjamin": 5372,
    "\u2581Chuy\u1ec3n": 5373,
    "\u2581benefits": 5374,
    "\u2581goodness": 5375,
    "\u2581g\u00f5": 5376,
    "\u2581pulled": 5377,
    "\u2581bother": 5378,
    "\u2581burning": 5379,
    "\u2581Mac": 5380,
    "\u2581enjoyed": 5381,
    "\u2581IT": 5382,
    "\u2581ng\u1ee5": 5383,
    "\u2581n\u01b0\u1edbng": 5384,
    "\u2581ti\u1ec7m": 5385,
    "\u2581theory": 5386,
    "\u2581tribulation": 5387,
    "huh": 5388,
    "\u2581K\u00ea": 5389,
    "\u2581loud": 5390,
    "\u2581valuable": 5391,
    "\u2581Y\u00eau": 5392,
    "\u2581beloved": 5393,
    "\u2581threat": 5394,
    "\u2581wash": 5395,
    "\u2581qu\u0103ng": 5396,
    "\u2581Gilead": 5397,
    "\u2581b\u00e9o": 5398,
    "\u2581b\u1ed9t": 5399,
    "\u2581population": 5400,
    "\u2581th\u1ec9nh": 5401,
    "\u2581>": 5402,
    "\u2581Credit": 5403,
    "\u2581Gh\u00ea": 5404,
    "\u2581lower": 5405,
    "\u2581accounts": 5406,
    "\u2581cu\u1ed3ng": 5407,
    "\u2581lied": 5408,
    "\u2581object": 5409,
    "\u2581remind": 5410,
    "\u2581th\u00e2u": 5411,
    "\u2581trained": 5412,
    "gu": 5413,
    "l\u00ea": 5414,
    "\u2581Close": 5415,
    "\u2581sacrifices": 5416,
    "\u2581trick": 5417,
    "\u2581assume": 5418,
    "\u2581roll": 5419,
    "\u2581successful": 5420,
    "\u2581convinced": 5421,
    "\u2581healthy": 5422,
    "\u2581commandments": 5423,
    "i\u1ec1m": 5424,
    "our": 5425,
    "\u2581Probably": 5426,
    "\u2581Whoo": 5427,
    "\u2581loyalty": 5428,
    "\u2581CIA": 5429,
    "\u2581En": 5430,
    "\u2581forgotten": 5431,
    "\u2581gifts": 5432,
    "\u2581lips": 5433,
    "\u2581l\u00f9i": 5434,
    "tha": 5435,
    "\u2581Edward": 5436,
    "\u2581Ng\u00f4i": 5437,
    "\u2581appeared": 5438,
    "\u2581pride": 5439,
    "\u2581th\u1ed5": 5440,
    "\u2581\u1eeam": 5441,
    "\u2581designed": 5442,
    "\u2581d\u1ecbu": 5443,
    "Christ": 5444,
    "\u2581D\u01b0\u01a1ng": 5445,
    "\u2581compassion": 5446,
    "\u2581driver": 5447,
    "\u2581knife": 5448,
    "\u2581particularly": 5449,
    "\u2581teachings": 5450,
    "\u2581v\u1ea3i": 5451,
    "\u2581V\u0103n": 5452,
    "\u2581agreed": 5453,
    "\u2581\u0111\u1ea5m": 5454,
    "\u2581Leo": 5455,
    "\u2581noise": 5456,
    "\u2581Doesn": 5457,
    "\u2581D\u01b0\u1edbi": 5458,
    "\u2581cars": 5459,
    "\u2581Van": 5460,
    "\u2581ong": 5461,
    "\u2581requires": 5462,
    "\u2581sending": 5463,
    "\u2581hadn": 5464,
    "\u2581iron": 5465,
    "\u2581reported": 5466,
    "\u2581Kh\u1ec9": 5467,
    "\u2581l\u00e1nh": 5468,
    "\u2581version": 5469,
    "way": 5470,
    "\u2581stones": 5471,
    "\u2581Being": 5472,
    "\u2581Ch\u01a1i": 5473,
    "\u2581d\u00e3": 5474,
    "\u2581starts": 5475,
    "\u2581c\u1ed1t": 5476,
    "\u2581household": 5477,
    "\u2581staff": 5478,
    "\u2581Levites": 5479,
    "\u2581n\u1ea5y": 5480,
    "\u2581sharing": 5481,
    "30": 5482,
    "\u2581online": 5483,
    "\u2581\u1ed1m": 5484,
    "\u2581desires": 5485,
    "den": 5486,
    "\u2581Others": 5487,
    "\u2581signs": 5488,
    "\u2581Comment": 5489,
    "\u2581Ph\u1ee5c": 5490,
    "\u2581nh\u00e1t": 5491,
    "\u2581useful": 5492,
    "\u2581Marty": 5493,
    "\u2581Ng\u1ee7": 5494,
    "\u2581R\u1eb1ng": 5495,
    "\u2581fucked": 5496,
    "\u2581cried": 5497,
    "\u2581keys": 5498,
    "\u2581national": 5499,
    "\u2581r\u0169": 5500,
    "\u2581afford": 5501,
    "\u2581grave": 5502,
    "\u2581homes": 5503,
    "\u2581s\u1ec9": 5504,
    "c\u00e1i": 5505,
    "\u2581b\u1ed3i": 5506,
    "\u2581curse": 5507,
    "\u2581g\u1ea5u": 5508,
    "\u2581convention": 5509,
    "\u2581vong": 5510,
    "\u2581awesome": 5511,
    "\u2581soldier": 5512,
    "\u2581values": 5513,
    "ak": 5514,
    "\u2581Easy": 5515,
    "\u2581voi": 5516,
    "\u2581Always": 5517,
    "\u2581pattern": 5518,
    "\u2581Cor": 5519,
    "\u2581manh": 5520,
    "Why": 5521,
    "ey": 5522,
    "j": 5523,
    "\u2581nervous": 5524,
    "c\u00e1c": 5525,
    "\u2581Messiah": 5526,
    "\u0111\u1eddi": 5527,
    "\u2581Nguy\u00ean": 5528,
    "\u2581dirty": 5529,
    "\u2581storm": 5530,
    "\u2581eternal": 5531,
    "\u2581ne": 5532,
    "\u2581workers": 5533,
    "ana": 5534,
    "\u2581Ph\u1ee5": 5535,
    "\u2581guidance": 5536,
    "\u2581letting": 5537,
    "\u2581lights": 5538,
    "\u2581bones": 5539,
    "ence": 5540,
    "\u2581Christendom": 5541,
    "\u2581Compare": 5542,
    "\u2581tri\u1ebft": 5543,
    "\u2581Exactly": 5544,
    "\u2581Thi\u1ebfu": 5545,
    "\u2581beg": 5546,
    "\u2581cu\u1ed9n": 5547,
    "\u2581female": 5548,
    "che": 5549,
    "\u2581declared": 5550,
    "\u2581g\u1ed1i": 5551,
    "\u2581task": 5552,
    "\u2581Ngh\u0129": 5553,
    "\u2581heo": 5554,
    "\u2581joined": 5555,
    "\u2581carrying": 5556,
    "\u2581fate": 5557,
    "\u2581t\u1ecb": 5558,
    "\u258148": 5559,
    "\u2581k\u00e8m": 5560,
    "sen": 5561,
    "\u2581uses": 5562,
    "\u2581host": 5563,
    "\u2581literally": 5564,
    "\u2581regularly": 5565,
    "\u2581leads": 5566,
    "ram": 5567,
    "\u258125.": 5568,
    "\u2581Aren": 5569,
    "\u2581Louis": 5570,
    "\u2581h\u00f2m": 5571,
    "\u2581observe": 5572,
    "hu": 5573,
    "\u2581Save": 5574,
    "\u2581west": 5575,
    "id": 5576,
    "\u2581qu\u00e9t": 5577,
    "\u2581studies": 5578,
    "\u2581Ryan": 5579,
    "\u2581khoe": 5580,
    "\u2581tears": 5581,
    "\u2581\u00e1t": 5582,
    "\u2581Andy": 5583,
    "\u2581T\u00f2a": 5584,
    "\u2581Phil": 5585,
    "\u2581bridge": 5586,
    "ard": 5587,
    "\u2581b\u1ebb": 5588,
    "\u2581ch\u00e9n": 5589,
    "\u2581g\u1ecdn": 5590,
    "\u2581ru\u1ed9ng": 5591,
    "\u2581t\u1edfm": 5592,
    "\u2581H\u1ed3ng": 5593,
    "\u2581Ms": 5594,
    "\u2581d\u1ea5y": 5595,
    "\u2581Brazil": 5596,
    "\u2581shop": 5597,
    "\u2581Caesar": 5598,
    "\u2581desert": 5599,
    "\u2581t\u00f2": 5600,
    "\u2581snow": 5601,
    "\u2581s\u00f3i": 5602,
    "c\u00f4": 5603,
    "\u01b0\u1edbc": 5604,
    "\u2581Mong": 5605,
    "\u2581h\u00f4i": 5606,
    "day": 5607,
    "\u2581comfortable": 5608,
    "\u2581fourth": 5609,
    "\u2581reign": 5610,
    "\u2581tr\u01a1": 5611,
    "\u2581Second": 5612,
    "\u2581crap": 5613,
    "\u2581m\u1ecfng": 5614,
    "\u2581property": 5615,
    "\u2581tape": 5616,
    "bye": 5617,
    "\u2581Green": 5618,
    "\u2581manager": 5619,
    "\u2581treasure": 5620,
    "\u2581Rick": 5621,
    "\u2581block": 5622,
    "\u2581capable": 5623,
    "\u2581d\u1eaby": 5624,
    "\u2581Gideon": 5625,
    "\u2581importance": 5626,
    "\u2581r\u00e2": 5627,
    "ass": 5628,
    "\u2581Pull": 5629,
    "\u2581selected": 5630,
    "\u2581forest": 5631,
    "\u2581plenty": 5632,
    "\u2581solve": 5633,
    "\u2581Lo\u1ea1i": 5634,
    "\u2581b\u00f3p": 5635,
    "\u2581skills": 5636,
    "\u2581smile": 5637,
    "\u2581Thou": 5638,
    "\u2581apologize": 5639,
    "\u2581T\u01b0\u1edfng": 5640,
    "\u2581assigned": 5641,
    "\u2581ch\u1ee3": 5642,
    "\u2581devotion": 5643,
    "\u2581bullshit": 5644,
    "\u2581encourage": 5645,
    "\u2581literature": 5646,
    "\u2581package": 5647,
    "\u2581quy\u1ebfn": 5648,
    "\u2581removed": 5649,
    "\u2581L\u00f9i": 5650,
    "\u2581Other": 5651,
    "\u2581Star": 5652,
    "\u2581biggest": 5653,
    "\u2581milk": 5654,
    "\u2581pleased": 5655,
    "\u2581ro": 5656,
    "\u2581Doc": 5657,
    "\u2581Ruth": 5658,
    "\u2581alright": 5659,
    "\u2581ng\u1eafm": 5660,
    "Z": 5661,
    "\u2581dogs": 5662,
    "\u2581hi\u1ec1n": 5663,
    "\u2581moves": 5664,
    "\u2581souls": 5665,
    "\u2581tabernacle": 5666,
    "\u2581tr\u01b0\u01a1": 5667,
    "\u258118,": 5668,
    "\u25812000": 5669,
    "\u2581highly": 5670,
    "\u2581l\u00edp": 5671,
    "\u2581Sun": 5672,
    "\u2581function": 5673,
    "\u2581ngh\u00ecn": 5674,
    "There": 5675,
    "\u2581Los": 5676,
    "\u2581shape": 5677,
    "\u2581\u0110\u00f4": 5678,
    "\u2581despite": 5679,
    "\u2581refused": 5680,
    "tu": 5681,
    "\u2581ill": 5682,
    "\u2581l\u01b0\u1ee3c": 5683,
    "\u2581n\u1eafng": 5684,
    "\u2581\u0110\u1eb9p": 5685,
    "\u2581changing": 5686,
    "\u2581dropped": 5687,
    "\u2581solution": 5688,
    "\u2581unclean": 5689,
    "ff": 5690,
    "\u2581Boy": 5691,
    "\u2581Prince": 5692,
    "\u2581S\u00f4": 5693,
    "\u2581laugh": 5694,
    "\u2581persons": 5695,
    "g\u00e1i": 5696,
    "org": 5697,
    "than": 5698,
    "\u2581Must": 5699,
    "\u2581bottle": 5700,
    "\u2581audience": 5701,
    "\u2581murdered": 5702,
    "And": 5703,
    "\u2581Clear": 5704,
    "\u2581awake": 5705,
    "\u2581kh\u00f3i": 5706,
    "\u2581exact": 5707,
    "\u2581somehow": 5708,
    "\u2581touched": 5709,
    "\u2581trinh": 5710,
    "\u2581Finch": 5711,
    "\u2581T\u00ednh": 5712,
    "\u2581bloody": 5713,
    "ang": 5714,
    "\u2581commit": 5715,
    "\u2581device": 5716,
    "color": 5717,
    "\u2581Xu\u1ea5t": 5718,
    "\u2581ng\u1ecdc": 5719,
    "\u2581opinion": 5720,
    "\u2581Jean": 5721,
    "\u2581Per": 5722,
    "\u2581n\u00e0i": 5723,
    "\u2581princes": 5724,
    "\u2581Japan": 5725,
    "\u2581pal": 5726,
    "\u2581suicide": 5727,
    "th\u1ec3": 5728,
    "\u2581monster": 5729,
    "Yeah": 5730,
    "\u2581length": 5731,
    "\u2581Things": 5732,
    "\u2581prince": 5733,
    "\u2581dies": 5734,
    "\u2581sand": 5735,
    "\u2581ti\u00eam": 5736,
    "Yes": 5737,
    "ee": 5738,
    "\u2581H\u1ec7": 5739,
    "\u2581Times": 5740,
    "\u2581\u0111\u1ea3ng": 5741,
    "ship": 5742,
    "\u2581S\u1eafp": 5743,
    "\u2581b\u1ecfng": 5744,
    "\u2581potential": 5745,
    "\u2581range": 5746,
    "\u2581Lincoln": 5747,
    "\u2581loose": 5748,
    "\u2581m\u00e2": 5749,
    "\u2581tr\u00f3i": 5750,
    "\u2581witnesses": 5751,
    "\u2581400": 5752,
    "\u2581D\u1ea7u": 5753,
    "\u2581b\u1ed1c": 5754,
    "\u2581r\u00e3i": 5755,
    "\u2581tiny": 5756,
    "but": 5757,
    "\u2581Qu\u00fd": 5758,
    "\u2581kho\u00e1i": 5759,
    "\u2581ng\u1eadp": 5760,
    "lan": 5761,
    "\u2581fired": 5762,
    "\u2581r\u1ebb": 5763,
    "\u2581th\u1eaft": 5764,
    "mer": 5765,
    "\u2581belongs": 5766,
    "\u2581contrast": 5767,
    "\u2581fallen": 5768,
    "\u2581stronger": 5769,
    "\u2581systems": 5770,
    "\u2581Gordon": 5771,
    "\u2581d\u1edf": 5772,
    "\u2581tr\u1ed9n": 5773,
    "n\u00ean": 5774,
    "\u2581L\u1ed1i": 5775,
    "\u2581t\u00e2n": 5776,
    "RANG": 5777,
    "ren": 5778,
    "\u2581H\u1eb9n": 5779,
    "\u2581Pa": 5780,
    "\u2581TED": 5781,
    "\u2581Jones": 5782,
    "\u2581breaking": 5783,
    "\u2581multitude": 5784,
    "\u2581principle": 5785,
    "\u2581Cat": 5786,
    "\u2581Paradise": 5787,
    "\u2581invite": 5788,
    "Ng\u00e0i": 5789,
    "\u2581Tu\u1ea7n": 5790,
    "oh": 5791,
    "\u2581nh": 5792,
    "\u2581nhi\u00ea": 5793,
    "All": 5794,
    "\u2581Qu\u00ean": 5795,
    "\u2581n\u1ea1p": 5796,
    "ov": 5797,
    "\u2581Ch\u01b0\u01a1ng": 5798,
    "\u2581Congratulations": 5799,
    "\u2581Six": 5800,
    "\u2581TCN": 5801,
    "\u2581consequences": 5802,
    "\u2581c\u01b0\u1ee1ng": 5803,
    "\u2581exists": 5804,
    "\u2581\u0110i\u1ec7n": 5805,
    "\u2581Talk": 5806,
    "\u2581jobs": 5807,
    "\u2581encouraged": 5808,
    "\u2581hat": 5809,
    "\u2581reasonable": 5810,
    "\u2581growth": 5811,
    "\u2581nh\u1ea1y": 5812,
    "\u2581Imagine": 5813,
    "\u2581Ken": 5814,
    "\u2581emergency": 5815,
    "\u2581gi\u1eadt": 5816,
    "\u2581international": 5817,
    "\u2581wealth": 5818,
    "RE": 5819,
    "ac": 5820,
    "\u2581Santa": 5821,
    "\u2581Walt": 5822,
    "\u2581violent": 5823,
    "50": 5824,
    "\u2581breathe": 5825,
    "\u2581c\u00f4n": 5826,
    "\u2581ho\u00e0i": 5827,
    "\u2581winter": 5828,
    "ED": 5829,
    "\u2581Enough": 5830,
    "\u2581mistakes": 5831,
    "ban": 5832,
    "\u2581Ph\u00fac": 5833,
    "\u2581c\u1ed1p": 5834,
    "\u2581kh\u1edbp": 5835,
    "\u2581Beth": 5836,
    "\u2581chu\u1ed7i": 5837,
    "\u2581effective": 5838,
    "\u2581speaks": 5839,
    "\u2581style": 5840,
    "\u2581Germany": 5841,
    "\u2581V\u0169": 5842,
    "\u2581arrangement": 5843,
    "wa": 5844,
    "\u2581invitation": 5845,
    "\u2581Philistines": 5846,
    "\u2581visited": 5847,
    "\u00ea": 5848,
    "\u2581appearance": 5849,
    "\u2581hardly": 5850,
    "\u2581surgery": 5851,
    "\u2581\u0111\u00f2n": 5852,
    "\u25812004.": 5853,
    "\u2581kh\u00f9ng": 5854,
    "\u2581H\u1ea3i": 5855,
    "\u2581T\u00f9y": 5856,
    "\u2581cook": 5857,
    "\u2581Harold": 5858,
    "zi": 5859,
    "\u2581H\u00e0n": 5860,
    "ng\u00e0y": 5861,
    "\u2581greatly": 5862,
    "\u2581n\u1ee5": 5863,
    "\u2581th\u1ed1i": 5864,
    "\u2581M\u1ea1ng": 5865,
    "\u2581culture": 5866,
    "\u2581m\u1ee5": 5867,
    "\u2581placed": 5868,
    "\u2581Katie": 5869,
    "\u2581ch\u1ed1t": 5870,
    "\u2581perfectly": 5871,
    "\u2581relax": 5872,
    "\u2581th\u00e1o": 5873,
    "\u2581t\u1ea9y": 5874,
    "\u2581Absolutely": 5875,
    "\u2581bullet": 5876,
    "\u2581bu\u00f4ng": 5877,
    "\u2581criminal": 5878,
    "\u2581L\u0169": 5879,
    "\u2581b\u00e1": 5880,
    "\u2581ch\u00e2m": 5881,
    "\u2581edge": 5882,
    "\u2581missionary": 5883,
    "\u2581tro": 5884,
    "bar": 5885,
    "\u2581150": 5886,
    "\u2581Sherlock": 5887,
    "\u2581T\u1ec9nh": 5888,
    "\u2581d\u1ea1": 5889,
    "\u2581excited": 5890,
    "\u2581Jonathan": 5891,
    "\u2581causes": 5892,
    "\u2581complicated": 5893,
    "\u2581standard": 5894,
    "\u2581spake": 5895,
    "<": 5896,
    "jo": 5897,
    "\u2581gates": 5898,
    "\u2581Gu": 5899,
    "\u2581b\u00e1t": 5900,
    "\u2581cure": 5901,
    "\u2581otherwise": 5902,
    "\u2581records": 5903,
    "\u2581ao": 5904,
    "s\u00ea": 5905,
    "\u2581Emma": 5906,
    "\u2581Th\u01b0\u1eddng": 5907,
    "pi": 5908,
    "\u2581Jackson": 5909,
    "\u2581pack": 5910,
    "\u2581treated": 5911,
    "For": 5912,
    "\u0111\u1ed3": 5913,
    "\u2581Follow": 5914,
    "\u2581ate": 5915,
    "\u2581average": 5916,
    "\u2581c\u1eebu": 5917,
    "\u2581failure": 5918,
    "ier": 5919,
    "ria": 5920,
    "\u2581h\u00e1i": 5921,
    "ring": 5922,
    "\u2581\u0111o\u1ea1t": 5923,
    "\u2581Truy\u1ec1n": 5924,
    "\u2581Tr\u1edf": 5925,
    "\u2581ocean": 5926,
    "\u2581r\u00e0o": 5927,
    "\u2581worthy": 5928,
    "\u2581x\u01a1": 5929,
    "\u2581heading": 5930,
    "\u2581incredible": 5931,
    "\u2581M\u00e1c": 5932,
    "\u2581communication": 5933,
    "\u2581ki\u1ec7m": 5934,
    "Go": 5935,
    "\u2581Pro": 5936,
    "\u2581remained": 5937,
    "\u2581\u00e1i": 5938,
    "\u2581Ephesians": 5939,
    "\u2581Khung": 5940,
    "\u2581bathroom": 5941,
    "\u2581faced": 5942,
    "\u2581n\u00e0n": 5943,
    "\u2581ordered": 5944,
    "\u258123:": 5945,
    "\u2581Cut": 5946,
    "\u2581cards": 5947,
    "\u2581character": 5948,
    "\u2581examine": 5949,
    "\u258142": 5950,
    "\u2581Ch\u1ea3": 5951,
    "\u2581Family": 5952,
    "\u2581balance": 5953,
    "\u2581ng\u1eabu": 5954,
    "\u2581released": 5955,
    "\u2581r\u00e8n": 5956,
    "\u2581Ward": 5957,
    "\u2581kitchen": 5958,
    "\u2581mass": 5959,
    "\u2581\u1ed3n": 5960,
    "M\u1ed9t": 5961,
    "\u2581c\u1ea1n": 5962,
    "\u2581Land": 5963,
    "\u2581M\u01b0\u1eddi": 5964,
    "\u2581Surely": 5965,
    "\u2581dick": 5966,
    "\u2581th\u00e0": 5967,
    "\u2581tent": 5968,
    "\u2581Clearly": 5969,
    "\u2581Jason": 5970,
    "\u2581Tu": 5971,
    "\u2581d\u1ea1n": 5972,
    "\u2581scale": 5973,
    "\u2581season": 5974,
    "\u2581\u0110\u1ea1o": 5975,
    "\u2581ph\u00fa": 5976,
    "\u2581\u0111\u00e0": 5977,
    "espite": 5978,
    "ti\u1ebfng": 5979,
    "\u2581network": 5980,
    "\u2581taxi": 5981,
    "ator": 5982,
    "\u2581Ngo\u1ea1i": 5983,
    "sao": 5984,
    "\u2581Chicago": 5985,
    "\u2581Han": 5986,
    "\u2581L\u1edbn": 5987,
    "\u2581nowhere": 5988,
    "\u2581regret": 5989,
    "\u2581tia": 5990,
    "\u2581Mai": 5991,
    "\u2581background": 5992,
    "\u2581th\u1ea7m": 5993,
    "\u2581weather": 5994,
    "S\u1ef1": 5995,
    "\u2581client": 5996,
    "\u2581possess": 5997,
    "\u2581ram": 5998,
    "\u2581shepherd": 5999,
    "\u2581tuy": 6000,
    "v\u00ec": 6001,
    "\u2581Th\u1ee7": 6002,
    "\u2581T\u00e0i": 6003,
    "\u2581nh\u1ecbp": 6004,
    "\u2581Know": 6005,
    "\u2581\u0111oan": 6006,
    "\u2581Bi": 6007,
    "That": 6008,
    "\u2581kem": 6009,
    "\u2581stress": 6010,
    "\u2581tool": 6011,
    "com": 6012,
    "\u2581British": 6013,
    "\u2581K\u00e9o": 6014,
    "\u2581headed": 6015,
    "\u2581popular": 6016,
    "\u2581whoever": 6017,
    "ji": 6018,
    "\u2581Sunday": 6019,
    "\u2581permission": 6020,
    "\u2581\u0110\u00f3ng": 6021,
    "not": 6022,
    "\u2581chicken": 6023,
    "\u2581suspect": 6024,
    "\u2581devil": 6025,
    "\u2581sought": 6026,
    "\u2581unity": 6027,
    "ch\u00fang": 6028,
    "\u258138": 6029,
    "\u2581Martha": 6030,
    "\u2581Sha": 6031,
    "\u2581demons": 6032,
    "\u2581Ti\u00ean": 6033,
    "\u2581ve": 6034,
    "\u2581Book": 6035,
    "\u2581brethren": 6036,
    "\u2581freak": 6037,
    "\u2581D\u1ecbch": 6038,
    "\u2581beer": 6039,
    "\u2581\u1eeb": 6040,
    "\u2581al": 6041,
    "\u2581cu\u00f4": 6042,
    "\u2581upstairs": 6043,
    "\u2581persecution": 6044,
    "\u2581photo": 6045,
    "\u2581reflect": 6046,
    "\u2581Hi\u1ec3": 6047,
    "\u00e1c": 6048,
    "\u2581C\u1ea7m": 6049,
    "\u2581authorities": 6050,
    "\u2581Except": 6051,
    "\u2581genuine": 6052,
    "\u2581hanging": 6053,
    "\u2581ph\u00e1o": 6054,
    "\u2581Cu\u1ed1n": 6055,
    "\u2581River": 6056,
    "led": 6057,
    "\u2581Way": 6058,
    "\u2581cay": 6059,
    "\u2581effects": 6060,
    "10": 6061,
    "ites": 6062,
    "\u2581Add": 6063,
    "\u2581ch\u00e1nh": 6064,
    "\u2581ch\u1ee5c": 6065,
    "ping": 6066,
    "\u2581Seriously": 6067,
    "\u2581Tha": 6068,
    "\u2581drawn": 6069,
    "\u2581Aye": 6070,
    "\u2581Footnote": 6071,
    "\u2581stranger": 6072,
    "When": 6073,
    "ium": 6074,
    "\u2581Yu": 6075,
    "\u2581balls": 6076,
    "\u2581campaign": 6077,
    "\u2581obvious": 6078,
    "\u2581threw": 6079,
    "m\u00ea": 6080,
    "\u2581Bad": 6081,
    "\u2581delight": 6082,
    "\u2581financial": 6083,
    "\u2581ruler": 6084,
    "\u2581square": 6085,
    "io": 6086,
    "\u2581Drop": 6087,
    "lia": 6088,
    "\u2581labor": 6089,
    "\u2581\u0111\u01b0": 6090,
    "\u2581\u0111\u1ed1": 6091,
    "nia": 6092,
    "\u2581Yi": 6093,
    "\u2581capital": 6094,
    "\u2581conclusion": 6095,
    "\u2581h\u0103": 6096,
    "\u2581lau": 6097,
    "end": 6098,
    "\u2581Light": 6099,
    "\u2581email": 6100,
    "\u2581l\u00e2m": 6101,
    "\u2581doctors": 6102,
    "\u2581nuclear": 6103,
    "\u2581Ch\u1ed3ng": 6104,
    "\u2581limited": 6105,
    "#225;": 6106,
    "\u2581Death": 6107,
    "\u2581File": 6108,
    "\u2581l\u1ea1m": 6109,
    "ch\u00e1u": 6110,
    "\u2581IS": 6111,
    "\u2581Neither": 6112,
    "\u2581Th\u00e1ng": 6113,
    "\u2581excellent": 6114,
    "\u2581imperfect": 6115,
    "\u2581series": 6116,
    "tra": 6117,
    "\u2581Gi\u00e1m": 6118,
    "\u2581Miller": 6119,
    "\u2581arrested": 6120,
    "\u2581cloud": 6121,
    "\u2581gi\u1eb7t": 6122,
    "\u2581k\u1eb9o": 6123,
    "\u2581reveal": 6124,
    "\u2581r\u01b0\u1ee1i": 6125,
    "han": 6126,
    "\u2581shared": 6127,
    "\u2581territory": 6128,
    "\u2581\u0111\u00e1y": 6129,
    "ph": 6130,
    "\u2581Goodbye": 6131,
    "\u2581Hong": 6132,
    "\u2581Chuck": 6133,
    "\u2581\u0111\u1ea7n": 6134,
    "\u2581Far": 6135,
    "\u2581harder": 6136,
    "Who": 6137,
    "\u2581Elizabeth": 6138,
    "\u2581Gary": 6139,
    "\u2581Papa": 6140,
    "\u2581l\u1ea7u": 6141,
    "\u2581san": 6142,
    "tan": 6143,
    "\u2581Th\u1ee9c": 6144,
    "\u2581naked": 6145,
    "can": 6146,
    "\u2581Step": 6147,
    "\u2581pursue": 6148,
    "\u2581ngo\u00e1i": 6149,
    "har": 6150,
    "\u2581Carter": 6151,
    "\u2581dressed": 6152,
    "\u2581n\u1ea1": 6153,
    "\u2581opposite": 6154,
    "\u2581Send": 6155,
    "\u2581assure": 6156,
    "ph\u1ee5": 6157,
    "\u2581chu\u00f4ng": 6158,
    "\u2581nh\u00e0ng": 6159,
    "\u2581\u0111\u1eaft": 6160,
    "let": 6161,
    "\u2581complex": 6162,
    "\u2581ki\u1ec7t": 6163,
    "\u2581merely": 6164,
    "\u2581official": 6165,
    "ise": 6166,
    "m\u01b0\u01a1i": 6167,
    "\u2581included": 6168,
    "\u2581qu\u1ea5y": 6169,
    "\u2581C\u00e1": 6170,
    "\u2581Ja": 6171,
    "\u2581connected": 6172,
    "\u2581s\u01a1n": 6173,
    "\u2581t\u1ecda": 6174,
    "\u2581US": 6175,
    "\u2581n\u1ea3y": 6176,
    "\u2581relief": 6177,
    "ally": 6178,
    "\u2581Tomorrow": 6179,
    "\u2581divorce": 6180,
    "\u2581breakfast": 6181,
    "\u2581\u0111ai": 6182,
    "Em": 6183,
    "san": 6184,
    "\u2581Dead": 6185,
    "\u2581ph": 6186,
    "\u2581ph\u1ed5i": 6187,
    "\u2581Asia": 6188,
    "\u2581continues": 6189,
    "\u2581dumb": 6190,
    "\u258125:": 6191,
    "\u2581D\u1ef1": 6192,
    "\u2581Latin": 6193,
    "\u2581d\u1ed9i": 6194,
    "\u2581dedication": 6195,
    "\u2581facts": 6196,
    "s\u00e9p": 6197,
    "xi": 6198,
    "\u2581L\u01b0u": 6199,
    "\u2581expressed": 6200,
    "\u2581l\u1eadt": 6201,
    "\u2581l\u1edd": 6202,
    "\u2581rescue": 6203,
    "\u2581Japanese": 6204,
    "\u2581Marcus": 6205,
    "\u2581S\u1ed1ng": 6206,
    "\u2581coast": 6207,
    "\u2581spring": 6208,
    "=": 6209,
    "\u2581Th\u1ed1ng": 6210,
    "\u2581remembered": 6211,
    "\u2581ridiculous": 6212,
    "\u2581r\u1ed7ng": 6213,
    "\u2581Sounds": 6214,
    "\u2581apparently": 6215,
    "\u2581ng\u1ea9n": 6216,
    "\u2581trusted": 6217,
    "\u2581M\u1eaft": 6218,
    "\u2581actual": 6219,
    "\u2581bro": 6220,
    "\u2581d\u00e0n": 6221,
    "\u2581exciting": 6222,
    "\u2581hello": 6223,
    "\u2581D\u01b0\u1eddng": 6224,
    "\u2581Nh\u1ea5t": 6225,
    "\u2581chair": 6226,
    "\u2581falling": 6227,
    "\u2581nh\u1ee9t": 6228,
    "\u2581notes": 6229,
    "\u2581Anyone": 6230,
    "\u2581bu\u00fdt": 6231,
    "\u2581confident": 6232,
    "\u2581c\u1edbm": 6233,
    "\u2581patience": 6234,
    "\u2581patients": 6235,
    "\u2581victory": 6236,
    "\u2581Chase": 6237,
    "\u2581Children": 6238,
    "\u2581Ezekiel": 6239,
    "\u2581Wayne": 6240,
    "\u2581Ye": 6241,
    "\u2581k\u00e8n": 6242,
    "v\u1ea7y": 6243,
    "\u2581creature": 6244,
    "\u2581overcome": 6245,
    "\u2581writer": 6246,
    "\u2581)": 6247,
    "\u2581ch\u1ea5n": 6248,
    "\u2581nh\u1ed1t": 6249,
    "\u2581Majesty": 6250,
    "\u2581Thu": 6251,
    "\u2581c\u1ed7": 6252,
    "\u2581harvest": 6253,
    "ger": 6254,
    "\u2581T\u1ea1": 6255,
    "\u2581Va": 6256,
    "\u2581nh\u1ecdc": 6257,
    "nay": 6258,
    "that": 6259,
    "\u2581Start": 6260,
    "\u2581g\u0169i": 6261,
    "\u2581Cisco": 6262,
    "\u2581Peace": 6263,
    "\u2581aid": 6264,
    "\u2581checked": 6265,
    "\u2581supply": 6266,
    "\u2581translation": 6267,
    "\u258165": 6268,
    "\u2581require": 6269,
    "\u2581\u0110": 6270,
    "b\u00f4": 6271,
    "\u2581bright": 6272,
    "\u2581experiences": 6273,
    "\u2581forms": 6274,
    "\u2581\u0111\u1eb3ng": 6275,
    "\u2581\u01b0\u01a1ng": 6276,
    "ach": 6277,
    "\u2581media": 6278,
    "\u2581\u00c9p": 6279,
    "\u2581ashamed": 6280,
    "\u2581describe": 6281,
    "\u2581eaten": 6282,
    "\u2581occurred": 6283,
    "\u2581vay": 6284,
    "\u2581babies": 6285,
    "\u2581k\u1ef5": 6286,
    "\u2581l\u1ea5p": 6287,
    "\u2581n\u00e9t": 6288,
    "\u2581twelve": 6289,
    "\u2581\u0110e": 6290,
    "\u2581\u0111\u01a1": 6291,
    "fi": 6292,
    "\u2581Answer": 6293,
    "\u2581desk": 6294,
    "\u2581exchange": 6295,
    "\u2581fled": 6296,
    "\u2581forgiveness": 6297,
    "\u2581split": 6298,
    "gan": 6299,
    "pro": 6300,
    "\u2581encouragement": 6301,
    "</": 6302,
    "\u00c0I": 6303,
    "\u2581duy\u1ec7t": 6304,
    "\u2581gang": 6305,
    "\u2581tests": 6306,
    "\u2581Quy\u1ec1n": 6307,
    "\u2581beliefs": 6308,
    "\u2581degrees": 6309,
    "\u2581nh\u1ea1o": 6310,
    "\u2581C\u00e2m": 6311,
    "\u2581assembly": 6312,
    "\u2581band": 6313,
    "\u2581b\u1ed5n": 6314,
    "ol": 6315,
    "\u2581Air": 6316,
    "\u2581Kong": 6317,
    "tor": 6318,
    "\u2581Blue": 6319,
    "\u2581Vincent": 6320,
    "\u2581kho\u00e1c": 6321,
    "\u2581wickedness": 6322,
    "\u2581Amanda": 6323,
    "\u2581Hand": 6324,
    "\u2581Mar": 6325,
    "\u2581hunt": 6326,
    "\u2581Nguy\u1ec7n": 6327,
    "\u2581daddy": 6328,
    "\u2581shadow": 6329,
    "\u2581sides": 6330,
    "\u2581watched": 6331,
    "Don": 6332,
    "\u2581Ever": 6333,
    "\u2581Similarly": 6334,
    "\u2581ghost": 6335,
    "\u2581movement": 6336,
    "\u2581m\u00f2n": 6337,
    "\u2581Ch\u00e0ng": 6338,
    "\u2581application": 6339,
    "\u2581l\u1ed9t": 6340,
    "\u2581\u0110\u1ee9a": 6341,
    "\u2581Mor": 6342,
    "\u2581bill": 6343,
    "\u2581hall": 6344,
    "\u2581improve": 6345,
    "\u2581remnant": 6346,
    "They": 6347,
    "\u2581Karen": 6348,
    "\u2581Pre": 6349,
    "\u2581Shoot": 6350,
    "\u2581Tyler": 6351,
    "\u2581economic": 6352,
    "\u2581flowers": 6353,
    "\u2581miracle": 6354,
    "\u2581thu\u1ea7n": 6355,
    "\u2581valley": 6356,
    "\u2581\u0111\u1eafp": 6357,
    "\u2581refuse": 6358,
    "\u2581Fucking": 6359,
    "\u2581M\u1ea5t": 6360,
    "\u2581l\u1ebb": 6361,
    "\u2581load": 6362,
    "\u2581Mommy": 6363,
    "\u2581Snow": 6364,
    "\u2581divided": 6365,
    "\u2581k\u00eanh": 6366,
    "\u2581l\u00f3t": 6367,
    "\u2581tr\u1eadt": 6368,
    "\u2581Art": 6369,
    "\u2581content": 6370,
    "\u2581slaves": 6371,
    "\u2581Smith": 6372,
    "\u2581minus": 6373,
    "\u2581pair": 6374,
    "Well": 6375,
    "\u2581Bar": 6376,
    "\u2581B\u00e1": 6377,
    "\u2581hi\u1ebfu": 6378,
    "\u2581riches": 6379,
    "\u2581tear": 6380,
    "\u2581friendship": 6381,
    "\u2581hurts": 6382,
    "#236;": 6383,
    "hai": 6384,
    "\u2581H\u1ee9a": 6385,
    "\u2581Q": 6386,
    "\u2581c\u01b0\u1ee3c": 6387,
    "\u2581c\u1eafm": 6388,
    "\u2581pen": 6389,
    "\u2581t\u1ef1a": 6390,
    "format": 6391,
    "\u2581Grand": 6392,
    "\u2581Nh\u1eadn": 6393,
    "\u2581Thea": 6394,
    "\u2581n\u1edf": 6395,
    "\u2581scientists": 6396,
    "\u258129.": 6397,
    "\u2581pants": 6398,
    "\u00e1t": 6399,
    "\u2581h\u1ee1i": 6400,
    "\u258143": 6401,
    "\u2581Phong": 6402,
    "\u2581attacked": 6403,
    "\u2581extremely": 6404,
    "\u2581impressed": 6405,
    "\u2581listened": 6406,
    "Ai": 6407,
    "\u2581ph\u00edm": 6408,
    "\u2581succeed": 6409,
    "\u2581Hitler": 6410,
    "\u2581nh\u1eadm": 6411,
    "\u2581relatives": 6412,
    "\u2581tr\u00e0o": 6413,
    "qui": 6414,
    "\u2581K\u00eca": 6415,
    "\u2581pa": 6416,
    "\u2581v\u00e1ch": 6417,
    "\u2581brave": 6418,
    "\u2581iniquity": 6419,
    "\u2581khe": 6420,
    "\u2581kh\u1eb3ng": 6421,
    "\u2581th\u1ea1ch": 6422,
    "\u2581v\u1ee9t": 6423,
    "ning": 6424,
    "\u2581Ar": 6425,
    "\u2581Bang": 6426,
    "\u2581burden": 6427,
    "\u2581inner": 6428,
    "\u2581pool": 6429,
    "\u25817]": 6430,
    "\u2581Jerry": 6431,
    "\u2581identity": 6432,
    "ius": 6433,
    "\u2581fields": 6434,
    "\u2581involves": 6435,
    "\u2581rose": 6436,
    "/>": 6437,
    "\u258155": 6438,
    "\u2581Having": 6439,
    "\u2581praying": 6440,
    "\u2581Victoria": 6441,
    "\u2581b\u1ea1ch": 6442,
    "\u2581commandment": 6443,
    "\u2581c\u01a1m": 6444,
    "\u2581Trang": 6445,
    "\u2581abandoned": 6446,
    "\u2581b\u1ed3": 6447,
    "\u2581insane": 6448,
    "\u2581khu\u1ea9n": 6449,
    "\u2581possession": 6450,
    "\u2581troubled": 6451,
    "\u2581Google": 6452,
    "\u2581awful": 6453,
    "\u2581folks": 6454,
    "\u2581passing": 6455,
    "\u2581C\u00e2y": 6456,
    "\u2581Spanish": 6457,
    "\u2581preached": 6458,
    "\u2581Marie": 6459,
    "\u2581Mc": 6460,
    "\u2581choices": 6461,
    "\u2581introduce": 6462,
    "\u2581toilet": 6463,
    "Trong": 6464,
    "ab": 6465,
    "n\u00e0o": 6466,
    "\u2581Brown": 6467,
    "\u2581memories": 6468,
    "\u2581m\u0103": 6469,
    "\u2581\u0111\u00edt": 6470,
    "\u2581Laurel": 6471,
    "\u2581h\u1ec5": 6472,
    "\u2581trap": 6473,
    "#7871;": 6474,
    "\u2581V\u01b0\u1ee3t": 6475,
    "izing": 6476,
    "\u2581Ph\u00e1t": 6477,
    "\u2581limit": 6478,
    "\u2581hired": 6479,
    "\u2581resurrected": 6480,
    "\u2581v\u1ed7": 6481,
    "\u2581windows": 6482,
    "\u2581T\u1ed9i": 6483,
    "au": 6484,
    "\u2581Central": 6485,
    "\u2581Ph\u00ea": 6486,
    "\u2581anti": 6487,
    "\u2581hated": 6488,
    "\u2581rung": 6489,
    "\u2581singing": 6490,
    "\u2581struggle": 6491,
    "nt": 6492,
    "\u2581Giao": 6493,
    "\u2581soft": 6494,
    "\u2581C\u1ef1c": 6495,
    "\u2581Th\u00e2": 6496,
    "\u2581crown": 6497,
    "\u2581escaped": 6498,
    "\u2581lion": 6499,
    "\u2581tr\u00f9m": 6500,
    "\u2581vote": 6501,
    "\u2581knock": 6502,
    "\u2581clock": 6503,
    "\u2581depends": 6504,
    "\u2581expensive": 6505,
    "\u2581finger": 6506,
    "\u2581wars": 6507,
    "mu": 6508,
    "\u258128.": 6509,
    "\u2581Hu": 6510,
    "\u2581Water": 6511,
    "\u2581guest": 6512,
    "\u2581sinned": 6513,
    "\u2581solid": 6514,
    "\u2581\u0110\u01a1n": 6515,
    "\u2581T\u1eed": 6516,
    "\u2581attempt": 6517,
    "\u2581emotions": 6518,
    "\u2581fingers": 6519,
    "\u2581jealous": 6520,
    "\u2581pleasant": 6521,
    "\u2581abuse": 6522,
    "\u2581b\u1ec3": 6523,
    "\u2581debt": 6524,
    "\u2581fake": 6525,
    "\u2581guards": 6526,
    "\u2581Police": 6527,
    "\u2581fixed": 6528,
    "\u2581schedule": 6529,
    "\u2581weekend": 6530,
    "hether": 6531,
    "ong": 6532,
    "\u2581CO": 6533,
    "\u2581kho\u00e1": 6534,
    "\u2581slept": 6535,
    "\u2581thi\u1ec3u": 6536,
    "\u2581\u0111i\u1ec1m": 6537,
    "\u2581l\u1ecfng": 6538,
    "\u2581manifest": 6539,
    "v\u1eadt": 6540,
    "\u2581Cool": 6541,
    "\u2581barely": 6542,
    "\u2581contains": 6543,
    "\u2581impact": 6544,
    "\u2581n\u1ec1": 6545,
    "\u2581B\u1eadt": 6546,
    "\u2581drew": 6547,
    "\u2581h\u1eb9p": 6548,
    "\u2581properly": 6549,
    "\u2581v\u1edf": 6550,
    "\u2581C\u00e2": 6551,
    "\u2581Jonah": 6552,
    "\u2581Khu": 6553,
    "\u2581Pretty": 6554,
    "\u2581allows": 6555,
    "\u2581resources": 6556,
    "\u2581wings": 6557,
    "law": 6558,
    "\u2581Castle": 6559,
    "\u2581Zion": 6560,
    "\u2581belief": 6561,
    "\u2581dig": 6562,
    "\u2581mu\u1ed9i": 6563,
    "\u2581traffic": 6564,
    "\u2581tr\u1eafc": 6565,
    "V\u00ec": 6566,
    "\u2581Ugh": 6567,
    "\u2581gen": 6568,
    "\u2581generations": 6569,
    "\u2581noted": 6570,
    "\u2581settle": 6571,
    "\u2581d\u1eddi": 6572,
    "\u2581gh\u00e9p": 6573,
    "\u2581h\u1ed1": 6574,
    "\u2581tribes": 6575,
    "\u2581t\u00fang": 6576,
    "\u2581Holmes": 6577,
    "\u2581affected": 6578,
    "\u2581declare": 6579,
    "\u2581observed": 6580,
    "\u2581b\u00fat": 6581,
    "\u2581ships": 6582,
    "\u2581su\u00fdt": 6583,
    "pos": 6584,
    "\u2581grass": 6585,
    "\u2581increased": 6586,
    "\u2581manage": 6587,
    "\u2581neighbors": 6588,
    "\u2581pizza": 6589,
    "\u2581secrets": 6590,
    "\u2581studied": 6591,
    "kin": 6592,
    "\u2581B\u1ebft": 6593,
    "\u2581B\u1ed1n": 6594,
    "\u2581bond": 6595,
    "\u2581chi\u00eam": 6596,
    "\u2581khoang": 6597,
    "\u2581lung": 6598,
    "\u2581l\u0103n": 6599,
    "\u2581Lisa": 6600,
    "\u2581R\u00ea": 6601,
    "\u2581document": 6602,
    "\u2581Fiona": 6603,
    "\u2581Pan": 6604,
    "\u2581S\u00e1u": 6605,
    "\u2581T\u00f4": 6606,
    "\u2581affection": 6607,
    "\u2581bite": 6608,
    "\u2581c\u1ee5t": 6609,
    "\u2581grain": 6610,
    "\u2581pretend": 6611,
    "\u2581shoulder": 6612,
    "\u2581v\u1ea5p": 6613,
    "\u2581x\u0103ng": 6614,
    "\u2581Je": 6615,
    "\u2581hill": 6616,
    "\u2581AND": 6617,
    "\u2581Bi\u1ec3n": 6618,
    "\u2581Cal": 6619,
    "\u2581Guess": 6620,
    "\u2581ID": 6621,
    "\u2581News": 6622,
    "\u2581Russell": 6623,
    "\u2581bone": 6624,
    "\u2581throat": 6625,
    "}": 6626,
    "\u2581Ch\u00e2n": 6627,
    "\u2581T\u01b0\u1edbng": 6628,
    "\u2581\u0110\u1ecbnh": 6629,
    "\u2581Christianity": 6630,
    "\u2581Hope": 6631,
    "\u2581Note": 6632,
    "\u2581professional": 6633,
    "\u2581resist": 6634,
    "\u2581v\u00e1n": 6635,
    "\u2581Linda": 6636,
    "\u2581department": 6637,
    "\u2581officers": 6638,
    "\u2581rejected": 6639,
    "\u2581tax": 6640,
    "\u2581Carol": 6641,
    "\u2581Lily": 6642,
    "\u2581Won": 6643,
    "\u2581c\u1eedu": 6644,
    "\u2581react": 6645,
    "\u2581significant": 6646,
    "\u2581challenges": 6647,
    "\u2581goals": 6648,
    "\u2581invisible": 6649,
    "\u2581Qu\u1ef7": 6650,
    "\u2581lifted": 6651,
    "\u2581m\u00e1": 6652,
    "\u2581occur": 6653,
    "\u2581region": 6654,
    "\u2581su\u00ea": 6655,
    "\u2581Free": 6656,
    "\u2581Him": 6657,
    "\u2581Home": 6658,
    "\u2581National": 6659,
    "\u2581Seven": 6660,
    "\u2581b\u1ec7": 6661,
    "ical": 6662,
    "side": 6663,
    "\u1ebfm": 6664,
    "\u2581Rock": 6665,
    "\u2581Same": 6666,
    "\u2581chest": 6667,
    "\u2581critical": 6668,
    "\u2581disciple": 6669,
    "\u2581giant": 6670,
    "\u2581illustration": 6671,
    "\u2581Lieutenant": 6672,
    "\u2581NW": 6673,
    "\u2581farm": 6674,
    "\u2581helpful": 6675,
    "\u2581mu\u1ed1i": 6676,
    "\u2581nh\u1eb7t": 6677,
    "\u2581thu\u1eabn": 6678,
    "head": 6679,
    "tro": 6680,
    "\u2581alcohol": 6681,
    "\u2581pounds": 6682,
    "\u2581r\u1ee1": 6683,
    "fa": 6684,
    "\u2581applied": 6685,
    "\u2581h\u01b0u": 6686,
    "Be": 6687,
    "\u2581Sal": 6688,
    "\u2581glorious": 6689,
    "\u2581nh\u00e3": 6690,
    "\u2581Nh\u00f3m": 6691,
    "\u2581Walker": 6692,
    "\u2581s\u1eebng": 6693,
    "00": 6694,
    "\u258122,": 6695,
    "\u2581agreement": 6696,
    "\u2581armed": 6697,
    "\u2581ch\u00e0": 6698,
    "bin": 6699,
    "\u258131.": 6700,
    "\u2581Morning": 6701,
    "\u2581Night": 6702,
    "\u2581Work": 6703,
    "\u2581selfish": 6704,
    "\u2581association": 6705,
    "\u2581curious": 6706,
    "\u2581practices": 6707,
    "\u2581purposes": 6708,
    "\u2581r\u1ec5": 6709,
    "rd": 6710,
    "\u2581Berlin": 6711,
    "\u2581DO": 6712,
    "\u2581degree": 6713,
    "\u2581discussion": 6714,
    "\u2581April": 6715,
    "\u2581closely": 6716,
    "\u2581=": 6717,
    "\u2581Carrie": 6718,
    "\u2581Jay": 6719,
    "\u2581Ju": 6720,
    "\u2581Th\u1ee5": 6721,
    "\u2581kh\u00f4i": 6722,
    "\u2581tower": 6723,
    "ably": 6724,
    "\u2581\"%": 6725,
    "\u2581Molly": 6726,
    "\u2581spare": 6727,
    "\u2581status": 6728,
    "\u2581Albert": 6729,
    "\u2581Stone": 6730,
    "\u2581m\u1ee1": 6731,
    "\u2581waited": 6732,
    "qua": 6733,
    "\u2581Minh": 6734,
    "\u2581S\u01a1": 6735,
    "\u2581neighborhood": 6736,
    "len": 6737,
    "\u2581Had": 6738,
    "\u2581Min": 6739,
    "\u2581Number": 6740,
    "\u2581Sergeant": 6741,
    "\u2581kh\u1ea5u": 6742,
    "ile": 6743,
    "\u2581c\u1ea3ng": 6744,
    "\u2581widow": 6745,
    "\u2581newspaper": 6746,
    "\u2581Alexander": 6747,
    "\u2581alert": 6748,
    "\u2581d\u1eadt": 6749,
    "\u2581feast": 6750,
    "\u2581fulfill": 6751,
    "\u2581urged": 6752,
    "\u2581*.": 6753,
    "\u2581Ragnar": 6754,
    "\u2581b\u1eafp": 6755,
    "\u2581Xu\u1ed1ng": 6756,
    "\u2581ng\u00f3": 6757,
    "\u2581ti\u1ec5n": 6758,
    "\u2581Underwood": 6759,
    "\u2581b\u00e1ch": 6760,
    "\u2581sc": 6761,
    "\u2581African": 6762,
    "\u2581Gregor": 6763,
    "\u2581Vi\u1ec7t": 6764,
    "`": 6765,
    "\u2581Ad": 6766,
    "\u2581Left": 6767,
    "\u2581Ron": 6768,
    "\u2581cousin": 6769,
    "\u2581tend": 6770,
    "\u2581S\u1eed": 6771,
    "\u2581begins": 6772,
    "\u2581ch\u1ed5i": 6773,
    "\u2581pi": 6774,
    "\u2581plain": 6775,
    "\u2581spoil": 6776,
    "\u2581\u0110\u01b0": 6777,
    "t\u1ed9i": 6778,
    "\u2581Micah": 6779,
    "\u2581Relax": 6780,
    "\u2581WHAT": 6781,
    "\u2581l\u1ee3n": 6782,
    "\u2581presented": 6783,
    "\u2581slowly": 6784,
    "\u2581\u0111\u00e0y": 6785,
    "don": 6786,
    "ever": 6787,
    "\u2581Charlotte": 6788,
    "\u2581b\u00f9ng": 6789,
    "\u2581d\u00e3y": 6790,
    "\u2581expecting": 6791,
    "\u2581pit": 6792,
    "\u2581shake": 6793,
    "\u2581nh\u00ec": 6794,
    "\u2581nh\u01a1": 6795,
    "\u2581vessels": 6796,
    "\u2581v\u00e1y": 6797,
    "\u2581600": 6798,
    "\u2581D\u00f2ng": 6799,
    "\u2581Grant": 6800,
    "\u2581H\u1ecfi": 6801,
    "\u2581Susan": 6802,
    "\u2581distress": 6803,
    "\u2581ki\u00eang": 6804,
    "\u2581k\u1ec7": 6805,
    "\u2581title": 6806,
    "du": 6807,
    "\u2581Allen": 6808,
    "\u2581Che": 6809,
    "\u2581b\u1ecbnh": 6810,
    "\u2581circle": 6811,
    "\u2581lu": 6812,
    "over": 6813,
    "\u2581July": 6814,
    "\u2581situations": 6815,
    "\u2581restaurant": 6816,
    "\u2581Vi\u00ean": 6817,
    "\u2581detail": 6818,
    "\u2581formed": 6819,
    "\u2581l\u00e9n": 6820,
    "\u2581row": 6821,
    "\u2581truths": 6822,
    "\u2581verse": 6823,
    "\u2581\u0111\u1ea1c": 6824,
    "\u2581\u1ea2": 6825,
    "\u2581End": 6826,
    "\u2581Need": 6827,
    "\u2581armies": 6828,
    "\u2581borders": 6829,
    "\u2581grace": 6830,
    "\u2581t\u00f4ng": 6831,
    "\u2581x\u00ed": 6832,
    "\u2581460)}": 6833,
    "\u2581survived": 6834,
    "\u2581\u00e1ch": 6835,
    "\u258128:": 6836,
    "\u2581Select": 6837,
    "\u2581X\u00e1c": 6838,
    "\u2581acceptable": 6839,
    "\u2581missionaries": 6840,
    "\u2581organized": 6841,
    "\u2581Officer": 6842,
    "\u2581development": 6843,
    "\u2581royal": 6844,
    "\u2581\u0111\u00ednh": 6845,
    "\u2581B\u01b0\u1edbc": 6846,
    "\u2581D\u1ec5": 6847,
    "\u2581Ladies": 6848,
    "\u2581Pharisees": 6849,
    "\u2581approval": 6850,
    "\u2581kh\u00e1n": 6851,
    "\u2581opposition": 6852,
    "\u2581reaction": 6853,
    "\u2581searching": 6854,
    "\u2581s\u00f9ng": 6855,
    "\u2581\u1ee6": 6856,
    "\u2581ch\u00f3c": 6857,
    "\u2581granted": 6858,
    "\u2581policy": 6859,
    "\u2581Cameron": 6860,
    "\u2581outta": 6861,
    "\u2581rent": 6862,
    "9": 6863,
    "\u258124,": 6864,
    "\u2581produced": 6865,
    "\u2581punishment": 6866,
    "th\u1edd": 6867,
    "\u2581Boss": 6868,
    "\u2581Major": 6869,
    "\u2581Sean": 6870,
    "\u2581advance": 6871,
    "\u2581cultivate": 6872,
    "\u2581investigation": 6873,
    "\u2581li\u1ec5u": 6874,
    "\u2581thief": 6875,
    "\u2581Ng\u01b0\u1ee3c": 6876,
    "\u2581beach": 6877,
    "\u2581coat": 6878,
    "\u2581pocket": 6879,
    "\u2581seventh": 6880,
    "\u2581shine": 6881,
    "\u2581fuel": 6882,
    "\u2581gi\u1ee1n": 6883,
    "Xin": 6884,
    "\u2581H\u1eadu": 6885,
    "\u2581bearing": 6886,
    "\u2581chinh": 6887,
    "\u2581contrary": 6888,
    "\u2581kh\u00fac": 6889,
    "\u2581\u0111\u1eafng": 6890,
    "\u2581\u01b0\u1edbt": 6891,
    "But": 6892,
    "su\u00ea": 6893,
    "\u2581g\u1ee5c": 6894,
    "\u2581r\u00e2u": 6895,
    "\u2581sudden": 6896,
    "\u2581v\u00e3i": 6897,
    "\u2581BE": 6898,
    "\u2581Wake": 6899,
    "\u2581selling": 6900,
    "\u2581tuy\u1ec3n": 6901,
    "15": 6902,
    "LE": 6903,
    "To": 6904,
    "ath": 6905,
    "ung": 6906,
    "\u2581Play": 6907,
    "\u2581services": 6908,
    "\u2581Chu": 6909,
    "\u2581Lucas": 6910,
    "\u2581entirely": 6911,
    "\u2581heed": 6912,
    "\u2581papers": 6913,
    "\u2581rat": 6914,
    "l\u1ea1i": 6915,
    "\u2581Er": 6916,
    "\u2581d\u01b0\u1ee3c": 6917,
    "\u2581l\u00e2y": 6918,
    "\u2581paint": 6919,
    "\u2581\u0111\u00e8": 6920,
    "\u2581accomplish": 6921,
    "\u2581identify": 6922,
    "\u2581l\u1ec1u": 6923,
    "\u2581tie": 6924,
    "20": 6925,
    "\u2581June": 6926,
    "\u2581engage": 6927,
    "\u2581humility": 6928,
    "\u2581l\u0103": 6929,
    "\u2581m\u00f3ng": 6930,
    "\u2581professor": 6931,
    "\u2581runs": 6932,
    "\u2581stolen": 6933,
    "well": 6934,
    "xin": 6935,
    "\u2581fed": 6936,
    "\u2581sentence": 6937,
    "\u2581s\u00e9t": 6938,
    "AL": 6939,
    "house": 6940,
    "\u2581Ch\u00f3": 6941,
    "\u2581decades": 6942,
    "\u2581motherfucker": 6943,
    "II": 6944,
    "\u2581arose": 6945,
    "\u2581loan": 6946,
    "\u2581stands": 6947,
    "\u2581\u01a0": 6948,
    "\u2581Ly": 6949,
    "\u2581[\u201c": 6950,
    "\u2581thirty": 6951,
    "\u2581thrown": 6952,
    "ped": 6953,
    "\u2581j": 6954,
    "\u2581stake": 6955,
    "\u2581tr\u01b0\u01a1ng": 6956,
    "ative": 6957,
    "\u2581c\u1ed1ng": 6958,
    "\u2581c\u1ee9t": 6959,
    "\u2581defend": 6960,
    "\u2581hu\u1ec7": 6961,
    "chi\u00ean": 6962,
    "t\u1ed9c": 6963,
    "\u2581B\u1ea3y": 6964,
    "\u2581H\u00e0": 6965,
    "\u2581Sister": 6966,
    "\u2581includes": 6967,
    "\u2581n\u00e1u": 6968,
    "\u2581remarkable": 6969,
    "\u2581Stephen": 6970,
    "\u2581district": 6971,
    "\u2581instructions": 6972,
    "\u2581ki\u00ea": 6973,
    "\u2581remote": 6974,
    "\u2581trigger": 6975,
    "\u2581woods": 6976,
    "\u0111\u01b0\u1ee3c": 6977,
    "\u2581Boston": 6978,
    "\u2581defense": 6979,
    "\u2581obedient": 6980,
    "ju": 6981,
    "\u2581Baal": 6982,
    "\u2581Hit": 6983,
    "\u2581Indian": 6984,
    "\u2581metal": 6985,
    "\u2581ng\u1edb": 6986,
    "\u2581overseer": 6987,
    "ok": 6988,
    "\u2581Garcia": 6989,
    "\u2581cong": 6990,
    "\u2581foundation": 6991,
    "\u2581insight": 6992,
    "\u2581represent": 6993,
    "\u2581shirt": 6994,
    "\u2581superior": 6995,
    "th\u00ec": 6996,
    "\u2581Calm": 6997,
    "\u2581Lucy": 6998,
    "\u2581eh": 6999,
    "\u2581port": 7000,
    "So": 7001,
    "r\u00f4": 7002,
    "\u2581Copy": 7003,
    "\u2581L\u00e2u": 7004,
    "\u2581Wi": 7005,
    "\u2581n\u1ed3ng": 7006,
    "\u2581sweetheart": 7007,
    "\u2581\u0110i\u1ec3m": 7008,
    "Man": 7009,
    "\u2581Tra": 7010,
    "\u2581larger": 7011,
    "\u2581obedience": 7012,
    "\u2581pop": 7013,
    "\u2581r\u0103": 7014,
    "\u2581theme": 7015,
    "uff": 7016,
    "\u2581Americans": 7017,
    "\u2581attending": 7018,
    "\u2581defeat": 7019,
    "\u2581fortune": 7020,
    "Nh\u01b0ng": 7021,
    "\u2581crash": 7022,
    "\u2581ho\u00e3n": 7023,
    "\u2581rare": 7024,
    "\u2581Ri": 7025,
    "\u2581cake": 7026,
    "\u2581conflict": 7027,
    "\u2581t\u1ecfa": 7028,
    "\u2581wound": 7029,
    "\u2581B\u00e1nh": 7030,
    "\u2581Head": 7031,
    "\u2581Tri": 7032,
    "\u2581extent": 7033,
    "\u2581horrible": 7034,
    "\u2581indicate": 7035,
    "\u2581structure": 7036,
    "\u2581xu\u00e2n": 7037,
    "\u2581Nope": 7038,
    "\u2581poverty": 7039,
    "\u2581profile": 7040,
    "\u2581s\u1ed1c": 7041,
    "\u2581Evan": 7042,
    "\u2581dancing": 7043,
    "\u2581l\u1eafp": 7044,
    "\u2581rooms": 7045,
    "\u2581silence": 7046,
    "\u2581Philip": 7047,
    "\u2581instruction": 7048,
    "\u2581r\u1ee7i": 7049,
    "\u258146": 7050,
    "\u2581Pick": 7051,
    "\u2581n\u00f4n": 7052,
    "\u2581d\u1ed1c": 7053,
    "\u2581golden": 7054,
    "\u2581heal": 7055,
    "\u2581sharp": 7056,
    "idae": 7057,
    "\u2581flee": 7058,
    "\u2581kho\u1ebb": 7059,
    "\u2581website": 7060,
    "ph\u00e1p": 7061,
    "V\u00e2ng": 7062,
    "\u2581chi\u00ea": 7063,
    "\u2581ugly": 7064,
    "\u258126.": 7065,
    "\u2581Commander": 7066,
    "\u2581b\u00f9": 7067,
    "\u2581demon": 7068,
    "\u2581piano": 7069,
    "\u2581xo\u00e1": 7070,
    "\u2581\u00dac": 7071,
    "\u2581Guy": 7072,
    "\u2581T\u00e0u": 7073,
    "\u2581View": 7074,
    "\u2581X\u00f4": 7075,
    "\u2581ignore": 7076,
    "\u2581whenever": 7077,
    "ch\u1ec9": 7078,
    "ig": 7079,
    "\u2581Aw": 7080,
    "\u2581circuit": 7081,
    "\u2581funeral": 7082,
    "\u2581publications": 7083,
    "\u2581tour": 7084,
    "\u2581Tai": 7085,
    "\u2581lessons": 7086,
    "\u2581reputation": 7087,
    "\u2581route": 7088,
    "ons": 7089,
    "\u2581T\u1eaft": 7090,
    "\u2581University": 7091,
    "\u2581h\u1ec7t": 7092,
    "\u2581Alan": 7093,
    "\u2581associated": 7094,
    "\u2581hunting": 7095,
    "\u2581prisoner": 7096,
    "\u2581stock": 7097,
    "\u2581Bond": 7098,
    "\u2581b\u1ebfn": 7099,
    "\u2581talks": 7100,
    "\u2581v\u1ea1ch": 7101,
    "\u2581Awake": 7102,
    "\u2581Change": 7103,
    "\u2581GOD": 7104,
    "\u2581Maggie": 7105,
    "\u2581ng\u00e0o": 7106,
    "\u2581\u201c[": 7107,
    "C\u00f4": 7108,
    "\u2581appointment": 7109,
    "\u2581compare": 7110,
    "\u2581consideration": 7111,
    "\u2581c\u00e2m": 7112,
    "\u2581planned": 7113,
    "\u2581vast": 7114,
    "\u2581C\u0103n": 7115,
    "\u2581airport": 7116,
    "\u2581B\u1eefa": 7117,
    "\u2581causing": 7118,
    "\u2581khao": 7119,
    "\u2581liar": 7120,
    "\u2581tools": 7121,
    "cal": 7122,
    "\u2581beside": 7123,
    "\u2581refuge": 7124,
    "van": 7125,
    "\u2581Raymond": 7126,
    "\u2581abundance": 7127,
    "\u2581nurse": 7128,
    "\u2581owner": 7129,
    "\u2581plants": 7130,
    "\u2581\u0111\u1ee9t": 7131,
    "\u2581print": 7132,
    "ku": 7133,
    "ray": 7134,
    "\u2581Thu\u1ed1c": 7135,
    "\u2581repeat": 7136,
    "\u2581shower": 7137,
    "Ba": 7138,
    "ice": 7139,
    "\u2581Minister": 7140,
    "\u2581Pi": 7141,
    "\u2581mouse": 7142,
    "\u2581movies": 7143,
    "\u2581shed": 7144,
    "\u2581smoking": 7145,
    "\u0111\u00e3": 7146,
    "\u2581Angeles": 7147,
    "\u2581Vegas": 7148,
    "\u2581c\u00f5i": 7149,
    "\u2581m\u00e0ng": 7150,
    "\u2581prisoners": 7151,
    "\u2581product": 7152,
    "sha": 7153,
    "\u2581Malcolm": 7154,
    "\u2581th\u00e2m": 7155,
    "\u2581\u0110\u1eb1ng": 7156,
    "\u2581@": 7157,
    "\u2581H\u1ecfa": 7158,
    "\u2581assist": 7159,
    "\u2581essential": 7160,
    "\u2581extraordinary": 7161,
    "\u2581messages": 7162,
    "\u2581rulers": 7163,
    "\u2581\u0111\u00e0m": 7164,
    "Ha": 7165,
    "\u2581drawing": 7166,
    "\u2581tr\u00e1ng": 7167,
    "\u2581Patrick": 7168,
    "\u2581endurance": 7169,
    "\u2581painting": 7170,
    "Stencil": 7171,
    "\u2581discreet": 7172,
    "\u2581g\u1ea1ch": 7173,
    "\u2581m\u00faa": 7174,
    "\u2581m\u1ef9": 7175,
    "\u2581portion": 7176,
    "\u2581prospect": 7177,
    "\u2581scientific": 7178,
    "\u2581Ethan": 7179,
    "\u2581chay": 7180,
    "\u2581c\u1ea1o": 7181,
    "\u2581d\u01a1": 7182,
    "ker": 7183,
    "king": 7184,
    "\u00f4": 7185,
    "\u2581Columbia": 7186,
    "\u2581T\u1ec7": 7187,
    "\u2581Vi\u1ebft": 7188,
    "\u2581flat": 7189,
    "\u2581recall": 7190,
    "car": 7191,
    "ps": 7192,
    "\u2581Center": 7193,
    "\u2581Hezekiah": 7194,
    "\u2581L\u1ecbch": 7195,
    "\u2581assured": 7196,
    "\u2581l\u01b0\u1ee1ng": 7197,
    "\u2581poison": 7198,
    "\u2581rough": 7199,
    "\u2581salt": 7200,
    "\u2581unknown": 7201,
    "\u2581usual": 7202,
    "\u0110\u1eebng": 7203,
    "\u2581Apparently": 7204,
    "\u2581Dis": 7205,
    "\u2581Memorial": 7206,
    "\u2581Page": 7207,
    "\u2581bucks": 7208,
    "\u2581ch\u1ed1n": 7209,
    "\u2581m\u1ed5": 7210,
    "\u2581th\u1ecd": 7211,
    "shi": 7212,
    "\u2581ph\u00e0m": 7213,
    "\u2581prize": 7214,
    "\u2581remaining": 7215,
    "wood": 7216,
    "\u2581silent": 7217,
    "\u2581sincere": 7218,
    "\u2581stomach": 7219,
    "\u2581vain": 7220,
    "tes": 7221,
    "\u2581Ke": 7222,
    "\u2581M\u00f4n": 7223,
    "\u2581Ngon": 7224,
    "\u2581clothing": 7225,
    "\u2581$": 7226,
    "\u2581Heh": 7227,
    "\u2581Val": 7228,
    "\u2581articles": 7229,
    "\u2581considering": 7230,
    "\u2581handsome": 7231,
    "\u2581television": 7232,
    "\u2581upright": 7233,
    "\u2581v\u00e1c": 7234,
    "\u2581v\u00fa": 7235,
    "\u258121,": 7236,
    "\u2581Helen": 7237,
    "\u2581breathing": 7238,
    "\u2581constantly": 7239,
    "\u2581description": 7240,
    "\u2581foolish": 7241,
    "#7843;": 7242,
    "\u258127.": 7243,
    "\u258141": 7244,
    "\u2581Service": 7245,
    "\u2581T\u1ee9c": 7246,
    "\u2581eggs": 7247,
    "\u2581focused": 7248,
    "\u2581h\u0103ng": 7249,
    "\u2581nuts": 7250,
    "\u2581tail": 7251,
    "\u2581construction": 7252,
    "\u2581ng\u1eaft": 7253,
    "\u2581ranh": 7254,
    "\u2581testimony": 7255,
    "\u2581troops": 7256,
    "\u2581Faith": 7257,
    "\u2581famine": 7258,
    "\u2581torture": 7259,
    "\u2581disappeared": 7260,
    "\u2581sooner": 7261,
    "\u2581Almighty": 7262,
    "\u2581constant": 7263,
    "\u2581unable": 7264,
    "\u2581Translation": 7265,
    "\u2581Za": 7266,
    "\u2581player": 7267,
    "\u2581sorts": 7268,
    "\u2581l\u01b0\u1eddng": 7269,
    "Ma": 7270,
    "ists": 7271,
    "\u2581Eli": 7272,
    "\u2581Philippians": 7273,
    "\u2581discussed": 7274,
    "\u2581gi\u1ecdt": 7275,
    "\u2581surrounded": 7276,
    "iah": 7277,
    "med": 7278,
    "\u2581C\u1ea5u": 7279,
    "\u2581Pop": 7280,
    "\u2581click": 7281,
    "B\u1ee9c": 7282,
    "sky": 7283,
    "\u2581Australia": 7284,
    "\u2581h\u00edt": 7285,
    "\u2581subjects": 7286,
    "\u258115]": 7287,
    "\u2581deeds": 7288,
    "\u2581Fear": 7289,
    "\u2581Lydia": 7290,
    "\u2581March": 7291,
    "\u2581strive": 7292,
    "\u2581tip": 7293,
    "\u2581Especially": 7294,
    "\u2581Speak": 7295,
    "\u2581fifty": 7296,
    "\u2581severe": 7297,
    "\u2581strangers": 7298,
    "\u2581viewed": 7299,
    "ns": 7300,
    "ip": 7301,
    "ities": 7302,
    "ward": 7303,
    "\u2581Ian": 7304,
    "\u2581Reid": 7305,
    "\u2581boring": 7306,
    "\u2581nh\u1ea3m": 7307,
    "\u2581Gentlemen": 7308,
    "\u2581disaster": 7309,
    "\u2581st": 7310,
    "\u2581ticket": 7311,
    "\"...": 7312,
    "ious": 7313,
    "\u2581Body": 7314,
    "\u2581carbon": 7315,
    "\u2581convince": 7316,
    "\u2581interview": 7317,
    "\u2581likewise": 7318,
    "\u2581qu\u00e3ng": 7319,
    "\u2581height": 7320,
    "\u2581ki\u1ec1m": 7321,
    "\u2581nh\u1ea1t": 7322,
    "\u2581ph\u00e0n": 7323,
    "hoo": 7324,
    "\u258175": 7325,
    "\u2581Quick": 7326,
    "\u2581nights": 7327,
    "40": 7328,
    "lon": 7329,
    "\u2581Flash": 7330,
    "\u2581Qu\u1ea3n": 7331,
    "\u2581communicate": 7332,
    "\u2581goodbye": 7333,
    "\u2581pioneers": 7334,
    "\u2581silly": 7335,
    "\u2581\u0110\u00e1m": 7336,
    "ag": 7337,
    "\u2581buying": 7338,
    "\u2581h\u01b0\u1edbc": 7339,
    "\u258135.": 7340,
    "\u2581bleeding": 7341,
    "\u2581yellow": 7342,
    "\u2581\u0110\u1ecf": 7343,
    "her": 7344,
    "\u2581Afghanistan": 7345,
    "\u2581Kid": 7346,
    "\u2581Super": 7347,
    "\u2581Suy": 7348,
    "\u2581T\u00ea": 7349,
    "\u2581attended": 7350,
    "\u2581bull": 7351,
    "\u2581cubits": 7352,
    "\u2581performed": 7353,
    "\u2581user": 7354,
    "\u258144": 7355,
    "\u2581Real": 7356,
    "\u2581ch\u1eb1m": 7357,
    "\u2581developing": 7358,
    "\u2581ng\u1eedi": 7359,
    "\u2581spirits": 7360,
    "\u2581types": 7361,
    "\u2581celebrate": 7362,
    "\u2581disappointed": 7363,
    "\u2581\u0111\u1eadm": 7364,
    "):": 7365,
    "tus": 7366,
    "\u00d4ng": 7367,
    "\u2581B\u00f4": 7368,
    "\u2581bike": 7369,
    "\u2581shock": 7370,
    "cing": 7371,
    "\u2581h\u00e2m": 7372,
    "\u2581switch": 7373,
    "\u2581\u0110\u1ed9ng": 7374,
    "\u2581\u1ebfch": 7375,
    "back": 7376,
    "\u2581compared": 7377,
    "\u2581software": 7378,
    "#7853;": 7379,
    "\u2581Among": 7380,
    "\u2581B\u00e0n": 7381,
    "\u2581sanctuary": 7382,
    "\u2581spending": 7383,
    "\u2581swim": 7384,
    "\u2581warn": 7385,
    "\u2581wipe": 7386,
    "\u2581accomplished": 7387,
    "\u2581b\u1ed3n": 7388,
    "\u2581demonstrate": 7389,
    "\u2581engaged": 7390,
    "\u2581perish": 7391,
    "\u2581suck": 7392,
    "uh": 7393,
    "\u2581Almost": 7394,
    "\u2581Ephraim": 7395,
    "\u2581Point": 7396,
    "\u2581Search": 7397,
    "\u2581citizens": 7398,
    "\u2581demand": 7399,
    "\u2581v\u1eb7t": 7400,
    "clock": 7401,
    "ors": 7402,
    "\u2581Army": 7403,
    "\u2581cope": 7404,
    "\u2581grade": 7405,
    "\u2581ng\u01b0": 7406,
    "\u2581recognized": 7407,
    "\u2581traveled": 7408,
    "\u2581factor": 7409,
    "\u2581method": 7410,
    "\u2581r\u1ec3": 7411,
    "\u2581th\u1ecf": 7412,
    "\u2581Ann": 7413,
    "\u2581Gi\u01a1": 7414,
    "\u2581Lot": 7415,
    "\u2581cattle": 7416,
    "\u2581crack": 7417,
    "\u2581signed": 7418,
    "ph\u00e1i": 7419,
    "\u2581Believe": 7420,
    "\u2581Florida": 7421,
    "\u2581Hear": 7422,
    "\u2581Kh\u1ea3": 7423,
    "\u2581Teddy": 7424,
    "\u2581guarantee": 7425,
    "\u2581khi\u1ebft": 7426,
    "\u2581politics": 7427,
    "\u2581sweetie": 7428,
    "ella": 7429,
    "\u258139": 7430,
    "\u2581Italy": 7431,
    "\u2581Otherwise": 7432,
    "\u2581Tr\u1eafng": 7433,
    "Q": 7434,
    "\u2581Special": 7435,
    "\u2581hosts": 7436,
    "\u2581religions": 7437,
    "\u2581x\u1ebf": 7438,
    "fe": 7439,
    "\u2581Pat": 7440,
    "\u2581mode": 7441,
    "\u2581primary": 7442,
    "\u2581x\u00e0": 7443,
    "book": 7444,
    "\u2581T\u00e1c": 7445,
    "\u2581agents": 7446,
    "\u2581destiny": 7447,
    "\u2581sovereignty": 7448,
    "ot": 7449,
    "\u258128,": 7450,
    "\u2581Cooper": 7451,
    "\u2581Lou": 7452,
    "\u2581d\u1ed3i": 7453,
    "\u2581lake": 7454,
    "\u2581plague": 7455,
    "\u2581C\u00fat": 7456,
    "\u2581Moscow": 7457,
    "\u2581Shaw": 7458,
    "\u2581knees": 7459,
    "ft": 7460,
    "\u1ec5": 7461,
    "\u2581Kings": 7462,
    "\u2581bride": 7463,
    "\u2581referred": 7464,
    "\u2581restore": 7465,
    "mar": 7466,
    "net": 7467,
    "\u2581Moab": 7468,
    "\u2581ch\u00f3t": 7469,
    "\u2581context": 7470,
    "\u2581license": 7471,
    "Hey": 7472,
    "ea": 7473,
    "\u2581FOR": 7474,
    "\u2581Vi\u1ec7n": 7475,
    "\u2581c\u00fai": 7476,
    "\u2581d\u00f9m": 7477,
    "\u2581revenge": 7478,
    "\u2581tender": 7479,
    "down": 7480,
    "lam": 7481,
    "nan": 7482,
    "\u2581Cu": 7483,
    "\u2581D\u00ec": 7484,
    "\u2581chu\u1ed9ng": 7485,
    "\u2581holds": 7486,
    "\u2581publishers": 7487,
    "\u2581\u0110\u00ea": 7488,
    "\u2581\u0111\u1ed7": 7489,
    "\u2581Jin": 7490,
    "\u2581Moon": 7491,
    "\u2581departed": 7492,
    "\u2581disappear": 7493,
    "\u2581opportunities": 7494,
    "\u2581zeal": 7495,
    "\u2581alarm": 7496,
    "\u2581evolution": 7497,
    "\u2581toan": 7498,
    "\u2581\u2019,": 7499,
    "\u2581hatred": 7500,
    "\u2581options": 7501,
    "d\u00e2n": 7502,
    "\u2581creating": 7503,
    "\u2581dating": 7504,
    "\u2581engine": 7505,
    "\u2581forty": 7506,
    "\u2581thi\u1ebfp": 7507,
    "\u2581translated": 7508,
    "\u2581youths": 7509,
    "\u2581August": 7510,
    "\u2581Friday": 7511,
    "\u2581flow": 7512,
    "\u2581hid": 7513,
    "\u2581lonely": 7514,
    "\u2581review": 7515,
    "\u2581satisfied": 7516,
    "V\u00e0": 7517,
    "h\u1ec9nh": 7518,
    "\u2581Alpha": 7519,
    "\u2581B\u00ed": 7520,
    "\u2581arise": 7521,
    "\u2581drove": 7522,
    "\u2581grief": 7523,
    "\u2581nh\u00ed": 7524,
    "\u2581Clark": 7525,
    "\u2581Cole": 7526,
    "\u2581Half": 7527,
    "\u2581Island": 7528,
    "\u2581dinh": 7529,
    "\u2581h\u1edf": 7530,
    "\u2581determine": 7531,
    "\u2581\u00bb.": 7532,
    "ect": 7533,
    "\u2581Russia": 7534,
    "\u2581caring": 7535,
    "\u2581comments": 7536,
    "\u2581nhi": 7537,
    "\u2581possibility": 7538,
    "25": 7539,
    "\u2581chi\u00eau": 7540,
    "\u2581elderly": 7541,
    "\u2581v\u1ea5t": 7542,
    "\u2581l\u0103ng": 7543,
    "\u2581smaller": 7544,
    "responsibilities": 7545,
    "\u2581collection": 7546,
    "\u2581equipment": 7547,
    "\u2581nh\u1ecb": 7548,
    "\u2581sickness": 7549,
    "phi": 7550,
    "\u2581Felicity": 7551,
    "\u2581Year": 7552,
    "\u2581arranged": 7553,
    "\u2581exposed": 7554,
    "\u2581k\u1ec1": 7555,
    "OR": 7556,
    "\u2581Jan": 7557,
    "\u2581Jessica": 7558,
    "\u2581Sheriff": 7559,
    "\u2581Tinh": 7560,
    "\u2581X\u00e9t": 7561,
    "\u2581contract": 7562,
    "\u2581pity": 7563,
    "\u2581pointed": 7564,
    "\u2581unusual": 7565,
    "\u2581wave": 7566,
    "hi\u1ebfp": 7567,
    "\u2581Forgive": 7568,
    "\u2581Jon": 7569,
    "\u2581companies": 7570,
    "\u2581sets": 7571,
    "\u2581\u0110\u1eddi": 7572,
    "\u2581replace": 7573,
    "\u2581satisfaction": 7574,
    "\u2581\u0111\u1ed9n": 7575,
    "\u2581Robin": 7576,
    "\u2581genius": 7577,
    "\u2581log": 7578,
    "\u2581peaceful": 7579,
    "\u2581pig": 7580,
    "\u2581qui": 7581,
    "zo": 7582,
    "\u2581b\u1ef1": 7583,
    "\u2581cruel": 7584,
    "\u2581ordinary": 7585,
    "work": 7586,
    "\u2581Footnotes": 7587,
    "\u2581Pablo": 7588,
    "\u2581Th\u1ee7y": 7589,
    "\u2581guests": 7590,
    "\u2581healing": 7591,
    "\u2581khuy\u1ebft": 7592,
    "bit": 7593,
    "\u2581Annie": 7594,
    "\u2581Cap": 7595,
    "\u2581Larry": 7596,
    "\u2581confused": 7597,
    "\u2581machines": 7598,
    "\u2581receiving": 7599,
    "\u2581vu\u00f4ng": 7600,
    "sk": 7601,
    "\u2581$1": 7602,
    "\u2581Julie": 7603,
    "\u2581b\u00e3": 7604,
    "\u2581establish": 7605,
    "\u2581l\u1ec7ch": 7606,
    "\u2581objects": 7607,
    "\u2581overseers": 7608,
    "\u2581sum": 7609,
    "ions": 7610,
    "ub": 7611,
    "\u2581Te": 7612,
    "\u2581dragon": 7613,
    "\u2581managed": 7614,
    "gar": 7615,
    "je": 7616,
    "ud": 7617,
    "\u25811919": 7618,
    "\u2581Catherine": 7619,
    "\u2581Web": 7620,
    "\u2581phun": 7621,
    "\u2581prophecies": 7622,
    "\u2581schools": 7623,
    "\u2581s\u01b0u": 7624,
    "\u2581yo": 7625,
    "oc": 7626,
    "port": 7627,
    "\u2581ng\u00f4": 7628,
    "Come": 7629,
    "\u2581Text": 7630,
    "\u2581incense": 7631,
    "\u2581insurance": 7632,
    "\u2581sugar": 7633,
    "\u2581\u0111\u1eafm": 7634,
    "\u2581Eden": 7635,
    "\u2581cream": 7636,
    "\u2581lifetime": 7637,
    "\u2581rau": 7638,
    "\u2581Either": 7639,
    "\u2581H\u1ed3": 7640,
    "\u2581Ya": 7641,
    "\u2581firstborn": 7642,
    "\u2581mood": 7643,
    "\u2581stealing": 7644,
    "\u2581w": 7645,
    "\u2581Col": 7646,
    "\u2581asks": 7647,
    "\u2581deny": 7648,
    "\u2581dwelling": 7649,
    "\u2581laughing": 7650,
    "\u2581n\u00f3c": 7651,
    "\u2581parable": 7652,
    "\u2581screw": 7653,
    "\u2581server": 7654,
    "\u2581x\u00e1": 7655,
    "hm": 7656,
    "\u2581H\u01a1i": 7657,
    "\u2581Spartacus": 7658,
    "\u2581alien": 7659,
    "\u2581cave": 7660,
    "\u2581civil": 7661,
    "\u2581dawn": 7662,
    "\u2581extreme": 7663,
    "\u2581symbol": 7664,
    "\u2581teaches": 7665,
    "EN": 7666,
    "\u2581Greg": 7667,
    "\u2581Security": 7668,
    "\u2581adds": 7669,
    "\u2581views": 7670,
    "\u2581\u00e2u": 7671,
    "80": 7672,
    "set": 7673,
    "\u2581r\u1ea3i": 7674,
    "ngh\u1ecbch": 7675,
    "\u2581grandmother": 7676,
    "\u2581intelligence": 7677,
    "\u2581Kh\u00f3": 7678,
    "\u2581Reese": 7679,
    "\u2581brilliant": 7680,
    "\u2581frame": 7681,
    "\u2581ghi\u1ebfc": 7682,
    "\u2581soil": 7683,
    "\u2581\u00d0": 7684,
    "\u258147": 7685,
    "\u2581Lamb": 7686,
    "cu": 7687,
    "ngoan": 7688,
    "\u2581Clay": 7689,
    "\u2581Par": 7690,
    "\u2581Tr\u01b0\u1edfng": 7691,
    "\u2581collect": 7692,
    "\u2581grant": 7693,
    "\u2581illness": 7694,
    "\u2581khu\u1ea5t": 7695,
    "\u2581pot": 7696,
    "#7879;": 7697,
    "\u2581Buddy": 7698,
    "\u2581Gi\u1ecfi": 7699,
    "\u2581Howard": 7700,
    "\u2581S\u1eeda": 7701,
    "\u2581castle": 7702,
    "\u2581clever": 7703,
    "\u2581experiment": 7704,
    "\u2581highest": 7705,
    "\u2581threatened": 7706,
    "\u2581Potter": 7707,
    "\u2581prey": 7708,
    "Cha": 7709,
    "\u2581Felix": 7710,
    "\u2581Hill": 7711,
    "\u2581Mon": 7712,
    "\u2581chip": 7713,
    "\u2581dollar": 7714,
    "\u2581hoan": 7715,
    "\u2581offspring": 7716,
    "\u2581tall": 7717,
    "mail": 7718,
    "\u2581Eat": 7719,
    "\u2581Heaven": 7720,
    "\u2581deaf": 7721,
    "\u2581shift": 7722,
    "ville": 7723,
    "\u2581THAT": 7724,
    "\u2581Whoever": 7725,
    "\u2581120": 7726,
    "\u2581Ch\u1eef": 7727,
    "\u2581Grayson": 7728,
    "\u2581assistance": 7729,
    "\u2581explanation": 7730,
    "\u2581falls": 7731,
    "\u2581secular": 7732,
    "nghi\u1ec7p": 7733,
    "\u2581Italian": 7734,
    "\u2581b\u1ea5m": 7735,
    "\u2581c\u1ef1u": 7736,
    "\u2581flower": 7737,
    "\u2581grandfather": 7738,
    "\u2581listed": 7739,
    "\u2581ng\u1ed9": 7740,
    "\u2581outstanding": 7741,
    "\u2581xui": 7742,
    "\u2581inch": 7743,
    "\u2581refer": 7744,
    "bi\u1ebft": 7745,
    "ified": 7746,
    "\u2581Parker": 7747,
    "\u2581indicates": 7748,
    "\u2581mystery": 7749,
    "\u2581shield": 7750,
    "\u2581wondered": 7751,
    "ball": 7752,
    "gg": 7753,
    "\u2581besides": 7754,
    "\u2581lest": 7755,
    "\u2581link": 7756,
    "\u2581Ge": 7757,
    "\u2581corrupt": 7758,
    "\u2581describes": 7759,
    "\u2581freely": 7760,
    "\u0111anh": 7761,
    "\u2581Ana": 7762,
    "\u2581Nhi\u1ec7m": 7763,
    "\u2581endeavor": 7764,
    "\u2581entertainment": 7765,
    "\u2581mount": 7766,
    "\u2581tied": 7767,
    "\u2581whore": 7768,
    "\u2581\u00eam": 7769,
    "\u2581Looking": 7770,
    "\u2581Mum": 7771,
    "\u2581covering": 7772,
    "\u2581husbands": 7773,
    "\u2581nghi\u00eang": 7774,
    "\u2581therein": 7775,
    "\u2581Draw": 7776,
    "\u2581Lance": 7777,
    "\u2581banh": 7778,
    "\u2581select": 7779,
    "\u2581spell": 7780,
    "\u2581vacation": 7781,
    "\u2581\u1ea5u": 7782,
    "fer": 7783,
    "\u2581Fitz": 7784,
    "\u2581H\u00f2a": 7785,
    "\u2581S\u1edf": 7786,
    "\u2581kills": 7787,
    "\u2581routine": 7788,
[...]
